{"version": "1.0", "truncation": null, "padding": null, "added_tokens": [{"id": 0, "content": "[UNK]", "single_word": false, "lstrip": false, "rstrip": false, "normalized": false, "special": true}, {"id": 1, "content": "[CLS]", "single_word": false, "lstrip": false, "rstrip": false, "normalized": false, "special": true}, {"id": 2, "content": "[SEP]", "single_word": false, "lstrip": false, "rstrip": false, "normalized": false, "special": true}, {"id": 3, "content": "[PAD]", "single_word": false, "lstrip": false, "rstrip": false, "normalized": false, "special": true}, {"id": 4, "content": "[MASK]", "single_word": false, "lstrip": false, "rstrip": false, "normalized": false, "special": true}], "normalizer": null, "pre_tokenizer": {"type": "Whitespace"}, "post_processor": null, "decoder": null, "model": {"type": "BPE", "dropout": null, "unk_token": "[UNK]", "continuing_subword_prefix": null, "end_of_word_suffix": null, "fuse_unk": false, "vocab": {"[UNK]": 0, "[CLS]": 1, "[SEP]": 2, "[PAD]": 3, "[MASK]": 4, "!": 5, "\"": 6, "#": 7, "$": 8, "%": 9, "&": 10, "'": 11, "(": 12, ")": 13, "+": 14, ",": 15, "-": 16, ".": 17, "/": 18, "0": 19, "1": 20, "2": 21, "3": 22, "4": 23, "5": 24, "6": 25, "7": 26, "8": 27, "9": 28, ":": 29, ";": 30, "=": 31, "?": 32, "@": 33, "A": 34, "B": 35, "C": 36, "D": 37, "E": 38, "F": 39, "G": 40, "H": 41, "I": 42, "J": 43, "K": 44, "L": 45, "M": 46, "N": 47, "O": 48, "P": 49, "Q": 50, "R": 51, "S": 52, "T": 53, "U": 54, "V": 55, "W": 56, "X": 57, "Y": 58, "Z": 59, "[": 60, "\\": 61, "]": 62, "^": 63, "_": 64, "`": 65, "a": 66, "b": 67, "c": 68, "d": 69, "e": 70, "f": 71, "g": 72, "h": 73, "i": 74, "j": 75, "k": 76, "l": 77, "m": 78, "n": 79, "o": 80, "p": 81, "q": 82, "r": 83, "s": 84, "t": 85, "u": 86, "v": 87, "w": 88, "x": 89, "y": 90, "z": 91, "{": 92, "|": 93, "}": 94, "\u00a3": 95, "\u00a5": 96, "\u00ab": 97, "\u00ae": 98, "\u00b2": 99, "\u00bb": 100, "\u00bc": 101, "\u00bd": 102, "\u00be": 103, "\u00c1": 104, "\u00d7": 105, "\u00e0": 106, "\u00e1": 107, "\u00e7": 108, "\u00e8": 109, "\u00e9": 110, "\u00ea": 111, "\u00ed": 112, "\u00f3": 113, "\u060c": 114, "\u061b": 115, "\u061f": 116, "\u0621": 117, "\u0622": 118, "\u0623": 119, "\u0624": 120, "\u0625": 121, "\u0626": 122, "\u0627": 123, "\u0628": 124, "\u0629": 125, "\u062a": 126, "\u062b": 127, "\u062c": 128, "\u062d": 129, "\u062e": 130, "\u062f": 131, "\u0630": 132, "\u0631": 133, "\u0632": 134, "\u0633": 135, "\u0634": 136, "\u0635": 137, "\u0636": 138, "\u0637": 139, "\u0638": 140, "\u0639": 141, "\u063a": 142, "\u0640": 143, "\u0641": 144, "\u0642": 145, "\u0643": 146, "\u0644": 147, "\u0645": 148, "\u0646": 149, "\u0647": 150, "\u0648": 151, "\u0649": 152, "\u064a": 153, "\u064b": 154, "\u064c": 155, "\u064d": 156, "\u064e": 157, "\u064f": 158, "\u0650": 159, "\u0651": 160, "\u0652": 161, "\u0660": 162, "\u0661": 163, "\u0662": 164, "\u0663": 165, "\u0664": 166, "\u0665": 167, "\u0666": 168, "\u0667": 169, "\u0668": 170, "\u0669": 171, "\u066a": 172, "\u066b": 173, "\u066c": 174, "\u0670": 175, "\u0671": 176, "\u067e": 177, "\u0686": 178, "\u06a4": 179, "\u06a8": 180, "\u06a9": 181, "\u06ad": 182, "\u06af": 183, "\u06b4": 184, "\u06be": 185, "\u06cc": 186, "\u06f2": 187, "\u06f7": 188, "\u0e22": 189, "\u0e23": 190, "\u0e2d": 191, "\u0e48": 192, "\u200e": 193, "\u200f": 194, "\u2013": 195, "\u2014": 196, "\u2018": 197, "\u2019": 198, "\u201c": 199, "\u201d": 200, "\u2026": 201, "\u202a": 202, "\u202c": 203, "\u2122": 204, "\u266a": 205, "\u266b": 206, "\ufe80": 207, "\ufe81": 208, "\ufe83": 209, "\ufe84": 210, "\ufe85": 211, "\ufe86": 212, "\ufe87": 213, "\ufe88": 214, "\ufe89": 215, "\ufe8a": 216, "\ufe8b": 217, "\ufe8c": 218, "\ufe8d": 219, "\ufe8e": 220, "\ufe8f": 221, "\ufe90": 222, "\ufe91": 223, "\ufe92": 224, "\ufe93": 225, "\ufe94": 226, "\ufe95": 227, "\ufe96": 228, "\ufe97": 229, "\ufe98": 230, "\ufe99": 231, "\ufe9a": 232, "\ufe9b": 233, "\ufe9c": 234, "\ufe9d": 235, "\ufe9f": 236, "\ufea0": 237, "\ufea2": 238, "\ufea3": 239, "\ufea4": 240, "\ufea6": 241, "\ufea7": 242, "\ufea8": 243, "\ufea9": 244, "\ufeaa": 245, "\ufeab": 246, "\ufeac": 247, "\ufead": 248, "\ufeae": 249, "\ufeaf": 250, "\ufeb0": 251, "\ufeb1": 252, "\ufeb2": 253, "\ufeb3": 254, "\ufeb4": 255, "\ufeb6": 256, "\ufeb7": 257, "\ufeb8": 258, "\ufeb9": 259, "\ufeba": 260, "\ufebb": 261, "\ufebc": 262, "\ufebd": 263, "\ufebe": 264, "\ufebf": 265, "\ufec0": 266, "\ufec2": 267, "\ufec3": 268, "\ufec4": 269, "\ufec7": 270, "\ufec8": 271, "\ufec9": 272, "\ufeca": 273, "\ufecb": 274, "\ufecc": 275, "\ufece": 276, "\ufecf": 277, "\ufed0": 278, "\ufed1": 279, "\ufed2": 280, "\ufed3": 281, "\ufed4": 282, "\ufed5": 283, "\ufed6": 284, "\ufed7": 285, "\ufed8": 286, "\ufed9": 287, "\ufeda": 288, "\ufedb": 289, "\ufedc": 290, "\ufedd": 291, "\ufede": 292, "\ufedf": 293, "\ufee0": 294, "\ufee1": 295, "\ufee2": 296, "\ufee3": 297, "\ufee4": 298, "\ufee5": 299, "\ufee6": 300, "\ufee7": 301, "\ufee8": 302, "\ufee9": 303, "\ufeea": 304, "\ufeeb": 305, "\ufeec": 306, "\ufeed": 307, "\ufeee": 308, "\ufef1": 309, "\ufef2": 310, "\ufef3": 311, "\ufef4": 312, "\ufef5": 313, "\ufef6": 314, "\ufef7": 315, "\ufef8": 316, "\ufef9": 317, "\ufefb": 318, "\ufefc": 319, "\u0627\u0644": 320, "\u0646\u0627": 321, "\u0641\u064a": 322, "\u0645\u0627": 323, "\u0645\u0646": 324, "\u0627\u0646": 325, "\u0627\u0644\u0645": 326, "\u0639\u0644": 327, "\u0623\u0646": 328, "\u064a\u0629": 329, "\u0647\u0627": 330, "\u0644\u0643": 331, "\u0627\u062a": 332, "\u0648\u0646": 333, "\u0644\u0627": 334, "\u0630\u0627": 335, "\u064a\u0646": 336, "\u0648\u0627": 337, "\u0627\u0644\u062a": 338, "\u064a\u0631": 339, "\u064a\u0627": 340, "\u0648\u0644": 341, "\u0633\u062a": 342, "\u0627\u0644\u0623": 343, "\u0631\u064a": 344, "\u0631\u0627": 345, "\"\"": 346, "\u0639\u0644\u0649": 347, "\u062f\u064a": 348, "\u0647\u0645": 349, "\u0643\u0646": 350, "\u0647\u0630\u0627": 351, "\u0642\u062f": 352, "\u0644\u064a": 353, "\u0639\u0646": 354, "\u0643\u0627\u0646": 355, "\u0627\u0631": 356, "\u0643\u0644": 357, "\u0627\u0645": 358, "\u0645\u0639": 359, "\u0630\u0647": 360, "\u064a\u0645": 361, "\u062d\u062f": 362, "\u0648\u0631": 363, "\u0627\u0644\u0639": 364, "\u0628\u0639": 365, "\u0644\u0644": 366, "\u0627\u0644\u062d": 367, "\u0630\u0644\u0643": 368, "\u062f\u0627": 369, "\u0648\u0645": 370, "\u0647\u0630\u0647": 371, "\u064a\u0639": 372, "\u0647\u0648": 373, "\u0633\u0627": 374, "\u0642\u0627": 375, "\u0644\u0643\u0646": 376, "\u0631\u0629": 377, "\u0625\u0646": 378, "\u062f\u0629": 379, "\u0627\u0644\u0628": 380, "\u0627\u0644\u0646": 381, "\u0645\u0644": 382, "\u0633\u064a": 383, "\u0627\u0644\u062a\u064a": 384, "\u0627\u0644\u0630": 385, "\u0642\u0629": 386, "\u0647\u0646\u0627": 387, "\u0627\u0644\u0643": 388, "\u064a\u062a": 389, "\u0625\u0644": 390, "\u0627\u0644\u0627": 391, "\u0628\u0627": 392, "\u0648\u0642": 393, "\u0627\u0644\u0633": 394, "\u0648\u062c": 395, "\u0627\u0644\u062c": 396, "\u0625\u0644\u0649": 397, "\u0627\u0644\u0642": 398, "\u0644\u0645": 399, "\u062d\u062a": 400, "\u062d\u064a": 401, "\u0647\u064a": 402, "\u0645\u0631": 403, "..": 404, "\u0643\u0645": 405, "\u0628\u0631": 406, "\u064a\u0645\u0643\u0646": 407, "\u0643\u0648\u0646": 408, "\u0648\u0639": 409, "\u0628\u0629": 410, "\u0627\u0644\u0634": 411, "\u0648\u062a": 412, "\u0645\u062a": 413, "\u0628\u062f": 414, "\u0644\u0629": 415, "\u062e\u0631": 416, "\u0627\u0644\u0637": 417, "\u0627\u0644\u0641": 418, "\u0623\u0648": 419, "\u064a\u062f": 420, "\u0646\u064a": 421, "\u062a\u0631": 422, "\u0627\u0644\u0635": 423, "\u0628\u0644": 424, "\u0642\u064a": 425, "\u0627\u0644\u0630\u064a": 426, "\u0648\u064a": 427, "\u0627\u0644\u064a": 428, "\u0644\u062a": 429, "\u0631\u0641": 430, "\u0628\u064a": 431, "\u062d\u0627": 432, "\u0627\u0644\u062e": 433, "\u0643\u062b": 434, "\u0627\u0644\u0631": 435, "\u0639\u0627": 436, "\u062a\u0645": 437, "\u064a\u0641": 438, "\u0647\u0646\u0627\u0643": 439, "\u0627\u0644\u0622": 440, "\u0639\u0644\u064a": 441, "\u0623\u064a": 442, "\u062f\u0645\u0627": 443, "\u062e\u0644": 444, "\u0642\u0637": 445, "\u0648\u0628": 446, "\u0639\u062a": 447, "\u0627\u0644\u0625": 448, "\u0639\u0629": 449, "--": 450, "\u063a\u064a\u0631": 451, "\u062c\u0645": 452, "\u0634\u0631": 453, "\u0636\u0627": 454, "\u0628\u062a": 455, "\u0634\u064a": 456, "\u062c\u0627": 457, "\u0648\u0641": 458, "\u0648\u0644\u0643\u0646": 459, "\u0646\u0641": 460, "\u062f\u0631": 461, "\u0643\u0631": 462, "\u0644\u062f\u064a": 463, "\u0634\u0627": 464, "\u0645\u062b": 465, "\u0633\u0646": 466, "\u0648\u062f": 467, "\u0623\u0646\u0647": 468, "\u0646\u0627\u0633": 469, "\u0633\u0645": 470, "\u0641\u0627": 471, "\u0635\u0644": 472, "\u062e\u0635": 473, "\u062e\u062a": 474, "\u0639\u0644\u0645": 475, "\u0643\u062a": 476, "\u062d\u062f\u062b": 477, "\u0639\u0646\u062f\u0645\u0627": 478, "\u0643\u062b\u0631": 479, "\u062a\u0642": 480, "\u0646\u062d": 481, "\u062a\u062d": 482, "\u0639\u062f": 483, "\u064b\u0627": 484, "\u0645\u0629": 485, "\u064a\u0644": 486, "\u0643\u0627\u0646\u062a": 487, "\u0628\u0639\u0636": 488, "\u0627\u0644\u0622\u0646": 489, "\u0631\u0628": 490, "\u0648\u0633": 491, "\u0625\u0630\u0627": 492, "\u0623\u062a": 493, "\u0645\u062c": 494, "\u0627\u0644\u062f": 495, "\u0634\u0643\u0644": 496, "\u0633\u0628": 497, "\u0648\u0623": 498, "\u0646\u062a": 499, "\u0643\u0646\u062a": 500, "\u0639\u0645": 501, "\u064a\u062c": 502, "\u0627\u0635": 503, "\u0628\u062d": 504, "\u062a\u0644\u0643": 505, "\u062a\u0635": 506, "\u0638\u0631": 507, "\u062a\u0639": 508, "\u0628\u0647": 509, "\u062e\u062f": 510, "\u0633\u062a\u0637": 511, "\u0628\u0639\u062f": 512, "\u064a\u0627\u0621": 513, "\u0641\u0629": 514, "\u0641\u0639\u0644": 515, "\u0627\u0644\u0646\u0627\u0633": 516, "\u0627\u062c": 517, "\u0631\u0636": 518, "\u0627\u0644\u062b": 519, "00": 520, "\u0648\u0636": 521, "\u0648\u0643": 522, "\u0627\u064b": 523, "\u0646\u0627\u062a": 524, "\u064a\u0642": 525, "\u0648\u0644\u0627": 526, "\u0628\u064a\u0646": 527, "\u062c\u062f\u0627": 528, "\u0627\u0644\u0639\u0627\u0644\u0645": 529, "\u0627\u0644\u0649": 530, "\u0644\u064a\u0633": 531, "\u0631\u0643": 532, "\u0633\u062a\u062e\u062f": 533, "\u062d\u0629": 534, "\u0623\u0643\u062b\u0631": 535, "\u0623\u0646\u0627": 536, "\u0647\u0631": 537, "\u062b\u064a\u0631": 538, "\u0627\u0626": 539, "\u0642\u0644": 540, "\u0633\u0646\u0627": 541, "\u0623\u062e": 542, "\u0644\u0623\u0646": 543, "\u0641\u0642\u0637": 544, "\u0648\u0627\u062d\u062f": 545, "\u0628\u064a\u0631": 546, "\u0644\u0642\u062f": 547, "\u0628\u0637": 548, "\u062a\u0645\u0627": 549, "\u0642\u0628\u0644": 550, "\u0646\u0639": 551, "\u0633\u0629": 552, "\u0646\u062d\u0646": 553, "\u0645\u0627\u062a": 554, "\u0647\u0644": 555, "\u0634\u064a\u0621": 556, "\u0645\u062b\u0644": 557, "\u062a\u062c": 558, "\u0645\u064a": 559, "\u0646\u0641\u0633": 560, "\u0643\u0627": 561, "\u0648\u0631\u0629": 562, "\u0627\u0644\u063a": 563, "\u062d\u064a\u062b": 564, "\u0644\u0646": 565, "\u062c\u0644": 566, "\u0645\u0627\u0630\u0627": 567, "\u0639\u0645\u0644": 568, "\u0641\u0643": 569, "\u062e\u0631\u0649": 570, "\u0639\u0627\u0645": 571, "\u0644\u0648": 572, "\u0639\u062a\u0642\u062f": 573, "\u0627\u0628": 574, "\u0631\u062f": 575, "\u0648\u0627\u0642": 576, "\u0631\u064a\u062f": 577, "\u0634\u064a\u0627\u0621": 578, "\u0633\u062a\u0637\u064a\u0639": 579, "\u0627\u0644\u0645\u062a": 580, "\u0648\u0642\u062a": 581, "\u0645\u0648": 582, "\u064a\u0627\u062a": 583, "\u0637\u0641": 584, "\u0623\u0633": 585, "\u0641\u0636": 586, "\u062d\u062a\u0649": 587, "\u062d\u0648\u0644": 588, "\u0643\u0645\u0627": 589, "\u0631\u0642": 590, "\u0634\u062e\u0635": 591, "\u062a\u062a": 592, "\u0627\u0644\u0645\u0627": 593, "\u062f\u064a\u062f": 594, "\u0637\u0629": 595, "\u0631\u064a\u0642": 596, "\u0626\u0629": 597, "\u0631\u064a\u0642\u0629": 598, "\u0647\u0646": 599, "\u0648\u0627\u062a": 600, "\u0643\u064a\u0641": 601, "\u0627\u062f": 602, "\u0641\u062a": 603, "\u0631\u0627\u062a": 604, "\u0643\u064a": 605, "\u0647\u062f": 606, "\u0627\u0644\u0644": 607, "\u064a\u0643\u0648\u0646": 608, "\u062b\u0645": 609, "\u064a\u0634": 610, "\u0639\u0628": 611, "\u062d\u0633\u0646\u0627": 612, "\u0645\u0633": 613, "\u0644\u0630\u0627": 614, "\u0627\u0644\u0648": 615, "\u0628\u0647\u0627": 616, "\u0642\u064a\u0642\u0629": 617, "\u0623\u0639": 618, "\u0627\u0644\u0643\u062b\u064a\u0631": 619, "\u0648\u062c\u062f": 620, "\u0648\u0627\u0642\u0639": 621, "\u062c\u0632": 622, "\u0623\u0635": 623, "\u0631\u0627\u0621": 624, "\u0631\u062a": 625, "\u062c\u0645\u064a\u0639": 626, "\u0645\u0643\u0627\u0646": 627, "\u0626\u064a": 628, "\u0648\u0627\u0644": 629, "\u0642\u0635": 630, "\u0627\u0644\u064a\u0648\u0645": 631, "\u0645\u0646\u0627": 632, "\u062e\u0627\u0635": 633, "\u062e\u0644\u0627\u0644": 634, "\u0648\u0647\u0630\u0627": 635, "\u0637\u0644": 636, "\u062e\u0637": 637, "\u0648\u0641\u064a": 638, "\u0645\u062f": 639, "\u0631\u0627\u0626": 640, "\u0627\u0644\u0645\u0646": 641, "\u0646\u0648\u0639": 642, "\u0627\u0644\u0627\u0646": 643, "\u0642\u0648\u0645": 644, "\u0623\u0643": 645, "\u0633\u0648\u0641": 646, "\u0645\u0633\u062a": 647, "\u0634\u0643": 648, "\u0642\u0648\u0644": 649, "\u062e\u062a\u0644": 650, "\u0627\u0644\u0630\u064a\u0646": 651, "\u0623\u064a\u0636\u0627": 652, "\u0633\u0644": 653, "\u0641\u0631": 654, "\u0623\u0645": 655, "\u0627\u0646\u064a": 656, "\u062a\u0643\u0648\u0646": 657, "\u0633\u0631": 658, "\u0627\u0633\u062a": 659, "\u0639\u0631": 660, "\u064a\u0627\u0645": 661, "\u0628\u064a\u0639": 662, "\u062c\u062f": 663, "\u0628\u0623\u0646": 664, "\u0643\u0628\u064a\u0631": 665, "\u0627\u0646\u0647": 666, "\u064a\u062c\u0628": 667, "\u0623\u062d\u062f": 668, "\u0644\u062f\u064a\u0646\u0627": 669, "\u0627\u0644\u0629": 670, "\u062d\u0627\u0648\u0644": 671, "\u0637\u0627": 672, "\u062c\u064a": 673, "\u062d\u0644": 674, "\u0628\u0642": 675, "\u0627\u0644\u0648\u0627\u0642\u0639": 676, "\u0641\u0636\u0644": 677, "\u064a\u0627\u0629": 678, "\u0628\u0646\u0627": 679, "\u0627\u0644\u0625\u0646": 680, "\u0627\u0644\u0636": 681, "\u0644\u0630\u0644\u0643": 682, "\u0643\u0629": 683, "\u0639\u0646\u064a": 684, "\u062a\u064a": 685, "\u062a\u0646": 686, "\u0627\u0631\u0629": 687, "\u0628\u0634\u0643\u0644": 688, "\u0641\u064a\u0629": 689, "\u062c\u0629": 690, "\u0641\u0639": 691, "\u0633\u0628\u0629": 692, "\u062a\u0647": 693, "\u062c\u062f\u0627\u064b": 694, "\u0627\u0644\u0623\u0645\u0631": 695, "\u0623\u062e\u0631\u0649": 696, "\u0639\u064a": 697, "\u0648\u064a\u0629": 698, "\u0628\u062f\u0623": 699, "\u0623\u0631": 700, "\u062d\u0638": 701, "\u0648\u0635": 702, "\u0627\u0644\u0639\u0645\u0644": 703, "\u0622\u062e\u0631": 704, "\u0646\u064a\u0629": 705, "\u064a\u0631\u0629": 706, "\u0642\u0631": 707, "\u063a\u064a": 708, "\u063a\u0627": 709, "\u0644\u0643\u0645": 710, "\u0628\u0627\u0631": 711, "\u0628\u0625": 712, "\u0648\u0629": 713, "\u0627\u0644\u0648\u0642\u062a": 714, "\u0645\u0631\u0629": 715, "\u0641\u0625\u0646": 716, "\u064a\u0627\u064b": 717, "\u0646\u0638": 718, "\u0644\u0627\u062b": 719, "\u0648\u0642\u062f": 720, "\u0648\u0627\u0646": 721, "\u0623\u062e\u0630": 722, "\u0623\u0644": 723, "\u0628\u0627\u0644\u062a": 724, "\u062a\u0634": 725, "\u0626\u064a\u0629": 726, "\u0627\u0644\u0645\u062f": 727, "\u0644\u0627\u064b": 728, "\u062d\u0642\u0627": 729, ".\"\"": 730, "\u0648\u0645\u0627": 731, "\u0628\u062f\u0648": 732, "\u0633\u062a\u062e\u062f\u0627\u0645": 733, "\u0648\u0645\u0646": 734, "\u0627\u0644\u0623\u0634\u064a\u0627\u0621": 735, "\u0637\u064a": 736, "\u064a\u0635": 737, "\u062d\u064a\u0646": 738, "\u0623\u062d": 739, "\u064a\u0645\u0643\u0646\u0643": 740, "\u0645\u062e\u062a\u0644": 741, "\u0623\u0646\u0647\u0627": 742, "\u0627\u0644\u0623\u0645": 743, "\u0623\u0634": 744, "\u0627\u0644\u0645\u0633\u062a": 745, "\u064a\u0645\u0643\u0646\u0646\u0627": 746, "\u0642\u0644\u064a": 747, "\u0633\u064a\u0629": 748, "\u062a\u0627": 749, "\u0627\u0644\u0632": 750, "\u0628\u0627\u0644\u0646": 751, "\u0628\u0627\u062a": 752, "\u0648\u0647\u0648": 753, "\u0633\u062a\u062e\u062f\u0645": 754, "\u0631\u0627\u064b": 755, "\u0637\u0641\u0627\u0644": 756, "\u0633\u0628\u0628": 757, "\u0627\u0644\u0645\u062c": 758, "\u0627\u0644\u064a\u0629": 759, "\u062d\u062a\u0627\u062c": 760, "\u0636\u064a": 761, "\u0628\u0646": 762, "\u0645\u0635": 763, "\u0644\u0646\u0627": 764, "\u0648\u0647": 765, "\u0631\u0628\u0645\u0627": 766, "\u062a\u0645\u0639": 767, "\u0648\u0649": 768, "\u062f\u0639": 769, "\u064a\u062d": 770, "\u0625\u0646\u0647\u0627": 771, "\u0641\u0649": 772, "\u0628\u062f\u0627": 773, "\u0648\u0636\u0639": 774, "\u0644\u0647": 775, "\u0641\u0642": 776, "\u0646\u0629": 777, "\u0645\u062d": 778, "\u0623\u0639\u062a\u0642\u062f": 779, "\u0646\u0638\u0631": 780, "\u0645\u0627\u064b": 781, "\u0639\u0644\u064a\u0647": 782, "\u062c\u0645\u0648\u0639": 783, "\u0648\u0632": 784, "\u0627\u0646\u064a\u0629": 785, "\u0625\u0646\u0647": 786, "\u0628\u064a\u0629": 787, "\u0648\u0645\u0627\u062a": 788, "\u0641\u0644": 789, "\u062a\u0639\u0644\u0645": 790, "\u0627\u064a": 791, "\u0641\u0643\u0631": 792, "\u062c\u0647": 793, "\u0635\u0648\u0644": 794, "\u0625\u0644\u064a": 795, "\u0636\u0639": 796, "\u062f\u064a\u062f\u0629": 797, "\u0639\u0627\u062f\u0629": 798, "\u0648\u0646\u064a": 799, "\u0639\u062f\u0629": 800, "\u0631\u0641\u0629": 801, "\u0634\u064a\u0626": 802, "\u0642\u062f\u0645": 803, "\u0643\u0646\u0627": 804, "\u064a\u0646\u0629": 805, "\u0628\u0635": 806, "\u0627\u0644\u0627\u062a": 807, "\u0642\u062a": 808, "\u0643\u062b\u064a\u0631": 809, "\u062d\u0631": 810, "\u0648\u0627\u0644\u062a\u064a": 811, "\u062d\u064a\u0627\u062a": 812, "\u062c\u0639\u0644": 813, "\u0635\u0641": 814, "\u0644\u0623": 815, "\u0648\u0627\u062d\u062f\u0629": 816, "\u062c\u0631": 817, "\u0648\u0644\u0629": 818, "\u0627\u0644\u062d\u0642\u064a\u0642\u0629": 819, "\u0648\u0627\u0644\u0645": 820, "\u0648\u0644\u0648\u062c": 821, "\u0633\u0646\u0629": 822, "\u062b\u0644\u0627\u062b": 823, "\u0626\u0644": 824, "\u0641\u0647\u0645": 825, "\u0644\u0627\u0621": 826, "\u0627\u0646\u0647\u0627": 827, "\u064a\u0632": 828, "\u064a\u062a\u0645": 829, "\u0627\u0644\u0623\u0633": 830, "\u0623\u0646\u0646\u0627": 831, "\u0637\u0631": 832, "\u0627\u0644\u0623\u0648\u0644": 833, "\u0635\u0629": 834, "\u0644\u064a\u0633\u062a": 835, "\u0628\u0627\u0644\u0645": 836, "\u0648\u0642\u0639": 837, "\u0644\u0647\u0627": 838, "\u0630\u0647\u0628": 839, "\u0627\u0644\u062d\u064a\u0627\u0629": 840, "\u0644\u0643\u064a": 841, "\u0641\u064a\u0647": 842, "\u0639\u0646\u062f": 843, "\u0639\u0627\u0644\u0645": 844, "\u0642\u0627\u0644": 845, "\u0627\u0644\u0645\u0631": 846, "\u062a\u062f": 847, "\u062a\u062e": 848, "\u0648\u0647\u064a": 849, "\u0633\u0627\u0621": 850, "\u0639\u0644\u064a\u0646\u0627": 851, "\u0623\u0641\u0636\u0644": 852, "\u0627\u0644\u0639\u0644": 853, "\u0648\u062d": 854, "\u064a\u062d\u062f\u062b": 855, "\u0644\u062f": 856, "\u0638\u0645": 857, "\u0642\u0627\u0645": 858, "\u0627\u0644\u0633\u064a\u0627": 859, "\u0628\u0645": 860, "\u064a\u0633": 861, "\u064a\u0648\u0645": 862, "\u0639\u064a\u0629": 863, "\u0627\u0642\u0629": 864, "\u063a\u064a\u0631\u0629": 865, "\u0634\u0643\u0644\u0629": 866, "\u0628\u0627\u0644\u0646\u0633\u0628\u0629": 867, "\u0641\u064a\u0647\u0627": 868, "\u0645\u0646\u0630": 869, "\u062c\u0646": 870, "...": 871, "\u0630\u0643\u0631": 872, "\u0648\u0627\u0644\u062a": 873, "\u062d\u062f\u0629": 874, "\u0633\u0623": 875, "\u0642\u0627\u0626": 876, "\u0627\u0648": 877, "\u062d\u0642": 878, "\u0633\u064a\u0627": 879, "\u062f\u0627\u062e\u0644": 880, "\u0630\u0627\u062a": 881, "\u0634\u0627\u0631": 882, "\u0623\u0646\u062a": 883, "\u0648\u062f\u0629": 884, "\u0642\u0627\u062f": 885, "\u0627\u0644\u0628\u064a": 886, "\u0627\u0644\u0627\u0645": 887, "\u0644\u0645\u0627\u0630\u0627": 888, "\u0627\u0644\u062c\u0645": 889, "\u0627\u0644\u0634\u064a": 890, "\u062a\u0647\u0627": 891, "\u0627\u0630\u0627": 892, "\u062a\u0633": 893, "\u0628\u0643": 894, "\u062d\u0648": 895, "\u062a\u0646\u0627": 896, "\u0627\u0644\u0642\u064a\u0627\u0645": 897, "\u0631\u0624": 898, "\u0638\u0647\u0631": 899, "\u0639\u0627\u062a": 900, "\u062d\u0633\u0646\u0627\u064b": 901, "\u062f\u0627\u0626": 902, "\u063a\u0644": 903, "\u0648\u062c\u0648\u062f": 904, "\u0634\u062e\u0627\u0635": 905, "\u0623\u0648\u0644": 906, "\u0643\u0630\u0644\u0643": 907, "\u0645\u0642": 908, "\u0631\u0633": 909, "\u0636\u0627\u0621": 910, "\u0641\u0642\u062f": 911, "\u0627\u0644\u0633\u0627": 912, "\u0639\u0628\u0631": 913, "\u0627\u0644\u0639\u0627\u0645": 914, "\u0632\u0629": 915, "\u0645\u0644\u064a": 916, "\u0628\u0639\u0629": 917, "\u064a\u0643": 918, "\u0627\u0644\u0641\u064a": 919, "\u0648\u0643\u0627\u0646": 920, "\u0639\u0644\u0648\u0645\u0627\u062a": 921, "\u062a\u0637": 922, "\u0633\u0646\u0648\u0627\u062a": 923, "\u0642\u064a\u0642": 924, "\u0627\u0644\u0645\u0639": 925, "\u0630\u0646": 926, "\u0628\u0645\u0627": 927, "\u064a\u0627\u0631": 928, "\u062f\u064a\u062b": 929, "\u0632\u0644": 930, "\u0648\u064a\u0631": 931, "\u0636\u062d": 932, "\u062a\u0643": 933, "\u0631\u0649": 934, "\u0644\u0627\u0645": 935, "\u0628\u0628": 936, "\u0627\u0644\u062e\u0627\u0635": 937, "\u0645\u0624": 938, "\u0623\u0631\u064a\u062f": 939, "\u0647\u0646\u062f": 940, "\u0643\u0631\u0629": 941, "\u0628\u062f\u0623\u062a": 942, "\u0644\u064a\u0644": 943, "\u064a\u0643\u0646": 944, "\u0645\u0627\u0646": 945, "\u0627\u062d": 946, "\u0627\u0642": 947, "\u0628\u0630\u0644\u0643": 948, "\u0627\u0644\u0647": 949, "\u0624\u0644\u0627\u0621": 950, "\u062f\u0627\u064b": 951, "\u0627\u0644\u0646\u0627": 952, "\u0627\u0644\u0627\u0633\u062a": 953, "\u064a\u0648\u062c\u062f": 954, "\u0627\u0644\u0637\u0631\u064a\u0642\u0629": 955, "\u0648\u0621": 956, "\u0623\u0629": 957, "\u0643\u0630\u0627": 958, "\u062c\u0645\u0648\u0639\u0629": 959, "\u0644\u0623\u0646\u0647": 960, "\u0645\u0627\u0621": 961, "\u0633\u0627\u0646": 962, "\u0644\u0644\u062a": 963, "\u0645\u064a\u0645": 964, "\u0648\u062c\u0647": 965, "\u063a\u064a\u064a\u0631": 966, "\u0635\u0631": 967, "\u0637\u0631\u064a\u0642": 968, "\u0648\u0627\u0621": 969, "\u0641\u0633": 970, "\u0646\u0627\u0621": 971, "\u0627\u0644\u062d\u064a": 972, "\u064a\u0642\u0648\u0645": 973, "\u0635\u062d\u064a": 974, "\u0627\u0644\u0634\u062e\u0635": 975, "\u0641\u0643\u0631\u0629": 976, "\u0623\u064a\u0636\u0627\u064b": 977, "\u0644\u0627\u0642": 978, "\u0628\u0627\u0644\u0641": 979, "\u0641\u0631\u064a\u0642": 980, "\u0643\u0633": 981, "\u0633\u0627\u0639\u062f": 982, "\u0646\u0633": 983, "\u0634\u0626": 984, "\u0627\u0644\u062a\u062d": 985, "\"\".": 986, "\u0627\u0639": 987, "\u0647\u0627\u064a\u0629": 988, "\u0627\u0644\u0623\u0631\u0636": 989, "\u062a\u0631\u0648\u0646": 990, "\u064a\u0627\u0646\u0627\u062a": 991, "\u0636\u0631": 992, "\u0639\u0644\u064a\u0647\u0627": 993, "\u062f\u0644": 994, "\u0645\u0645\u0627": 995, "\u0627\u0644\u0645\u0646\u0627": 996, "\u0644\u0644\u0645": 997, "\u0623\u0645\u0627": 998, "\u0639\u062f\u062f": 999, "\u0648\u0633\u064a": 1000, "\u062f\u0648\u0646": 1001, "\u0637\u0631\u064a\u0642\u0629": 1002, "\u0645\u0645": 1003, "\u062f\u0631\u0627": 1004, "\u062b\u0631": 1005, "\u064a\u0628\u062f\u0648": 1006, "\u0645\u0646\u0647\u0627": 1007, "\u0643\u0627\u0646\u0648\u0627": 1008, "\u062d\u0646": 1009, "\u0644\u0627\u0641": 1010, "\u0634\u0641": 1011, "\u062a\u0642\u0648\u0645": 1012, "\u0648\u0627\u0644\u0630\u064a": 1013, "000": 1014, "\u0639\u0645\u0627\u0644": 1015, "\u0627\u0644\u0639\u062f\u064a\u062f": 1016, "\u064a\u0639\u0646\u064a": 1017, "\u0634\u0627\u0647\u062f": 1018, "\u062e\u0627": 1019, "\u0636\u064a\u0629": 1020, "\u063a\u0627\u064a\u0629": 1021, "\u0628\u0633": 1022, "\u0631\u064a\u062e": 1023, "\u0648\u0646\u0627": 1024, "\u0624\u0627\u0644": 1025, "\u0645\u062e\u062a\u0644\u0641\u0629": 1026, "\u0643\u0646\u0648\u0644\u0648\u062c": 1027, "\u062a\u062d\u062a": 1028, "\u062d\u064a\u0629": 1029, "\u0628\u0646\u0627\u0621": 1030, "\u0627\u0633": 1031, "\u0644\u0625": 1032, "\u0648\u0637": 1033, "\u0627\u0644\u0645\u062d": 1034, "\u0643\u0628\u064a\u0631\u0629": 1035, "\u0632\u064a": 1036, "\u0628\u064a\u0644": 1037, "\u0627\u062b": 1038, "20": 1039, "\u064a\u0642\u0648\u0644": 1040, "\u0642\u0627\u0621": 1041, "\u0627\u0644\u0645\u062a\u062d\u062f\u0629": 1042, "\u0647\u0627\u062a": 1043, "\u0627\u0645\u0644": 1044, "\u0627\u0644\u062a\u0635": 1045, "\u0632\u0627": 1046, "\u062a\u0644": 1047, "\u062b\u0644": 1048, "\u0647\u0624\u0644\u0627\u0621": 1049, "\u062c\u0632\u0621": 1050, "\u062c\u0627\u0631": 1051, "\u0627\u0631\u062c": 1052, "\u0641\u0643\u064a\u0631": 1053, "\u0628\u0627\u0644": 1054, "\u0628\u0648\u0627": 1055, "\u062a\u0639\u0631\u0641": 1056, "19": 1057, "\u0646\u064a\u0646": 1058, "\u0646\u0639\u0645": 1059, "\u0628\u0627\u0621": 1060, "\u0623\u0633\u0627": 1061, "\u063a\u0629": 1062, "\u0627\u0644\u0642\u0631": 1063, "\u0627\u0644\u0623\u062e": 1064, "\u0631\u0627\u0631": 1065, "\u0623\u0643\u0628\u0631": 1066, "\u0627\u0644\u0634\u064a\u0621": 1067, "\u0628\u0633\u0628\u0628": 1068, "\u064a\u0633\u062a": 1069, "\u0635\u0646\u0639": 1070, "\u0627\u0644\u0628\u0634\u0631": 1071, "\u0627\u0644\u0622\u062e\u0631": 1072, "\u0628\u062d\u062b": 1073, "\u0645\u0647\u0645": 1074, "\u0633\u064a\u0643\u0648\u0646": 1075, "\u0623\u062a\u064a": 1076, "\u0627\u0644\u0623\u0637\u0641\u0627\u0644": 1077, "\u0647\u0645\u0627": 1078, "\u0648\u064a\u0644": 1079, "\u0647\u062a\u0645\u0627": 1080, "\u0631\u0643\u0629": 1081, "\u0630\u062c": 1082, "\u062a\u0631\u0646\u062a": 1083, "\u061f\"\"": 1084, "\u0631\u064a\u0628": 1085, "\u0627\u0644\u0623\u0646": 1086, "\u0623\u062f": 1087, "\u0627\u0646\u062a": 1088, "\u0644\u0647\u0645": 1089, "\u0634\u0631\u0629": 1090, "\u0639\u0644\u064a\u0645": 1091, "\u062d\u0635": 1092, "\u0645\u0644\u0627": 1093, "\u0627\u0646\u0627": 1094, "\u062f\u0645\u0627\u063a": 1095, "\u062d\u0644\u0629": 1096, "\u062d\u0642\u0627\u064b": 1097, "\u0631\u0627\u0636": 1098, "\u062f\u0648\u0644\u0627": 1099, "\u0644\u0627\u0646": 1100, "\u062e\u0631\u062c": 1101, "\u062c\u062a\u0645\u0627": 1102, "\u064a\u0639\u0645\u0644": 1103, "\u0638\u0627\u0645": 1104, "\u0627\u0644\u0628\u0631": 1105, "\u0648\u0647\u0630\u0647": 1106, "\u0623\u062c\u0644": 1107, "\u0627\u0644\u0637\u0628\u064a\u0639": 1108, "\u062a\u0639\u0644\u0645\u0648\u0646": 1109, "\u0628\u0627\u0644\u0641\u0639\u0644": 1110, "\u0648\u0642\u0641": 1111, "\u0646\u0638\u0627\u0645": 1112, "\u0646\u0642\u0648\u0645": 1113, "\u062c\u064a\u062f": 1114, "\u0645\u0636": 1115, "\u0648\u0627\u0631": 1116, "\u0645\u0639\u0638\u0645": 1117, "\u0623\u0645\u0631": 1118, "\u0628\u0647\u0630\u0627": 1119, "\u0627\u0644\u0648\u0644\u0627": 1120, "\u064a\u0647": 1121, "\u0623\u0646\u0646\u064a": 1122, "\u0631\u064a\u0643": 1123, "\u0627\u0644\u0645\u0635": 1124, "\u0645\u064a\u0629": 1125, "\u0633\u0627\u062a": 1126, "\u0627\u0644\u0645\u0648\u0627": 1127, "\u0648\u0645\u0629": 1128, "\u062d\u0638\u0629": 1129, "\u0642\u062a\u0635": 1130, "\u064a\u0645\u0629": 1131, "\u0645\u062c\u0631\u062f": 1132, "\u0623\u0646\u0647\u0645": 1133, "10": 1134, "\u0641\u0639\u0644\u0647": 1135, "\u0634\u0631\u0648\u0639": 1136, "\u0648\u0633\u0637": 1137, "\u062f\u064a\u0629": 1138, "\u062a\u0633\u062a\u0637\u064a\u0639": 1139, "\u062c\u062f\u064a\u062f\u0629": 1140, "\u0623\u0634\u064a\u0627\u0621": 1141, "\u0628\u0627\u0628": 1142, "\u0637\u0642": 1143, "\u0642\u0627\u0628\u0644": 1144, "\u0648\u0638": 1145, "\u0644\u0627\u064a\u0627": 1146, "\u0644\u0644\u062d": 1147, "\u0631\u062c": 1148, "\u0627\u0644\u0623\u0634\u062e\u0627\u0635": 1149, "\u0642\u0645\u0646\u0627": 1150, "\u063a\u0645": 1151, "\u0626\u0644\u0629": 1152, "\u0627\u0644\u0637\u0628\u0639": 1153, "\u064a\u064a\u0646": 1154, "\u0645\u0634": 1155, "\u0628\u0634": 1156, "\u0644\u0644\u0627": 1157, "\u0627\u0644\u0645\u0639\u0644\u0648\u0645\u0627\u062a": 1158, "\u0648\u0627\u0639": 1159, "\u0627\u0633\u062a\u062e\u062f\u0627\u0645": 1160, "\u0644\u0647\u0630\u0627": 1161, "\u0627\u0644\u0645\u062c\u062a\u0645\u0639": 1162, "\u0628\u0637\u0631\u064a\u0642\u0629": 1163, "\u0625\u0630\u0646": 1164, "\u0645\u0633\u0627": 1165, "\u062f\u0627\u0621": 1166, "\u0627\u0644\u0645\u0632": 1167, "\u0644\u062f\u064a\u0647\u0645": 1168, "\u0646\u0633\u062a\u0637\u064a\u0639": 1169, "\u0645\u062c\u0645\u0648\u0639\u0629": 1170, "\u0651\u0629": 1171, "\u0631\u0627\u0642": 1172, "\u0631\u064a\u0628\u0627": 1173, "\u0647\u0648\u0631": 1174, "\u0644\u0642": 1175, "\u0643\u0646\u0648\u0644\u0648\u062c\u064a\u0627": 1176, "\u0643\u0627\u0631": 1177, "\u062d\u0648\u0627\u0644\u064a": 1178, "\u0625\u0630\u0627\u064b": 1179, "\u0644\u0633": 1180, "\u0645\u0634\u0627": 1181, "\u0627\u0644\u0645\u062b": 1182, "\u062a\u0645\u0627\u0645\u0627": 1183, "\u0627\u0644\u0637\u0627\u0642\u0629": 1184, "\u0648\u0623\u0646\u0627": 1185, "\u0642\u0645\u062a": 1186, "\u0634\u0639": 1187, "\u0645\u0627\u0631": 1188, "\u0627\u0644\u062a\u0627\u0644\u064a": 1189, "\u0641\u0647": 1190, "\u0627\u0621": 1191, "\u0634\u0643\u0631\u0627": 1192, "\u0647\u0646\u0627\u0644\u0643": 1193, "\u0631\u0623": 1194, "\u0644\u0644\u063a\u0627\u064a\u0629": 1195, "\u0645\u0648\u0627": 1196, "\u062f\u0627\u062f": 1197, "\u062d\u064a\u0637": 1198, "\u0641\u0627\u062a": 1199, "\u0648\u0646\u062d\u0646": 1200, "\u062b\u0644\u0627\u062b\u0629": 1201, "\u0643\u0648": 1202, "\"\"\"": 1203, "\u0639\u0644\u064a\u0643": 1204, "\u0646\u062f": 1205, "\u0639\u0631\u0636": 1206, "\u0644\u0627\u062a": 1207, "\u0625\u064a": 1208, "\u062e\u0628\u0631": 1209, "\u062f\u064a\u0648": 1210, "\u0627\u062e\u062a": 1211, "\u0627\u0644\u0635\u0648\u0631\u0629": 1212, "\u0635\u0648\u0631": 1213, "\u0641\u0643\u0627\u0631": 1214, "\u0628\u0625\u0645\u0643\u0627\u0646": 1215, "\u0646\u062d\u0648": 1216, "\u0642\u0627\u0637": 1217, "\u0641\u0638": 1218, "\u0635\u0648\u0631\u0629": 1219, "\u0627\u0646\u0628": 1220, "\u062d\u0635\u0644": 1221, "\u0627\u0644\u062e\u0637": 1222, "\u062f\u0648\u0644\u0627\u0631": 1223, "\u0645\u0632": 1224, "\u062a\u062d\u062f\u062b": 1225, "\u0628\u062d\u0627": 1226, "\u062a\u0633\u062a": 1227, "\u0627\u0644\u0648\u0644\u0627\u064a\u0627\u062a": 1228, "\u062c\u0627\u0647": 1229, "\u0631\u0624\u064a\u0629": 1230, "\u0643\u0631\u064a": 1231, "\u0635\u062f": 1232, "\u0641\u064a\u0646": 1233, "\u0631\u0627\u0626\u0639": 1234, "\u0623\u0642\u0644": 1235, "\u0633\u0627\u0633": 1236, "\u062e\u0630": 1237, "\u0635\u063a\u064a\u0631\u0629": 1238, "\u0628\u0648\u0646": 1239, "\u062d\u0627\u0644": 1240, "\u064a\u0631\u0627": 1241, "50": 1242, "\u0637\u0648\u0631": 1243, "\u0647\u062a\u0645\u0627\u0645": 1244, "\u0643\u064a\u0641\u064a\u0629": 1245, "\u0645\u0644\u064a\u0648\u0646": 1246, "\u0648\u0628\u0639\u062f": 1247, "\u0627\u0644\u0645\u0633\u0627": 1248, "\u0623\u0642": 1249, "\u0635\u062d\u064a\u062d": 1250, "\u0645\u0643\u0646": 1251, "\u0627\u0644\u062d\u0635\u0648\u0644": 1252, "\u064a\u064f": 1253, "\u0638\u0645\u0629": 1254, "\u062a\u0631\u0643": 1255, "\u0623\u062e\u0628\u0631": 1256, "\u062a\u0642\u062f": 1257, "\u0639\u0628\u0629": 1258, "\u0642\u0637\u0629": 1259, "\u0627\u0644\u0645\u0634\u0627": 1260, "\u062e\u0645": 1261, "\u0633\u064a\u0646": 1262, "\u064a\u0633\u062a\u0637\u064a\u0639": 1263, "\u0647\u0627\u0632": 1264, "\u0634\u0629": 1265, "\u0627\u0644\u062d\u062f\u064a\u062b": 1266, "\u064a\u0641\u0639\u0644": 1267, "\u062a\u064f": 1268, "\u0627\u0644\u0646\u0638\u0631": 1269, "\u062d\u062b": 1270, "\u062f\u064a\u0645": 1271, "\u0637\u0642\u0629": 1272, "\u0648\u0627\u0635\u0644": 1273, "\u0626\u0627\u062a": 1274, "\u0648\u0643\u0644": 1275, "\u0628\u062f\u0648\u0646": 1276, "\u0644\u062f\u064a\u0643": 1277, "\u064a\u0627\u0647": 1278, "\u062d\u0642\u064a\u0642\u0629": 1279, "\u0627\u0644\u0641\u0643\u0631\u0629": 1280, "\u0645\u0639\u0631\u0641\u0629": 1281, "\u0648\u062b": 1282, "\u062f\u0631\u0633\u0629": 1283, "\u062f\u0631\u062c\u0629": 1284, "\u0631\u0627\u062f": 1285, "\u0627\u0644\u0633\u0624\u0627\u0644": 1286, "\u0646\u0641\u0639\u0644": 1287, "\u0648\u0623\u0646": 1288, "\u0639\u0646\u0627": 1289, "\u0627\u0644\u0628\u064a\u0627\u0646\u0627\u062a": 1290, "\u064a\u0645\u0643\u0646\u0643\u0645": 1291, "\u0644\u0628": 1292, "\u0641\u0631\u064a\u0642\u064a\u0627": 1293, "200": 1294, "\u0648\u062a\u0631": 1295, "\u0627\u0628\u0629": 1296, "\u0627\u0644\u0648\u0627": 1297, "\u0643\u062a\u0628": 1298, "\u0627\u0644\u0633\u0628\u0628": 1299, "\u0623\u0635\u0628\u062d": 1300, "\u0648\u0639\u0646\u062f\u0645\u0627": 1301, "\u0627\u0644\u0623\u062e\u0631\u0649": 1302, "\u0646\u0639\u0631\u0641": 1303, "\u0637\u0644\u0627\u0642": 1304, "\u062a\u0623": 1305, "\u0638\u0646": 1306, "\u064a\u0627\u062f\u0629": 1307, "\u064a\u0639\u0631\u0641": 1308, "\u0628\u0635\u0648\u0631\u0629": 1309, "\u0627\u0644\u0623\u0648\u0644\u0649": 1310, "\u062c\u0645\u0639": 1311, "\u0628\u0633\u064a": 1312, "\u0627\u0644\u0643\u0644": 1313, "\u0637\u0627\u0646": 1314, "\u0645\u0646\u0647": 1315, "\u0623\u0631\u062f": 1316, "\u0633\u0645\u0649": 1317, "\u0627\u0644\u0645\u0633": 1318, "\u0639\u0644\u0642": 1319, "\u0648\u0627\u0646\u0627\u062a": 1320, "\u0623\u064a\u0646": 1321, "\u0627\u0639\u062a": 1322, "\u0645\u0627\u0644": 1323, "\u062a\u0632": 1324, "\u0634\u0631\u064a": 1325, "\u062a\u0643\u0646": 1326, "\u0648\u0636\u0648\u0639": 1327, "\u0627\u0644\u0623\u062d": 1328, "\u0647\u0627\u0628": 1329, "\u0627\u0644\u062a\u0642": 1330, "\u0627\u0644\u062c\u0645\u064a\u0639": 1331, "\u0644\u0643\u0644": 1332, "\u062a\u064a\u0646": 1333, "\u062c\u062f\u064a\u062f": 1334, "\u0627\u0644\u0633\u0631": 1335, "\u0623\u0639\u0631\u0641": 1336, "\u0627\u0644\u0647\u0646\u062f": 1337, "\u0628\u062d\u062a": 1338, "\u0648\u0644\u0645": 1339, "\u0637\u0644\u0642": 1340, "\u0628\u0647\u0630\u0647": 1341, "\u0639\u064a\u0646": 1342, "\u0627\u0644\u0646\u0633\u0627\u0621": 1343, "\u0627\u0644\u062f\u0648\u0644": 1344, "\u0627\u0644\u0646\u0648\u0639": 1345, "\u0627\u0644\u0633\u0644": 1346, "\u0637\u0644\u0628": 1347, "\u0623\u0642\u0648\u0644": 1348, "\u0627\u0644\u0628\u0639\u0636": 1349, "\u0627\u0644\u062e\u0627\u0635\u0629": 1350, "\u0639\u0631\u0641": 1351, "\u0642\u062f\u0631": 1352, "\u0645\u062c\u062a\u0645\u0639": 1353, "\u0627\u0644\u0633\u064a": 1354, "\u0627\u0644\u062c\u0646": 1355, "\u0633\u0645\u062d": 1356, "\u0633\u0631\u0639\u0629": 1357, "\u0646\u0631\u0649": 1358, "\u0642\u0635\u0629": 1359, "\u0627\u0644\u0631\u064a\u0627": 1360, "\u063a\u0637": 1361, "\u062a\u0645\u0643\u0646": 1362, "\u0628\u0627\u0646": 1363, "\u062a\u0639\u0645\u0644": 1364, "\u0628\u0646\u064a": 1365, "\u062d\u0627\u062a": 1366, "\u0646\u062d\u062a\u0627\u062c": 1367, "\u0648\u0631\u064a": 1368, "\u064a\u0631\u064a\u062f": 1369, "\u0628\u0627\u0644\u0637\u0628\u0639": 1370, "\u0623\u0646\u0651": 1371, "\u0642\u0644\u062a": 1372, "\u0646\u0641\u0633\u064a": 1373, "\u0627\u0644\u062c\u0632": 1374, "\u0644\u062f\u064a\u0647": 1375, "\u0645\u0634\u0643\u0644\u0629": 1376, "\u0627\u0631\u062a": 1377, "\u0645\u0648\u0630\u062c": 1378, "\u0642\u0628": 1379, "\u0645\u0646\u0647\u0645": 1380, "\u0633\u0627\u0626\u0644": 1381, "\u0627\u0644\u0643\u0628\u064a\u0631": 1382, "\u0631\u0643\u0627\u062a": 1383, "\u0643\u0627\u0645": 1384, "\u0639\u0634\u0631": 1385, "\u0647\u0643\u0630\u0627": 1386, "\u0628\u0643\u0629": 1387, "\u0627\u0644\u0646\u0638\u0627\u0645": 1388, "\u0648\u064a\u0646": 1389, "\u0627\u0643\u062b\u0631": 1390, "\u0627\u0644\u0643\u062a": 1391, "\u0631\u0627\u0647": 1392, "\u0627\u0644\u062d\u0643": 1393, "\u0627\u0644\u0635\u064a\u0646": 1394, "\u0623\u062b": 1395, "\u0646\u0647\u0627\u064a\u0629": 1396, "\u0623\u0646\u0643": 1397, "\u0648\u0631\u0643": 1398, "\u0625\u0633\u062a": 1399, "\u0646\u0641\u0633\u0647": 1400, "\u0646\u0634": 1401, "\u0648\u064a\u062a": 1402, "\u064a\u062c\u0639\u0644": 1403, "\u062a\u0631\u0649": 1404, "\u0628\u0643\u0644": 1405, "\u0644\u062d": 1406, "\u0627\u0644\u0642\u0637": 1407, "\u0627\u0644\u0645\u0624": 1408, "\u0645\u0628\u0627": 1409, "\u062c\u0627\u0644": 1410, "\u0642\u0627\u062a": 1411, "\u0648\u0627\u0644\u0623": 1412, "\u0627\u0644\u0645\u062b\u0627\u0644": 1413, "\u062a\u0642\u0648\u0644": 1414, "\u0631\u0627\u0626\u0639\u0629": 1415, "\u0627\u0644\u0645\u0634\u0643\u0644\u0629": 1416, "\u062d\u0627\u062f": 1417, "\u062c\u0627\u0645": 1418, "\u062a\u0647\u0645": 1419, "\u063a\u0631": 1420, "\u062a\u0631\u064a\u062f": 1421, "\u0627\u0644\u0631\u0627": 1422, "\u062a\u0642\u0631\u064a\u0628\u0627": 1423, "\u0648\u0647\u0627": 1424, "\u0627\u0644\u0643\u0648\u0646": 1425, "\u0641\u0627\u0639\u0644": 1426, "\u0627\u0644\u0648\u062d\u064a": 1427, "\u062a\u063a\u064a\u0631": 1428, "\u0642\u0649": 1429, "\u0627\u0644\u062f\u0645\u0627\u063a": 1430, "\u0639\u0646\u0647": 1431, "\u0635\u0628\u062d": 1432, "\u064a\u0641\u0629": 1433, "\u0643\u0627\u062a": 1434, "\u064a\u0628": 1435, "\u0651\u0631": 1436, "\u0627\u0644\u0645\u0627\u0636\u064a": 1437, "\u0627\u0631\u0628": 1438, "\u0627\u0643\u062a": 1439, "\u0627\u0644\u0641\u0631": 1440, "\u0634\u0631\u0643\u0629": 1441, "\u0627\u0639\u062a\u0642\u062f": 1442, "\u0628\u0639\u064a": 1443, "\u0639\u0645\u0644\u064a\u0629": 1444, "\u062f\u0627\u062a": 1445, "\u0628\u0623": 1446, "\u0633\u0628\u064a\u0644": 1447, "\u0643\u0632": 1448, "\u0627\u0644\u062a\u0641\u0643\u064a\u0631": 1449, "\u0635\u0646\u0627": 1450, "\u0633\u0645\u0639": 1451, "\u0645\u0647": 1452, "\u0642\u064a\u0642\u064a": 1453, "\u0645\u0637": 1454, "\u0641\u064a\u0645\u0627": 1455, "\u0627\u0644\u0623\u0645\u0648\u0631": 1456, "\u0634\u0643\u0631\u0627\u064b": 1457, "\u0634\u064a\u0626\u0627": 1458, "\u0645\u062e\u062a\u0644\u0641": 1459, "\u0643\u0628\u0631": 1460, "\u0642\u062f\u0631\u0629": 1461, "\u062a\u0628\u062f\u0648": 1462, "\u0643\u0628": 1463, "\u0648\u0627\u062c\u0647": 1464, "\u0637\u062d": 1465, "\u0631\u0627\u0639": 1466, "\u0635\u0648\u062a": 1467, "\u0641\u0648\u0642": 1468, "\u0627\u0644\u0645\u0643\u0627\u0646": 1469, "\u0627\u0645\u0629": 1470, "\u0623\u062c": 1471, "\u062e\u0627\u0631\u062c": 1472, "\u0623\u0648\u062f": 1473, "\u0623\u0647\u0645": 1474, "\u0644\u0627\u062d\u0638": 1475, "\u062c\u064a\u0646": 1476, "\u0644\u0645\u0627": 1477, "\u0627\u0644\u0639\u0644\u0645": 1478, "\u0627\u0646\u0648\u0646": 1479, "\u0633\u0639": 1480, "\u0627\u0644\u0645\u0627\u0644": 1481, "\u0627\u0644\u0635\u0648\u0631": 1482, "\u062e\u0644\u0642": 1483, "\u0648\u0643\u0628": 1484, "\u0648\u062c\u0648\u062f\u0629": 1485, "\u0646\u0631\u064a\u062f": 1486, "\u0646\u0627\u0645\u062c": 1487, "\u062c\u064a\u062f\u0629": 1488, "\u0648\u0627\u0644\u0622\u0646": 1489, "\u0646\u0627\u0647": 1490, "\u0642\u062a\u0635\u0627\u062f": 1491, "\u0627\u0644\u0637\u0631\u064a\u0642": 1492, "\u0639\u0627\u0645\u0644": 1493, "\u0648\u0635\u0644": 1494, "\u0637\u0628\u064a\u0639": 1495, "\u062d\u0627\u0644\u0629": 1496, "\u062c\u0632\u064a": 1497, "\u0639\u0645\u0631": 1498, "\u0633\u062a\u0643\u0648\u0646": 1499, "\u0634\u0627\u0641": 1500, "\u0627\u062f\u064a": 1501, "\u0648\u0630\u0644\u0643": 1502, "\u0631\u0627\u062c": 1503, "\u0623\u0641": 1504, "\u0645\u0646\u0643\u0645": 1505, "\u0627\u0644\u0645\u0627\u0621": 1506, "\u0627\u0644\u0645\u0633\u062a\u0642\u0628\u0644": 1507, "\u0639\u0646\u0649": 1508, "\u0627\u0644\u0645\u062d\u064a\u0637": 1509, "\u0627\u0644\u0628\u062d\u062b": 1510, "\u0645\u0631\u0636": 1511, "\u062a\u062c\u0631": 1512, "\u0627\u0644\u062e\u0644\u0627\u064a\u0627": 1513, "\u0627\u0644\u0645\u062e": 1514, "\u0628\u0648\u0627\u0633": 1515, "\u0644\u0627\u0628": 1516, "\u0645\u064a\u0644": 1517, "\u0628\u064a\u0646\u0645\u0627": 1518, "\u0648\u0647\u0646\u0627\u0643": 1519, "\u0627\u0644\u0635\u063a\u064a\u0631\u0629": 1520, "\u0644\u0641": 1521, "\u0641\u062a\u0631\u0629": 1522, "\u062a\u063a\u064a\u064a\u0631": 1523, "\u0627\u0644\u0644\u0627": 1524, "\u0631\u064a\u0639": 1525, "\u062b\u0629": 1526, "\u0643\u064a\u0646": 1527, "\u0627\u0644\u0631\u062c\u0644": 1528, "\u062d\u064a\u0627\u0629": 1529, "\u0634\u0627\u0621": 1530, "\u0627\u0644\u0625\u0646\u062a\u0631\u0646\u062a": 1531, "\u062d\u0628": 1532, "\u0627\u0644\u0643\u0645": 1533, "\u0637\u0648\u064a": 1534, "\u0644\u0627\u062f": 1535, "\u0627\u0628\u0627\u062a": 1536, "\u0627\u0644\u0634\u0645\u0633": 1537, "\u0627\u0644\u0642\u0627": 1538, "\u0627\u0634": 1539, "\u0637\u0648\u0644": 1540, "\u0638\u064a\u0645": 1541, "\u0627\u0644\u0633\u0646": 1542, "\u0628\u0648\u0627\u0633\u0637\u0629": 1543, "\u0633\u0628\u0648\u0639": 1544, "\u0645\u0644\u0643": 1545, "\u0645\u062f\u0649": 1546, "\u062c\u0627\u0621": 1547, "\u062d\u0627\u0648\u0644\u0629": 1548, "\u0623\u0633\u062a\u0637\u064a\u0639": 1549, "\u0644\u0644\u0623": 1550, "\u0627\u0644\u0642\u0635": 1551, "\u0646\u0642": 1552, "\u0645\u0631\u062a": 1553, "\u0631\u062c\u0644": 1554, "\u0648\u0627\u062c": 1555, "\u0635\u063a\u064a\u0631": 1556, "\u0641\u0646": 1557, "\u0627\u0644\u0645\u0634": 1558, "30": 1559, "\u0628\u063a\u064a": 1560, "\u0627\u0632": 1561, "\u062a\u0627\u062c": 1562, "\u0627\u0644\u0631\u062c\u0627\u0644": 1563, "\u0627\u0644\u0647\u0627": 1564, "\u0630\u0647\u0628\u062a": 1565, "\u062c\u0627\u062f": 1566, "\u062f\u0631\u0633": 1567, "\u0644\u062f\u064a\u0647\u0627": 1568, "\u064a\u062c\u0629": 1569, "\u0627\u062d\u062a": 1570, "\u0639\u0635": 1571, "\u0627\u0644\u0631\u0626\u064a": 1572, "\u0642\u0627\u064b": 1573, "\u0644\u0647\u0630\u0647": 1574, "\u0648\u0628\u0629": 1575, "\u0623\u0645\u0631\u064a": 1576, "\u0639\u062f\u0645": 1577, "\u0648\u0647\u0645": 1578, "\u0627\u0644\u062a\u0643\u0646\u0648\u0644\u0648\u062c\u064a\u0627": 1579, "\u0627\u0644\u0627\u0645\u0631": 1580, "\u0627\u0647": 1581, "\u0628\u0627\u0644\u0636": 1582, "\u0645\u0645\u062a": 1583, "\u0647\u062f\u0641": 1584, "\u0632\u0648\u062c": 1585, "\u062d\u0627\u0621": 1586, "\u062f\u062a": 1587, "\u0627\u0644\u062a\u0627": 1588, "\u0641\u0632": 1589, "\u0644\u0644\u0625": 1590, "\u062e\u0641\u0636": 1591, "\u0623\u0634\u062e\u0627\u0635": 1592, "\u0628\u062d\u064a\u062b": 1593, "\u0627\u0644\u0623\u062f": 1594, "\"\"\u060c": 1595, "\u0644\u0644\u0642": 1596, "\u0623\u0635\u0628\u062d\u062a": 1597, "100": 1598, "\u0627\u0644\u0623\u0643\u062b\u0631": 1599, "\u0639\u0649": 1600, "\u0645\u0633\u062a\u0648\u0649": 1601, "\u0645\u062f\u064a\u0646\u0629": 1602, "\u0639\u0642": 1603, "\u0633\u0627\u0637\u0629": 1604, "\u0642\u0637\u0639": 1605, "\u0639\u0646\u0647\u0627": 1606, "\u0648\u0625": 1607, "\u0628\u0646\u0641\u0633": 1608, "\u0648\u0646\u0647": 1609, "\u0628\u062d\u0627\u062c\u0629": 1610, "\u0627\u062d\u062f": 1611, "\u062c\u064a\u0644": 1612, "\u0627\u0644\u0642\u0631\u0646": 1613, "\u0645\u0646\u064a": 1614, "\u0627\u0646\u0646\u0627": 1615, "\u0628\u0644\u063a": 1616, "\u0651\u0627": 1617, "\u0648\u0644\u064a\u0633": 1618, "\u0648\u0628\u0648\u062a": 1619, "\u0627\u0644\u0645\u0645\u0643\u0646": 1620, "\u0627\u0644\u0627\u062c\u062a\u0645\u0627": 1621, "\u0645\u062e": 1622, "\u0627\u0644\u062d\u0627": 1623, "\u0627\u0644\u0625\u0633\u062a": 1624, "\u062f\u062f": 1625, "\u063a\u0628": 1626, "\u0646\u062c": 1627, "\u0627\u0644\u0642\u0627\u062f": 1628, "\u0648\u0645\u0639": 1629, "\u064a\u0645\u0643\u0646\u0646\u064a": 1630, "\u0627\u0644\u062d\u064a\u0648\u0627\u0646\u0627\u062a": 1631, "\u0627\u0644\u0639\u0635": 1632, "\u062c\u0627\u0628\u0629": 1633, "\u0645\u062c\u0627\u0644": 1634, "\u0632\u0646": 1635, "\u0627\u0644\u062a\u0639\u0644\u064a\u0645": 1636, "\u0631\u0648\u0633": 1637, "\u0627\u0628\u062a": 1638, "\u0646\u0643\u0648\u0646": 1639, "\u0648\u0647\u0643\u0630\u0627": 1640, "\u0628\u0627\u0644\u0623": 1641, "\u062d\u062f\u0648\u062f": 1642, "\u064a\u0627\u0633": 1643, "\u0648\u0628\u0627": 1644, "\u062a\u0634\u0627\u0631": 1645, "\u0628\u0631\u0627": 1646, "\u062c\u0647\u0627\u0632": 1647, "\u0628\u0647\u0645": 1648, "\u0637\u0627\u0626": 1649, "\u0648\u0643\u0627\u0646\u062a": 1650, "\u0627\u0633\u062a\u0637": 1651, "\u0627\u0644\u0645\u0632\u064a\u062f": 1652, "\u0627\u0644\u0631\u063a\u0645": 1653, "\u0641\u0648\u0631": 1654, "\u0627\u0644\u0623\u0645\u0627": 1655, "\u0648\u0641\u0631": 1656, "\u062d\u0633\u0628": 1657, "\u0641\u0633\u0646\u0627": 1658, "\u0627\u0644\u0640": 1659, "\u062a\u0631\u0636": 1660, "\u062d\u064a\u0627\u062a\u064a": 1661, "\u0628\u0633\u0631\u0639\u0629": 1662, "\u0646\u0628": 1663, "\u0641\u0639\u0644\u0627": 1664, "\u0627\u0626\u062c": 1665, "\u0642\u064a\u0629": 1666, "\u0648\u0627\u0644\u062f": 1667, "\u0627\u0644\u0645\u0648\u0633\u064a": 1668, "\u062a\u0645\u0627\u0645\u0627\u064b": 1669, "\u0631\u0639": 1670, "\u062f\u064a\u0646\u0627": 1671, "\u0633\u0645\u064a": 1672, "\u0623\u0644\u064a\u0633": 1673, "\u0628\u064a\u062a": 1674, "\u0627\u0644\u0645\u0644\u0627": 1675, "\u0627\u0644\u0628\u062d\u0631": 1676, "\u062c\u0633": 1677, "\u0648\u0646\u0629": 1678, "\u064a\u0646\u0628\u063a\u064a": 1679, "\u0627\u0644\u0646\u0641": 1680, "\u064a\u0624": 1681, "\u0644\u0645\u062f\u0629": 1682, "\u0648\u0644\u064a": 1683, "\u0628\u0639\u0645\u0644": 1684, "\u0633\u0627\u0628": 1685, "\u062d\u0633\u0646": 1686, "\u062a\u062d\u062a\u0627\u062c": 1687, "\u0623\u0643\u064a\u062f": 1688, "\u0627\u0644\u0645\u062f\u064a\u0646\u0629": 1689, "\u0627\u0644\u0627\u0633": 1690, "\u0648\u0642\u0627\u062a": 1691, "\u0648\u0639\u0644\u0649": 1692, "\u0627\u0644\u062d\u0631\u0628": 1693, "\u0628\u0627\u0644\u0625": 1694, "\u0628\u064a\u0648\u062a\u0631": 1695, "\u0637\u0641\u0644": 1696, "\u064a\u0639\u064a\u0634": 1697, "\u0627\u0644\u0623\u0633\u0627": 1698, "\u062a\u062e\u064a\u0644": 1699, "\u0642\u064a\u0642\u064a\u0629": 1700, "\u062d\u0645": 1701, "\u0627\u0631\u0627\u062a": 1702, "\u0648\u0627\u0626": 1703, "\u0637\u0628\u064a": 1704, "\u0627\u0644\u064a\u0627": 1705, "\u0628\u062f\u0623\u0646\u0627": 1706, "\u0648\u0628\u0627\u0644\u062a\u0627\u0644\u064a": 1707, "\u062f\u064a\u0646": 1708, "\u0646\u0627\u0646": 1709, "\u062f\u0639\u0648\u0646\u0627": 1710, "\u0646\u0639\u0644\u0645": 1711, "\u0631\u0627\u0637": 1712, "\u0627\u0644\u062c\u0632\u0621": 1713, "\u0645\u064f": 1714, "\u0639\u0627\u064a\u0629": 1715, "\u0627\u0644\u062f\u0631\u0627": 1716, "\u0627\u064a\u0636\u0627": 1717, "\u062c\u0648": 1718, "\u0628\u0643\u062b\u064a\u0631": 1719, "\u0623\u062d\u0628": 1720, "\u0627\u0644\u0645\u0647\u0645": 1721, "\u0627\u0644\u0628\u062f\u0627": 1722, "\u062a\u0631\u064a": 1723, "\u0627\u0644\u0645\u0631\u0636": 1724, "\u0628\u0627\u062d": 1725, "\u0639\u0645\u0644\u064a": 1726, "\u062a\u0641\u0639\u0644": 1727, "\u0648\u062c\u0628": 1728, "\u064a\u0627\u0631\u0627\u062a": 1729, "15": 1730, "\u0648\u0633\u0648\u0641": 1731, "\u0641\u0627\u0621": 1732, "\u062c\u0631\u0628\u0629": 1733, "\u0626\u0643": 1734, "\u0627\u0644\u0646\u062a": 1735, "\u0636\u0645\u0646": 1736, "\u0641\u0627\u0646": 1737, "\u0628\u0631\u064a": 1738, "\u0636\u0629": 1739, "\u0646\u0635\u0641": 1740, "\u0643\u0644\u0645\u0627": 1741, "\u062f\u0627\u0626\u0645\u0627": 1742, "\u0627\u0644\u0642\u0635\u0629": 1743, "\u0623\u0646\u0648\u0627\u0639": 1744, "\u0645\u0639\u062f\u0644": 1745, "\u062a\u0635\u0645\u064a\u0645": 1746, "\u0646\u0633\u062a": 1747, "\u0648\u0646\u0647\u0627": 1748, "\u0627\u0644\u0634\u0631": 1749, "\u0634\u064a\u0626\u0627\u064b": 1750, "\u0627\u0644\u062b\u0644\u0627\u062b": 1751, "\u064a\u062a\u0647\u0627": 1752, "\u0627\u0644\u0639\u0646": 1753, "\u062a\u0635\u0628\u062d": 1754, "\u0627\u0645\u0631": 1755, "\u0627\u0644\u0635\u0648\u062a": 1756, "\u0627\u0644\u062b\u0627\u0646\u064a\u0629": 1757, "\u0627\u0644\u0645\u0627\u0636\u064a\u0629": 1758, "\u0631\u064a\u0629": 1759, "\u0645\u0634\u0631\u0648\u0639": 1760, "\u0644\u0623\u0646\u0647\u0627": 1761, "\u0623\u0641\u0631\u064a\u0642\u064a\u0627": 1762, "\u0628\u0648": 1763, "\u064a\u0633\u062a\u062e\u062f\u0645": 1764, "\u0628\u0623\u0646\u0647": 1765, "\u0628\u0644\u0627": 1766, "\u062a\u0648\u062c\u062f": 1767, "\u0645\u0639\u0627": 1768, "\u0625\u0644\u064a\u0647": 1769, "\u0627\u0644\u062b\u0627\u0646\u064a": 1770, "\u062e\u0627\u0635\u0629": 1771, "\u062c\u0645\u064a\u0639\u0627": 1772, "\u0630\u0643": 1773, "\u064a\u0635\u0628\u062d": 1774, "\u062f\u0642": 1775, "\u062f\u0647": 1776, "\u0627\u0644\u0635\u062d\u064a": 1777, "\u062a\u0641": 1778, "\u0644\u064a\u0644\u0629": 1779, "\u0628\u0646\u0649": 1780, "\u0625\u0644\u0627": 1781, "\u0627\u0644\u0628\u0644\u062f": 1782, "\u062a\u062d\u0635\u0644": 1783, "\u0623\u0639\u0646\u064a": 1784, "\u0647\u0627\u0631": 1785, "\u0642\u0627\u062f\u0631": 1786, "\u062a\u0645\u0631": 1787, "\u0645\u0644\u0629": 1788, "\u0644\u0623\u0646\u0646\u0627": 1789, "\u0641\u0627\u0639": 1790, "\u0627\u0637": 1791, "\u0627\u0644\u0645\u062f\u0631\u0633\u0629": 1792, "\u0627\u0631\u0639": 1793, "\u0627\u0644\u0634\u0645": 1794, "\u0627\u0646\u0647\u0645": 1795, "\u0628\u0627\u064b": 1796, "\u0639\u0644\u0645\u062a": 1797, "\u0644\u0643\u0646\u0647": 1798, "\u0627\u0644\u0633\u0646\u0629": 1799, "\u0644\u062f\u0649": 1800, "\u064a\u0637": 1801, "\u0633\u062a\u0631": 1802, "\u0646\u0632": 1803, "\u0651\u0644": 1804, "\u0644\u0643\u0646\u0647\u0627": 1805, "\u0627\u0644\u0642\u0648\u0629": 1806, "\u0623\u062a\u062d\u062f\u062b": 1807, "\u0627\u0644\u0645\u0627\u0626\u0629": 1808, "\u0627\u0644\u0627\u062e\u062a": 1809, "\u0628\u0627\u0633\u062a\u062e\u062f\u0627\u0645": 1810, "\u0646\u0649": 1811, "\u0639\u0644\u0627\u0645": 1812, "\u0645\u062b\u0627\u0644": 1813, "\u0623\u0642\u0648\u0645": 1814, "\u0630\u064a": 1815, "\u0628\u0627\u0644\u0643": 1816, "\u0632\u064a\u0629": 1817, "\u0627\u062e": 1818, "\u0644\u064a\u0629": 1819, "\u0645\u062d\u0627": 1820, "\u0648\u0631\u0627": 1821, "\u0623\u0628\u062f\u0627": 1822, "\u0648\u0625\u0630\u0627": 1823, "\u0627\u0644\u0646\u0647\u0627\u064a\u0629": 1824, "\u0631\u064a\u0627": 1825, "\u062d\u064a\u0646\u0647\u0627": 1826, "\u0628\u062f\u0627\u064a\u0629": 1827, "\u0639\u0644\u064a\u0647\u0645": 1828, "\u062e\u062a\u0628\u0631": 1829, "\u0627\u0644\u0636\u0648\u0621": 1830, "\u0623\u0631\u062f\u062a": 1831, "\u0623\u064f": 1832, "\u0628\u0642\u0629": 1833, "\u062a\u0642\u0644": 1834, "\u0623\u062f\u0631": 1835, "\u0627\u0631\u0633": 1836, "\u0625\u0639\u0627\u062f\u0629": 1837, "\u0635\u062f\u064a": 1838, "\u0623\u0646\u064a": 1839, "\u064a\u062a\u0647": 1840, "\u062c\u0647\u0632\u0629": 1841, "\u062a\u0646\u062a": 1842, "\u0627\u0644\u0646\u0648": 1843, "\u0642\u0627\u0626\u0642": 1844, "\u062c\u0648\u0646": 1845, "\u0644\u0633\u062a": 1846, "\u062f\u0645": 1847, "\u0627\u0644\u062d\u0644": 1848, "\u0627\u0644\u062c\u062f\u064a\u062f\u0629": 1849, "\u0648\u0643\u0646\u062a": 1850, "\u0627\u0644\u062c\u064a": 1851, "\u062a\u0645\u062f": 1852, "\u062a\u062a\u062d": 1853, "\u062c\u0627\u062a": 1854, "\u062c\u062f\u064b\u0627": 1855, "\u0627\u0644\u0637\u0628\u064a\u0639\u0629": 1856, "\u064a\u0631\u0627\u0646": 1857, "\u0627\u0644\u0623\u0631": 1858, "\u0642\u0644\u064a\u0644\u0627": 1859, "\u062a\u0627\u0631\u064a\u062e": 1860, "\u0628\u062e": 1861, "\u062d\u064a\u0627\u0646": 1862, "\u062d\u0641": 1863, "\u0648\u064a\u0648\u0631\u0643": 1864, "\u0639\u0627\u062f": 1865, "\u0627\u0644\u062b\u0627\u0644\u062b": 1866, "\u0623\u0646\u062d\u0627\u0621": 1867, "\u0627\u0644\u0635\u0646\u0627": 1868, "\u0623\u0645\u0631\u064a\u0643\u0627": 1869, "\u0627\u0644\u0630\u0647\u0627\u0628": 1870, "\u062a\u062c\u0639\u0644": 1871, "\u0631\u064a\u0643\u064a\u0629": 1872, "\u0646\u0635": 1873, "\u0648\u0644\u062f": 1874, "\u0645\u0648\u0642\u0639": 1875, "\u0627\u0644\u0645\u0634\u0627\u0643\u0644": 1876, "\u0627\u0644\u0648\u0635\u0648\u0644": 1877, "\u0645\u0648\u0646": 1878, "\u062a\u0639\u0631\u0641\u0648\u0646": 1879, "\u0644\u064a\u0646": 1880, "\u0643\u0644\u0645\u0629": 1881, "\u0646\u0648\u0639\u0627": 1882, "\u0628\u0636": 1883, "\u0627\u0644\u062a\u0635\u0645\u064a\u0645": 1884, "\u064a\u0627\u0646\u0627": 1885, "\u0627\u0644\u0641\u0636\u0627\u0621": 1886, "\u0627\u0644\u0645\u062d\u062a": 1887, "\u0627\u0644\u0645\u064a\u0627\u0647": 1888, "\u0646\u0641\u0633\u0647\u0627": 1889, "\u0645\u0628\u0627\u0634\u0631\u0629": 1890, "\u062f\u062e": 1891, "\u064a\u062d\u0635\u0644": 1892, "\u0631\u0627\u0631\u0629": 1893, "\u0627\u0644\u0631\u0642": 1894, "\u0627\u0644\u0644\u062d\u0638\u0629": 1895, "\u0646\u0627\u0647\u0627": 1896, "\u0645\u0631\u0643\u0632": 1897, "\u0628\u0631\u0646\u0627\u0645\u062c": 1898, "\u062a\u0633\u062a\u062e\u062f\u0645": 1899, "\u062d\u062f\u0649": 1900, "\u0636\u062f": 1901, "\u0639\u0628\u0627\u0631\u0629": 1902, "\u0648\u0627\u0644\u0639": 1903, "\u0627\u0644\u062a\u062c\u0627\u0631": 1904, "\u0628\u0642\u0649": 1905, "\u0627\u0633\u0645": 1906, "\u0637\u0646": 1907, "\u0637\u0631\u0642": 1908, "\u0623\u0646\u062a\u0645": 1909, "\u0625\u0646\u0647\u0645": 1910, "\u062a\u0635\u0641": 1911, "\u0627\u0644\u0644\u063a\u0629": 1912, "\u0636\u0627\u0641\u0629": 1913, "\u0648\u062c\u062f\u062a": 1914, "\u0645\u0647\u0645\u0629": 1915, "\u0630\u0629": 1916, "\u0627\u0644\u0634\u0643\u0644": 1917, "\u062c\u0627\u0646\u0628": 1918, "\u0627\u0644\u062a\u0633": 1919, "\u0637\u0627\u0631": 1920, "\u062c\u0644\u064a": 1921, "\u063a\u0631\u0627": 1922, "\u0645\u0627\u0639": 1923, "\u0627\u0644\u0637\u0639\u0627\u0645": 1924, "\u0644\u0623\u0646\u0646\u064a": 1925, "\u0633\u0648\u0627\u0621": 1926, "\u0641\u0647\u064a": 1927, "\u0645\u0643": 1928, "\u0627\u062a\u064a": 1929, "\u0644\u0627\u0643": 1930, "\u0645\u0631\u0627": 1931, "\u0627\u0644\u0643\u0647\u0631": 1932, "\u0641\u0635": 1933, "\u0628\u0639\u0627\u062f": 1934, "\u0645\u0627\u0643": 1935, "\u0627\u0644\u0645\u0646\u0632\u0644": 1936, "\u0623\u0639\u0644\u0649": 1937, "\u062c\u0628": 1938, "\u0648\u0623\u0639\u062a\u0642\u062f": 1939, "\u0648\u062d\u062f": 1940, "\u0639\u0627\u0628": 1941, "\u062a\u0623\u062a\u064a": 1942, "\u0645\u0646\u0637\u0642\u0629": 1943, "\u0627\u0644\u0645\u0648\u0636\u0648\u0639": 1944, "\u062a\u062c\u062f": 1945, "\u063a\u0627\u0644\u0628": 1946, "\u0643\u0644\u0627": 1947, "\u062a\u062c\u0631\u0628\u0629": 1948, "\u062c\u0627\u0646": 1949, "\u0648\u0628\u064a": 1950, "\u0628\u0639\u0636\u0647\u0627": 1951, "\u0641\u0647\u0648\u0645": 1952, "\u0645\u0646\u0629": 1953, "\u0637\u0648\u064a\u0644\u0629": 1954, "\u0623\u0631\u0628\u0639\u0629": 1955, "\u0627\u0644\u0645\u0648\u0627\u062f": 1956, "\u0644\u062a\u062d": 1957, "\u0627\u0644\u062e\u0627\u0631\u062c": 1958, "\u062d\u064a\u0646\u0645\u0627": 1959, "\u064a\u0623\u062a\u064a": 1960, "\u0627\u0644\u0622\u062e\u0631\u064a\u0646": 1961, "\u0642\u0627\u0631": 1962, "\u0627\u0644\u0639\u0645\u0644\u064a\u0629": 1963, "\u062a\u0628\u0631": 1964, "\u0641\u0647\u0648": 1965, "\u0642\u0648\u0629": 1966, "\u0641\u064a\u062f": 1967, "\u0642\u0644\u064a\u0644": 1968, "\u0627\u0644\u0628\u062f\u0627\u064a\u0629": 1969, "\u0646\u0627\u0633\u0628\u0629": 1970, "\u0645\u064a\u0632": 1971, "\u0648\u0643\u0645\u0627": 1972, "\u062e\u0645\u0633\u0629": 1973, "\u0632\u0645\u0629": 1974, "\u063a\u0631\u0642": 1975, "\u062c\u0627\u062d": 1976, "\u0627\u0644\u062a\u0627\u0631\u064a\u062e": 1977, "\u062a\u062c\u0627\u0647": 1978, "\u062f\u0642\u064a\u0642\u0629": 1979, "\u0637\u0631\u0627": 1980, "\u0627\u0644\u0627\u0634\u064a\u0627\u0621": 1981, "\u0623\u0645\u0644": 1982, "\u0645\u062a\u0639": 1983, "\u062f\u0648\u0631": 1984, "\u0651\u064e": 1985, "\u0631\u064a\u0641": 1986, "\u0627\u0644\u0628\u0634\u0631\u064a\u0629": 1987, "\u0627\u0644\u0623\u0635": 1988, "\u0627\u0644\u0625\u0646\u0633\u0627\u0646": 1989, "\u0627\u0644\u0643\u0628\u064a\u0631\u0629": 1990, "\u0627\u0644\u0623\u0641": 1991, "\u062a\u064a\u062f": 1992, "\u0627\u0644\u062d\u0643\u0648\u0645\u0629": 1993, "12": 1994, "\u0623\u0639\u0644\u0645": 1995, "\u0645\u0627\u0645": 1996, "\u0643\u0627\u0641": 1997, "\u0637\u0627\u0642": 1998, "\u0646\u064a\u0648\u064a\u0648\u0631\u0643": 1999, "\u0638\u0631\u0648\u0627": 2000, "\u064a\u062a\u0639\u0644\u0642": 2001, "\u0627\u0644\u0637\u0627\u0626": 2002, "\u0627\u0644\u0641\u064a\u062f\u064a\u0648": 2003, "\u0627\u0644\u0639\u0645\u0631": 2004, "\u0627\u0644\u0634\u0631\u0643\u0627\u062a": 2005, "\u062c\u0632\u0627\u0621": 2006, "\u0627\u0644\u062a\u0639": 2007, "\u0627\u0644\u0642\u0644\u064a\u0644": 2008, "\u0627\u0644\u0632\u0645\u0646": 2009, "\u064a\u0642\u0648\u0645\u0648\u0646": 2010, "\u062a\u0623\u062b\u064a\u0631": 2011, "\u0623\u0643\u0648\u0646": 2012, "\u062d\u062c\u0645": 2013, "\u0633\u0643": 2014, "\u0627\u0644\u0627\u0631": 2015, "\u0633\u062a\u0627\u0646": 2016, "\u0643\u0644\u0641\u0629": 2017, "\u0627\u0644\u062d\u0627\u0644": 2018, "\u062e\u064a\u0644": 2019, "\u0646\u0645\u0648\u0630\u062c": 2020, "\u0648\u0627\u0644\u0627": 2021, "\u0648\u062d\u062a\u0649": 2022, "\u0639\u0644\u0627\u062c": 2023, "\u0631\u064a\u0628\u0629": 2024, "\u064a\u0639\u062a\u0642\u062f": 2025, "\u0628\u0627\u0633\u062a": 2026, "\u0642\u0644\u064a\u0644\u0627\u064b": 2027, "\u0627\u0644\u0623\u0641\u0643\u0627\u0631": 2028, "\u0639\u0627\u0626": 2029, "\u0627\u0642\u0627\u062a": 2030, "\u0627\u0644\u062d\u0627\u0644\u0629": 2031, "\u0633\u0627\u0639\u0629": 2032, "\u0627\u0644\u063a\u0630\u0627": 2033, "\u0627\u0644\u0633\u064a\u0627\u0631\u0627\u062a": 2034, "\u0643\u0631\u064a\u0633": 2035, "\u0647\u0629": 2036, "\u0627\u0644\u0639\u0627\u0644\u0645\u064a\u0629": 2037, "\u0627\u0644\u0645\u064a": 2038, "\u0648\u0639\u0629": 2039, "\u0627\u0644\u0634\u0639": 2040, "\u0627\u0644\u0645\u0631\u0643": 2041, "\u0648\u064a\u0627\u062a": 2042, "\u0627\u0644\u0648\u062d\u064a\u062f": 2043, "\u062c\u0631\u0627": 2044, "\u0627\u0644\u0648\u0631": 2045, "\u0627\u0644\u062a\u0639\u0627": 2046, "\u0646\u062a\u062d\u062f\u062b": 2047, "\u0627\u0626\u0646\u0627\u062a": 2048, "\u0631\u064a\u0643\u0645": 2049, "\u0648\u0627\u0644\u062f\u064a": 2050, "\u0623\u0643\u062f": 2051, "\u0639\u0644\u0645\u0648\u0646": 2052, "\u0625\u0644\u064a\u0647\u0627": 2053, "\u0631\u0627\u0621\u0629": 2054, "\u0627\u0644\u0645\u0634\u0631\u0648\u0639": 2055, "\u0627\u0644\u062a\u062f": 2056, "\u062c\u0623\u0629": 2057, "\u0627\u0644\u0623\u0642\u0644": 2058, "\u062f\u064a\u0645\u0629": 2059, "\u064a\u062f\u0639\u0649": 2060, "\u062c\u0627\u0632": 2061, "\u0627\u0644\u0628\u064a\u0626\u0629": 2062, "\u062e\u0629": 2063, "\u064a\u0645\u0644\u0643": 2064, "\u0643\u0627\u0621": 2065, "\u062a\u0645\u062a": 2066, "\u064a\u062d\u062a\u0627\u062c": 2067, "\u0627\u0644\u0642\u0648\u0644": 2068, "\u062a\u0635\u0644": 2069, "\u062e\u064a": 2070, "\u064a\u0646\u064a": 2071, "\u0648\u0625\u0646": 2072, "\u062c\u062d": 2073, "\u0633\u0648": 2074, "\u0627\u0644\u0634\u0626": 2075, "\u0623\u0645\u0627\u0645": 2076, "\u0631\u0623\u064a": 2077, "\u0648\u0644\u0642\u062f": 2078, "\u0642\u0637\u0639\u0629": 2079, "\u0634\u0643\u0627\u0644": 2080, "\u0637\u0627\u0621": 2081, "\u0631\u0627\u0637\u064a\u0629": 2082, "\u0646\u0642\u0644": 2083, "\u0648\u0647\u0646\u0627": 2084, "\u0647\u0627\u0645": 2085, "\u0627\u0641": 2086, "\u0643\u0627\u0645\u0644": 2087, "\u0628\u062a\u0643\u0627\u0631": 2088, "\u062f\u0639\u0648\u0646\u064a": 2089, "\u062c\u0631\u0629": 2090, "\u0631\u0626\u064a": 2091, "\u0642\u0627\u0628": 2092, "\u0645\u062b\u064a\u0631": 2093, "\u0639\u0644\u064a\u0643\u0645": 2094, "\u0643\u062b\u064a\u0631\u0627": 2095, "\u063a\u0644\u0628": 2096, "\u062d\u0643": 2097, "\u0646\u0633\u062a\u062e\u062f\u0645": 2098, "\u064a\u0633\u0645\u0649": 2099, "\u0627\u0644\u0645\u062e\u062a\u0644": 2100, "\u0627\u0644\u062d\u0628": 2101, "\u0627\u0644\u0628\u0631\u0627": 2102, "\u0634\u0627\u0631\u0643\u0629": 2103, "\u0641\u0633\u0647\u0645": 2104, "\u0633\u0647": 2105, "\u0623\u0633\u062a": 2106, "\u0628\u064a\u0627\u0646\u0627\u062a": 2107, "\u0643\u062a\u0634\u0641": 2108, "18": 2109, "\u062e\u0644\u064a": 2110, "\u0648\u0633\u062a": 2111, "\u062e\u0627\u0637": 2112, "\u062c\u0627\u0645\u0639\u0629": 2113, "\u062a\u0624": 2114, "\u0634\u0628\u0643\u0629": 2115, "\u0644\u0644\u0643": 2116, "\u0639\u0627\u064b": 2117, "\u0646\u0641\u0643\u0631": 2118, "\u0627\u0644\u0623\u0639": 2119, "\u0631\u0628\u0648\u0646": 2120, "\u0645\u063a": 2121, "\u0646\u0634\u0631": 2122, "\u062d\u062f\u062f": 2123, "\u0645\u0630\u0647": 2124, "\u0644\u0627\u062d": 2125, "\u0627\u0644\u0635\u0641": 2126, "\u0627\u0644\u062c\u0646\u0633": 2127, "\u0627\u0644\u0637\u0631\u0642": 2128, "\u0623\u0635\u062f": 2129, "\u0635\u0639": 2130, "\u0627\u0644\u062b\u0642\u0627": 2131, "\u062d\u062f\u064a\u062b": 2132, "\u064a\u0645\u0643\u0646\u0647\u0645": 2133, "\u0623\u0647\u0645\u064a\u0629": 2134, "\u0648\u0627\u0645": 2135, "\u0646\u064a\u0627\u062a": 2136, "\u0641\u0631\u0635\u0629": 2137, "\u0642\u0631\u0631": 2138, "\u0627\u0644\u0639\u0627\u0645\u0629": 2139, "\u062e\u0645\u0633": 2140, "\u0628\u0633\u064a\u0637": 2141, "40": 2142, "\u0636\u062e": 2143, "\u0627\u0644\u062c\u0627\u0646\u0628": 2144, "\u0645\u0631\u0627\u062a": 2145, "\u062a\u0637\u0648\u0631": 2146, "\u0633\u0648\u0646": 2147, "\u0633\u062a\u0629": 2148, "\u0627\u0644\u0641\u0646": 2149, "\u0634\u0639\u0631": 2150, "\u063a\u0636": 2151, "\u0646\u062c\u062f": 2152, "\u0627\u0644\u0627\u062d\u062a": 2153, "\u0634\u0647\u0631": 2154, "\u0627\u0644\u0645\u0646\u0637\u0642\u0629": 2155, "\u0632\u064a\u0627": 2156, "\u062d\u0635\u0644\u062a": 2157, "\u0631\u0633\u0645": 2158, "\u0642\u0636": 2159, "\u0627\u0644\u062d\u0642\u064a\u0642\u064a": 2160, "\u0627\u0644\u0633\u0646\u0648\u0627\u062a": 2161, "\u060c\"\"": 2162, "\u0646\u0642\u0637\u0629": 2163, "\u0627\u0644\u0642\u062f\u0631\u0629": 2164, "\u0628\u0627\u0644\u062a\u0623\u0643\u064a\u062f": 2165, "\u0645\u062d\u0627\u0648\u0644\u0629": 2166, "\u0627\u0644\u0645\u062d\u0627": 2167, "\u062a\u0628\u062f\u0623": 2168, "\u064a\u0644\u0629": 2169, "\u0648\u0627\u0628": 2170, "\u0627\u0644\u0631\u0648\u0628\u0648\u062a": 2171, "\u062c\u0631\u0627\u0621": 2172, "\u0637\u0648\u0627\u0644": 2173, "\u0645\u0645\u0643\u0646": 2174, "\u0623\u0637\u0641\u0627\u0644": 2175, "\u062c\u0630": 2176, "\u0639\u0644\u0627\u0642\u0629": 2177, "\u0631\u064a\u0643\u064a": 2178, "\u0639\u062a\u0628\u0631": 2179, "\u0627\u062e\u0631\u0649": 2180, "\u0643\u0644\u0647\u0627": 2181, "\u062e\u0637\u0631": 2182, "\u0628\u0627\u0644\u0639": 2183, "\u0644\u064a\u0648\u0646": 2184, "\u0637\u0627\u0642\u0629": 2185, "\u0623\u063a": 2186, "\u0627\u0644\u0645\u0648\u0633\u064a\u0642\u0649": 2187, "\u0623\u0642\u0635": 2188, "\u0639\u0644\u0645\u0627\u0621": 2189, "\u062f\u0627\u0631": 2190, "\u0648\u0627\u0644\u0625": 2191, "\u0648\u0631\u0627\u0621": 2192, "\u064a\u0646\u0627": 2193, "\u062c\u0645\u064a\u0639\u0627\u064b": 2194, "\u0630\u0627\u0643": 2195, "\u0627\u0644\u0637\u0641\u0644": 2196, "\u0648\u0644\u0643\u0646\u0647": 2197, "\u0648\u0644\u0643\u0646\u0647\u0627": 2198, "\u0627\u0644\u0645\u062f\u0646": 2199, "\u062a\u0631\u0627": 2200, "\u0632\u0627\u0644": 2201, "\u0648\u0627\u0636": 2202, "\u0625\u0646\u062a\u0627\u062c": 2203, "\u0628\u0627\u0644\u0627": 2204, "\u0636\u064b\u0627": 2205, "\u0636\u064a\u0627\u062a": 2206, "\u0627\u0644\u062a\u062c\u0631\u0628\u0629": 2207, "\u0627\u0644\u0631\u0633": 2208, "\u0628\u0644\u062f": 2209, "\u0645\u0648\u0633\u064a": 2210, "\u0648\u0627\u0646\u064a\u0646": 2211, "\u0630\u064a\u0629": 2212, "\u0627\u0644\u0642\u0635\u0635": 2213, "\u0627\u0644\u063a\u064a\u0631": 2214, "\u0623\u0631\u0649": 2215, "\u0627\u0644\u062a\u0642\u0646\u064a\u0629": 2216, "\u0627\u0644\u0641\u062a": 2217, "\u0641\u0631\u062f": 2218, "\u0635\u0646\u0627\u0639\u0629": 2219, "\u0646\u0639\u064a\u0634": 2220, "\u0628\u0627\u0644\u063a": 2221, "\u062f\u0648\u0644\u0629": 2222, "\u0627\u0644\u0623\u0639\u0645\u0627\u0644": 2223, "\u0625\u0646\u0634\u0627\u0621": 2224, "\u0646\u0646\u0638\u0631": 2225, "\u064a\u062a\u0648\u062c\u0628": 2226, "\u062d\u064a\u0627\u062a\u0646\u0627": 2227, "\u062f\u0648\u0644": 2228, "\u0634\u0627\u0637": 2229, "\u0639\u0646\u062f\u0647\u0627": 2230, "\u0642\u0627\u0626\u0645\u0629": 2231, "\u0627\u0644\u0645\u0646\u0627\u0637\u0642": 2232, "\u0623\u0643\u0646": 2233, "\u0646\u0633\u0628\u0629": 2234, "\u0643\u0644\u0647": 2235, "\u0645\u0631\u064a": 2236, "\u0633\u0627\u062f": 2237, "\u064a\u062a\u062d\u062f\u062b": 2238, "\u064a\u0645\u0643\u0646\u0647": 2239, "\u064a\u0643\u0648\u0646\u0648\u0627": 2240, "\u0641\u0646\u062d\u0646": 2241, "\u0627\u0644\u062a\u063a\u064a\u064a\u0631": 2242, "\u0627\u0644\u0639\u0627\u0644\u0645\u064a": 2243, "\u0645\u0627\u0630\u062c": 2244, "\u0627\u0644\u0623\u0644": 2245, "\u0648\u0642\u0627\u0644": 2246, "\u0648\u0643\u064a\u0641": 2247, "\u0644\u0644\u0627\u0647\u062a\u0645\u0627\u0645": 2248, "\u0623\u0646\u0641\u0633\u0646\u0627": 2249, "\u0628\u0639\u0636\u0647\u0645": 2250, "\u0643\u062b\u064a\u0631\u0627\u064b": 2251, "\u0633\u0644\u0629": 2252, "\u0627\u0644\u0628\u0634\u0631\u064a": 2253, "\u0642\u0648\u0627": 2254, "\u0623\u062e\u0628\u0631\u0643\u0645": 2255, "\u0627\u0644\u0638": 2256, "\u0642\u062f\u0629": 2257, "\u0627\u0644\u0627\u0648\u0644": 2258, "\u0643\u062a\u0627\u0628": 2259, "\u062e\u0637\u0637": 2260, "\u064a\u0642\u0648\u0644\u0648\u0646": 2261, "\u064a\u0645\u0643\u0646\u0647\u0627": 2262, "\u0641\u0648\u0646": 2263, "\u0645\u0627\u064a\u0629": 2264, "\u0627\u0644\u0646\u0645\u0648": 2265, "\u0627\u0644\u0635\u0639\u0628": 2266, "\u0647\u0627\u062a\u0641": 2267, "\u062d\u0631\u0643\u0629": 2268, "\u0635\u064a\u0644": 2269, "\u0631\u064a\u0633": 2270, "\u0627\u0644\u0633\u0643\u0627\u0646": 2271, "\u0645\u0643\u062a": 2272, "\u0627\u0644\u0643\u0648\u0643\u0628": 2273, "\u0628\u062f\u0644\u0627\u064b": 2274, "\u0633\u064a\u0627\u0631\u0629": 2275, "\u0631\u0623\u064a\u062a": 2276, "\u0627\u0644\u0633\u0631\u0637\u0627\u0646": 2277, "\u0642\u0646\u0627": 2278, "\u0645\u0639\u0647": 2279, "\u0631\u0623\u0633": 2280, "\u0645\u0646\u0649": 2281, "\u0645\u062c\u062f": 2282, "\u0637\u0631\u062d": 2283, "\u0623\u062b\u0646\u0627\u0621": 2284, "\u0627\u0644\u0645\u062e\u062a\u0644\u0641\u0629": 2285, "60": 2286, "\u062e\u064a\u0635": 2287, "\u0643\u0648\u0631": 2288, "\u064a\u062f\u064a": 2289, "\u0645\u0646\u062a\u062c": 2290, "\u0627\u062a\u0646\u0627": 2291, "\u064a\u0646\u064a\u0629": 2292, "\u062e\u0635\u0648\u0635": 2293, "\u0642\u062a\u0635\u0627\u062f\u064a": 2294, "\u062f\u0627\u0631\u0629": 2295, "\u0633\u0627\u0631": 2296, "\u0641\u064a\u0627": 2297, "\u0627\u0644\u0647\u0648\u0627\u0621": 2298, "\u062f\u0631\u0627\u0633\u0629": 2299, "\u062a\u0630\u0647\u0628": 2300, "\u063a\u0631\u0641\u0629": 2301, "\u0648\u0634": 2302, "\u0633\u064a\u062f": 2303, "\u0641\u0639\u0644\u0627\u064b": 2304, "\u0627\u0644\u0627\u0646\u062a\u0631\u0646\u062a": 2305, "\u0646\u0638\u0631\u0629": 2306, "\u0627\u0644\u0645\u0631\u0623\u0629": 2307, "\u0624\u0648\u0644": 2308, "\u062a\u0623\u062e\u0630": 2309, "\u062e\u0644\u0627\u064a\u0627": 2310, "\u0639\u0645\u0627": 2311, "\u0623\u0641\u0643\u0631": 2312, "\u0642\u064a\u0646": 2313, "\u0639\u0644\u0627": 2314, "\u0648\u0631\u0628\u0645\u0627": 2315, "\u0644\u0643\u0646\u0646\u0627": 2316, "\u0627\u0644\u0643\u0645\u0628\u064a\u0648\u062a\u0631": 2317, "\u0643\u0644\u0645": 2318, "\u0623\u0645\u0627\u0643\u0646": 2319, "\u062a\u0630\u0643\u0631": 2320, "\u0642\u0627\u0644\u062a": 2321, "\u0627\u0644\u062f\u064a": 2322, "\u0623\u0644\u0641": 2323, "\u0633\u0637\u062d": 2324, "\u063a\u0648": 2325, "\u0641\u0643\u0631\u062a": 2326, "\u0628\u0627\u0644\u0636\u0628\u0637": 2327, "\u062a\u062c\u0627": 2328, "\u0632\u0645": 2329, "\u0641\u062d\u0633\u0628": 2330, "\u0648\u0627\u0646\u0627": 2331, "\u062f\u064a\u0644": 2332, "\u064a\u062a\u064a": 2333, "\u0645\u0648\u062c\u0648\u062f\u0629": 2334, "\u064a\u0631\u064a": 2335, "\u0627\u0644\u062d\u0648\u0627": 2336, "\u0641\u0627\u0626": 2337, "\u0639\u0634": 2338, "\u0639\u0627\u0644\u064a\u0629": 2339, "\u0627\u0644\u0623\u062d\u064a\u0627\u0646": 2340, "\u0639\u0627\u0645\u0627\u064b": 2341, "\u0623\u064a\u0636\u064b\u0627": 2342, "\u0634\u0631\u064a\u0646": 2343, "\u062a\u062d\u062f\u064a": 2344, "\u062f\u0648": 2345, "\u0644\u0644\u0646": 2346, "\u0646\u0641\u0633\u0643": 2347, "\u0625\u062d\u062f\u0649": 2348, "\u0644\u0648\u0646": 2349, "\u0651\u0646": 2350, "\u0627\u0644\u0647\u064a": 2351, "\u0627\u0644\u062a\u0649": 2352, "\u0645\u0639\u064a": 2353, "\u0623\u0647": 2354, "\u062a\u0638\u0647\u0631": 2355, "\u0634\u063a": 2356, "\u0634\u0631\u062d": 2357, "\u062a\u062d\u0648\u0644": 2358, "\u064a\u0631\u064a\u062f\u0648\u0646": 2359, "\u0627\u0644\u0635\u062d\u0629": 2360, "\u0646\u0639\u0645\u0644": 2361, "\u064a\u0646\u062a": 2362, "\u0627\u0644\u0633\u064a\u0627\u0631\u0629": 2363, "\u0627\u062f\u0631": 2364, "\u0648\u0644\u0646": 2365, "\u0627\u0644\u0627\u0634\u062e\u0627\u0635": 2366, "\u0627\u0644\u0642\u0627\u062f\u0645\u0629": 2367, "\u062a\u063a": 2368, "\u064a\u0630\u0647\u0628": 2369, "\u0627\u0644\u062d\u0631": 2370, "\u062e\u0644\u0635": 2371, "\u0648\u0641\u0629": 2372, "\u0628\u0628\u0633\u0627\u0637\u0629": 2373, "\u0638\u064a\u0645\u0629": 2374, "\u0627\u0644\u0641\u0642": 2375, "\u062a\u0645\u0644\u0643": 2376, "\u0641\u0625\u0646\u0647": 2377, "\u062c\u0626": 2378, "\u0630\u0631": 2379, "\u0635\u0627\u0644": 2380, "\u0623\u0648\u0631": 2381, "\u0623\u0634\u0647\u0631": 2382, "\u0642\u0627\u0645\u0648\u0627": 2383, "\u062c\u0631\u064a": 2384, "\u0627\u0644\u0639\u0645": 2385, "\u0633\u0627\u0639\u0627\u062a": 2386, "\u0645\u0644\u0627\u064a\u064a\u0646": 2387, "\u0628\u0627\u0644\u0642": 2388, "\u062f\u0627\u0641": 2389, "\u0627\u0644\u0627\u0639\u062a": 2390, "\u0645\u0624\u0633": 2391, "\u0642\u064a\u0645\u0629": 2392, "\u062a\u0639\u064a\u0634": 2393, "\u0628\u0633\u064a\u0637\u0629": 2394, "\u0627\u0644\u062a\u0646": 2395, "\u0623\u0636": 2396, "\u062a\u0628\u0627": 2397, "\u062a\u0641\u0643\u0631": 2398, "\u062c\u0648\u0645": 2399, "\u0644\u0637": 2400, "\u0644\u0643\u0646\u064a": 2401, "\u0627\u0644\u0643\u062a\u0627\u0628": 2402, "\u062b\u0642\u0627": 2403, "\u064a\u0635\u0644": 2404, "\u0644\u0644\u0642\u064a\u0627\u0645": 2405, "\u0627\u0630": 2406, "\u0627\u0644\u0627\u0642\u062a\u0635\u0627\u062f": 2407, "\u0623\u0634\u0639\u0631": 2408, "\u062f\u0639\u0649": 2409, "\u062a\u0637\u0628\u064a": 2410, "\u0627\u0644\u0623\u0633\u0627\u0633\u064a\u0629": 2411, "\u0627\u0644\u0645\u0626\u0629": 2412, "\u0627\u0644\u0643\u0631\u0628\u0648\u0646": 2413, "\u0627\u0644\u0623\u062e\u064a\u0631\u0629": 2414, "\u062a\u0639\u0644\u064a\u0645": 2415, "\u0628\u062f\u0644\u0627": 2416, "\u0633\u064a\u0631": 2417, "\u0633\u0624\u0627\u0644": 2418, "\u064a\u062d\u062a": 2419, "\u0645\u0644\u064a\u0627\u0631": 2420, "\u062a\u062d\u0645\u0644": 2421, "\u0645\u062c\u0645\u0648\u0639": 2422, "\u062a\u0646\u0638\u0631": 2423, "\u0633\u0627\u0645": 2424, "\u0639\u064a\u062f": 2425, "\u064a\u0639\u062a\u0628\u0631": 2426, "\u0628\u0627\u0646\u064a": 2427, "\u0627\u0644\u0646\u0642\u0637\u0629": 2428, "\u0644\u0627\u0633\u062a": 2429, "\u064a\u062a\u0646\u0627": 2430, "\u0631\u0628\u064a\u0629": 2431, "\u062f\u0646": 2432, "\u0645\u0639\u0644\u0648\u0645\u0627\u062a": 2433, "\u0631\u064a\u0627\u062a": 2434, "\u0648\u0627\u0629": 2435, "\u0648\u062c\u0647\u0629": 2436, "\u0631\u062d": 2437, "\u0637\u0628\u0642": 2438, "\u064a\u062d\u0627\u0648\u0644": 2439, "\u0627\u0644\u0623\u064a\u0627\u0645": 2440, "\u0645\u0639\u0647\u0627": 2441, "\u0639\u0627\u0645\u0627": 2442, "\u062f\u0627\u0626\u0645\u0627\u064b": 2443, "\u0627\u0644\u0623\u0645\u0627\u0643\u0646": 2444, "\u0627\u0631\u064a\u062f": 2445, "\u0627\u0644\u062c\u0627\u0645": 2446, "\u0643\u0645\u0629": 2447, "\u0645\u0633\u062a\u0642\u0628\u0644": 2448, "\u0628\u0640": 2449, "\u0639\u0632": 2450, "\u0646\u062d\u0627\u0648\u0644": 2451, "\u0627\u0644\u0646\u0648\u0648\u064a": 2452, "\u0627\u0644\u0645\u0637\u0627": 2453, "\u0627\u0644\u062c\u062f\u064a\u062f": 2454, "\u062d\u0644\u064a\u0629": 2455, "\u0648\u0635\u0644\u062a": 2456, "\u0645\u0648\u0644": 2457, "\u0646\u064a\u0627": 2458, "\u0647\u062f\u0629": 2459, "\u0645\u0646\u0632": 2460, "\u0646\u0627\u0633\u0628": 2461, "\u0627\u0644\u0634\u062e\u0635\u064a\u0629": 2462, "\u0644\u0627\u0646\u0647": 2463, "\u0628\u0639\u064a\u062f": 2464, "\u062a\u062d\u0642\u064a\u0642": 2465, "\u0634\u0644": 2466, "\u0645\u0642\u062f": 2467, "\u0646\u0647": 2468, "\u063a\u0627\u0646": 2469, "\u0631\u0627\u0639\u0629": 2470, "\u0644\u0623\u0646\u0647\u0645": 2471, "\u062b\u0645\u0627": 2472, "\u0627\u0644\u0625\u062c\u062a\u0645\u0627": 2473, "\u0627\u0644\u0625\u0637\u0644\u0627\u0642": 2474, "\u062e\u0627\u0631": 2475, "\u0641\u062a\u062d": 2476, "\u0645\u0641\u062a": 2477, "\u0627\u0644\u0645\u063a": 2478, "\u0627\u0644\u0631\u0639\u0627\u064a\u0629": 2479, "\u0627\u0644\u0645\u0646\u062a\u062c": 2480, "\u0644\u062d\u0638\u0629": 2481, "\u0645\u0642\u0627\u0628\u0644": 2482, "\u0647\u0649": 2483, "\u0627\u0644\u0645\u0648\u062c\u0648\u062f\u0629": 2484, "\u0628\u0637\u0629": 2485, "\u062b\u0627\u0646\u064a\u0629": 2486, "\u0637\u0631\u0629": 2487, "\u062d\u0633\u0627\u0633": 2488, "\u0645\u0646\u0638": 2489, "\u0644\u0627\u0628\u062f": 2490, "\u0644\u0644\u0639": 2491, "\u062d\u0627\u064b": 2492, "\u064a\u0639\u0645\u0644\u0648\u0646": 2493, "\u0623\u0639\u0645\u0644": 2494, "\u0633\u0631\u064a": 2495, "\u062f\u0645\u0627\u062a": 2496, "\u0627\u0644\u0635\u063a\u064a\u0631": 2497, "25": 2498, "\u0623\u062b\u064a\u0631": 2499, "\u062a\u0639\u0646\u064a": 2500, "\u062b\u0646\u0627": 2501, "\u0633\u0627\u0646\u064a\u0629": 2502, "\u0645\u062d\u062a": 2503, "\u0642\u0631\u0627": 2504, "\u0648\u0646\u0627\u062a": 2505, "\u062c\u0627\u0626": 2506, "\u0628\u0627\u0644\u0645\u0626\u0629": 2507, "\u0627\u0644\u062c\u0645\u0647\u0648\u0631": 2508, "\u0627\u0646\u0643": 2509, "\u0631\u0648\u0627": 2510, "\u0645\u0646\u062d": 2511, "\u064a\u0631\u0627\u062a": 2512, "\u0627\u0644\u062d\u0638": 2513, "\u0627\u0644\u0635\u062d\u064a\u0629": 2514, "\u0628\u0648\u0644": 2515, "\u0637\u0628\u0627\u0621": 2516, "\u0643\u0627\u0645\u0644\u0629": 2517, "\u062d\u0636": 2518, "\u0649\u0621": 2519, "\u0627\u0646\u0629": 2520, "\u0623\u0631\u0628\u0639": 2521, "\u0627\u0644\u0623\u0634": 2522, "\u0646\u0639\u062a\u0642\u062f": 2523, "\u0645\u0639\u0627\u0644\u062c": 2524, "\u0628\u0627\u0637": 2525, "\u0623\u0633\u0641\u0644": 2526, "\u0630\u0648": 2527, "\u0634\u0631\u0643\u0627\u062a": 2528, "\u0645\u0642\u0627\u0631": 2529, "\u062a\u0639\u0644\u0645\u062a": 2530, "\u0637\u0627\u0644\u0628": 2531, "\u0627\u0644\u0645\u0648\u062a": 2532, "\u0627\u0644\u062a\u0637\u0648\u0631": 2533, "\u0644\u0644\u0646\u0627\u0633": 2534, "\u0643\u0645\u064a\u0629": 2535, "\u0645\u0626\u0627\u062a": 2536, "\u0645\u0631\u062d\u0644\u0629": 2537, "\u0627\u0644\u0631\u0633\u0645": 2538, "\u064a\u0638\u0647\u0631": 2539, "\u0645\u0646\u0639": 2540, "\u0631\u0627\u062d\u0629": 2541, "\u0627\u0644\u062c\u0633\u0645": 2542, "\u062a\u0631\u0643\u064a": 2543, "\u0628\u0634\u062f\u0629": 2544, "11": 2545, "\u062a\u0641\u0627": 2546, "\u0627\u0644\u062d\u0631\u0643\u0629": 2547, "\u0648\u0636\u062d": 2548, "\u0648\u0636\u0639\u062a": 2549, "\u0627\u0644\u0644\u0647": 2550, "\u0646\u0647\u0627": 2551, "\u0646\u0633\u064a": 2552, "\u0645\u0639\u0627\u064b": 2553, "\u0627\u0644\u0646\u062a\u0627\u0626\u062c": 2554, "\u0643\u064a\u0629": 2555, "\u0645\u064a\u0646": 2556, "\u0627\u0644\u062a\u0641\u0627": 2557, "\u064a\u0645\u064a\u0627": 2558, "\u0623\u0648\u0647": 2559, "\u062c\u0639": 2560, "\u0635\u062d": 2561, "\u064a\u0648\u0645\u0627": 2562, "\u0648\u062c\u062f\u0646\u0627": 2563, "\u0642\u0627\u0645\u062a": 2564, "\u0642\u0627\u062f\u0631\u064a\u0646": 2565, "\u0632\u064a\u0627\u0621": 2566, "\u0627\u0644\u0633\u0648\u0642": 2567, "\u0627\u0644\u0623\u0645\u0631\u064a\u0643\u064a\u0629": 2568, "\u062c\u0646\u0648\u0628": 2569, "\u0636\u062d\u0643": 2570, "\u0627\u0644\u0645\u0644": 2571, "\u0627\u0644\u0639\u0642\u0644": 2572, "\u0641\u0631\u064a": 2573, "\u0645\u0648\u062c\u0648\u062f": 2574, "\u0627\u0646\u0646\u064a": 2575, "\u0648\u0628\u064a\u0646": 2576, "\u0623\u0638\u0646": 2577, "\u062b\u0627\u0646": 2578, "\u0638\u0644": 2579, "\u062f\u0627\u0629": 2580, "\u0642\u0631\u0631\u062a": 2581, "\u0627\u0644\u0631\u064a\u0627\u0636\u064a\u0627\u062a": 2582, "\u0642\u064a\u062f": 2583, "\u0648\u0642\u0648\u062f": 2584, "\u0627\u0644\u0634\u0628\u0643\u0629": 2585, "\u062e\u0644\u0641": 2586, "\u0645\u0639\u0647\u0645": 2587, "\u0628\u0632": 2588, "\u062d\u0642\u064a\u0642\u064a": 2589, "\u0645\u0631\u0627\u0631": 2590, "\u064a\u0631\u064a\u0627": 2591, "\u0648\u0639\u064a": 2592, "\u0628\u0639\u062f\u0647\u0627": 2593, "\u0627\u0626\u0641": 2594, "\u062c\u0632\u064a\u0644\u0627": 2595, "\u0642\u0627\u0628\u0644\u0629": 2596, "\u0625\u062b": 2597, "\u0625\u0630": 2598, "\u0648\u0627\u0644\u0628": 2599, "\u0628\u064a\u0636": 2600, "\u0633\u0644\u0633\u0644\u0629": 2601, "\u062a\u0639\u062a\u0642\u062f": 2602, "\u0645\u0627\u0644\u0630\u064a": 2603, "\u0643\u062b\u064a\u0631\u0629": 2604, "\u064a\u0634\u0639\u0631": 2605, "\u0627\u0644\u062d\u0636": 2606, "\u062c\u0645\u064a\u0644": 2607, "\u0627\u0644\u063a\u0631\u0641\u0629": 2608, "\u0622\u0644\u0627\u0641": 2609, "\u0639\u0638\u064a\u0645": 2610, "\u0647\u0644\u0643": 2611, "\u0648\u062d\u0629": 2612, "\u0623\u0646\u0643\u0645": 2613, "\u0627\u0644\u0637\u0644\u0627\u0628": 2614, "\u062a\u0631\u062a": 2615, "\u0642\u0635\u0635": 2616, "\u0623\u064a\u0627\u0645": 2617, "\u0645\u0648\u0636\u0648\u0639": 2618, "\u0648\u0627\u0644\u0646": 2619, "\u0627\u0644\u062a\u062d\u062f\u064a": 2620, "\u0648\u0644\u0643\u0646\u064a": 2621, "\u062c\u0644\u064a\u0632\u064a\u0629": 2622, "\u0646\u0645\u0648": 2623, "\u0627\u0644\u062a\u062d\u0643\u0645": 2624, "\u064a\u062e\u0628\u0631": 2625, "\u062a\u0645\u062b\u0644": 2626, "\u0644\u0648\u062d\u0629": 2627, "\u0631\u0642\u0645": 2628, "\u062f\u0641\u0639": 2629, "\u0633\u0644\u0648\u0643": 2630, "\u0627\u0644\u0639\u0644\u0627\u062c": 2631, "\u0644\u062c": 2632, "\u0631\u0642\u0627\u0645": 2633, "\u0627\u0628\u0639": 2634, "\u0644\u0643\u0646\u0646\u064a": 2635, "\u0627\u0644\u0634\u0627": 2636, "\u0634\u0631\u0627\u062a": 2637, "\u062a\u0642\u0631\u064a\u0628\u0627\u064b": 2638, "\u0648\u062d\u064a": 2639, "\u0648\u0644\u0630\u0644\u0643": 2640, "\u0633\u0627\u0626": 2641, "\u0627\u0644\u0639\u0635\u0628\u064a\u0629": 2642, "\u0623\u062d\u0627\u0648\u0644": 2643, "\u0624\u0645\u0646": 2644, "\u0627\u0644\u0645\u0637": 2645, "\u0644\u0644\u0633": 2646, "\u0645\u062b\u064a\u0631\u0629": 2647, "\u0627\u0644\u0644\u0648\u0646": 2648, "\u0646\u0638\u0631\u062a": 2649, "\u0627\u0644\u0637\u0628\u064a\u0639\u064a": 2650, "\u0627\u0629": 2651, "\u0628\u0627\u0645": 2652, "\u062f\u062e\u0644": 2653, "\u064a\u0628\u062f\u0623": 2654, "\u0627\u0644\u062a\u0642\u0644\u064a": 2655, "\u0644\u062a\u064a": 2656, "\u062c\u0647\u0629": 2657, "\u0627\u0644\u0637\u0628\u064a\u0639\u064a\u0629": 2658, "\u0627\u062e\u0631": 2659, "\u0627\u0644\u062a\u0648\u0627\u0635\u0644": 2660, "\u0627\u0644\u0639\u0644\u0645\u0627\u0621": 2661, "\u0641\u0627\u0631": 2662, "\u0627\u062a\u0647\u0645": 2663, "\u0627\u0644\u0639\u0644\u0648\u0645": 2664, "\u0648\u0627\u0626\u064a\u0629": 2665, "\u0625\u064a\u062c\u0627\u062f": 2666, "\u0623\u0645\u064a": 2667, "\u062a\u0642\u062f\u0645": 2668, "\u0631\u063a": 2669, "\u0627\u0644\u0645\u062b\u064a\u0631": 2670, "\u0628\u0627\u062f": 2671, "\u0627\u0644\u062e\u0635": 2672, "\u062a\u0634\u0639\u0631": 2673, "\u0642\u0644\u064a\u0644\u0629": 2674, "\u0639\u0648\u0627": 2675, "\u0643\u0646\u062a\u0645": 2676, "\u062e\u062a\u0627\u0631": 2677, "\u0623\u0639\u0637\u064a": 2678, "\u064a\u0643\u0641\u064a": 2679, "80": 2680, "\u0645\u0647\u0627": 2681, "\u0623\u0644\u0627": 2682, "\u0641\u0635\u0644": 2683, "\u0645\u0639\u0646\u0649": 2684, "\u0627\u0644\u0634\u0628\u0627\u0628": 2685, "\u0623\u0646\u0627\u0633": 2686, "\u0642\u0642": 2687, "\u0641\u064a\u062f\u064a\u0648": 2688, "\u0627\u0644\u0633\u0639\u0627\u062f\u0629": 2689, "\u0645\u062d\u062f": 2690, "\u064a\u0639\u0644\u0645": 2691, "\u0627\u0644\u062a\u0631": 2692, "\u0631\u0627\u0636\u064a": 2693, "\u0646\u062a\u064a\u062c\u0629": 2694, "\u0648\u064a\u0645\u0643\u0646": 2695, "\u0627\u0644\u062f\u0627\u062e\u0644": 2696, "\u0648\u0627\u0636\u062d": 2697, "\u0634\u0627\u0631\u0643": 2698, "\u0628\u0634\u0631": 2699, "\u0637\u0648\u064a\u0631": 2700, "\u0633\u064a\u0633": 2701, "\u0628\u0631\u0645\u062c": 2702, "\u0628\u064a\u0628": 2703, "\u062d\u0642\u0648\u0642": 2704, "\u0625\u062e": 2705, "\u064a\u0623\u062e\u0630": 2706, "\u062a\u0642\u0627\u0644": 2707, "\u0646\u062d\u0635\u0644": 2708, "\u0623\u0639\u0637": 2709, "\u064a\u0632\u0627\u0644": 2710, "\u0639\u0634\u0631\u0629": 2711, "\u0627\u0644\u0645\u0639\u0627": 2712, "\u0627\u0644\u0630\u0649": 2713, "\u0627\u0644\u0623\u0645\u0631\u064a\u0643\u064a": 2714, "\u0636\u0627\u0639": 2715, "\u0627\u0644\u0645\u0624\u0633": 2716, "\u062d\u0633\u0646\u064b\u0627": 2717, "\u062f\u0631\u0643": 2718, "\u062a\u0635\u0627\u062f": 2719, "\u062d\u0642\u064a\u0642\u064a\u0629": 2720, "\u0639\u0636": 2721, "\u0646\u0628\u062f\u0623": 2722, "\u0627\u0644\u0645\u062a\u062d": 2723, "\u064a\u0645\u062b\u0644": 2724, "\u0627\u0644\u0642\u0644\u0628": 2725, "\u0628\u0648\u0631": 2726, "\u062d\u062f\u0627\u062b": 2727, "\u062c\u0645\u064a\u0644\u0629": 2728, "\u0646\u062f\u0648\u0642": 2729, "\u0645\u0646\u0638\u0645\u0629": 2730, "\u0627\u0644\u062a\u0631\u0643": 2731, "\u062c\u0627\u062c": 2732, "\u0642\u062a\u0644": 2733, "\u0627\u0644\u0645\u062c\u062a\u0645\u0639\u0627\u062a": 2734, "\u0627\u0644\u0643\u062a\u0628": 2735, "\u064a\u0639\u064a\u0634\u0648\u0646": 2736, "\u0643\u0627\u0644\u064a": 2737, "\u0645\u0627\u062f": 2738, "\u0631\u064a\u0637\u0629": 2739, "\u062a\u0636": 2740, "\u062a\u0646\u064a": 2741, "\u0648\u063a\u064a\u0631": 2742, "\u0648\u0628\u0627\u062a": 2743, "\u062e\u0635\u0635": 2744, "\u0625\u0645\u0643\u0627\u0646": 2745, "\u0647\u0634": 2746, "\u0627\u0644\u0645\u0633\u062a\u0648\u0649": 2747, "\u0628\u062f\u0627\u0639": 2748, "\u0627\u0644\u0627\u062c\u062a\u0645\u0627\u0639\u064a\u0629": 2749, "\u0625\u062e\u062a": 2750, "\u0628\u0627\u0644\u062d": 2751, "\u0639\u062f\u0627\u062f": 2752, "\u0627\u0644\u0645\u0633\u0631": 2753, "\u0644\u064a\u062f": 2754, "\u0627\u0644\u0643\u0627\u0626\u0646\u0627\u062a": 2755, "\u0646\u0648\u0639\u0627\u064b": 2756, "\u0627\u0644\u0645\u062d\u0644\u064a": 2757, "\u0646\u0645\u0644\u0643": 2758, "\u0648\u0627\u062c\u062f": 2759, "\u064a\u0645\u064a\u0646": 2760, "\u0627\u0644\u0630\u0627\u062a": 2761, "\u0628\u062a\u062d": 2762, "\u0622\u0644\u0629": 2763, "\u0645\u0639\u0631": 2764, "\u0627\u0644\u0639\u0627\u0626": 2765, "\u0627\u0644\u0643\u0627": 2766, "\u0644\u0645\u0629": 2767, "\u0644\u0644\u062d\u0635\u0648\u0644": 2768, "\u0628\u0630": 2769, "\u063a\u0627\u0631": 2770, "\u0641\u064a\u0631": 2771, "\u0627\u0644\u0627\u064b": 2772, "\u0627\u0644\u0634\u0639\u0648\u0631": 2773, "\u0637\u0648\u064a\u0644": 2774, "\u0634\u0639\u0631\u062a": 2775, "\u0636\u0648\u0621": 2776, "\u064a\u0639\u0648\u062f": 2777, "\u0644\u062a\u0644\u0643": 2778, "\u0641\u0627\u0632": 2779, "\u062d\u064a\u0627\u062a\u0647\u0645": 2780, "\u062a\u0637\u0648\u064a\u0631": 2781, "\u0627\u0644\u0646\u0641\u0637": 2782, "\u062d\u0648\u0627": 2783, "\u0646\u0648": 2784, "\u0645\u0627\u064a": 2785, "\u0627\u0644\u0645\u0631\u0629": 2786, "\u062a\u0639\u0631\u0636": 2787, "\u0648\u0644\u0627\u064a\u0629": 2788, "\u064a\u0634\u0628\u0647": 2789, "\u0645\u0624\u062e": 2790, "\u062a\u0628\u0639": 2791, "\u062a\u0639\u0627": 2792, "\u0648\u0627\u0644\u0642": 2793, "\u0648\u0628\u064a\u0629": 2794, "\u0628\u0634\u064a\u0621": 2795, "\u0631\u062d\u0644\u0629": 2796, "\u0645\u0646\u062a\u0635\u0641": 2797, "\u0628\u0639\u064a\u0646": 2798, "\u0648\u0645\u064a": 2799, "\u0627\u0644\u0644\u0639\u0628": 2800, "\u0627\u0644\u0623\u0633\u0626\u0644\u0629": 2801, "\u0627\u0644\u0645\u0631\u062d\u0644\u0629": 2802, "\u0630\u064a\u0646": 2803, "\u0644\u0639\u0628\u0629": 2804, "\u0645\u0648\u062c": 2805, "\u062e\u0631\u0648\u062c": 2806, "\u062d\u0627\u062f\u062b": 2807, "\u0632\u0631": 2808, "\u0627\u0644\u0639\u0631\u0636": 2809, "\u0628\u0642\u064a\u0629": 2810, "\u062f\u0642\u0627\u0626\u0642": 2811, "\u0648\u062e": 2812, "\u0627\u0644\u0623\u0647\u0645": 2813, "\u0627\u0644\u0646\u0645\u0648\u0630\u062c": 2814, "\u0639\u0627\u0645\u0629": 2815, "\u0628\u0623\u064a": 2816, "\u0641\u0647\u0630\u0627": 2817, "\u0648\u0633\u0627\u0626\u0644": 2818, "\u064a\u0646\u0638\u0631": 2819, "\u0627\u0644\u062a\u0644": 2820, "\u0623\u0648\u0644\u0627": 2821, "\u0645\u0636\u062a": 2822, "\u0645\u0634\u0627\u0643\u0644": 2823, "\u0645\u0647\u062a\u0645": 2824, "\u0623\u0641\u0643\u0627\u0631": 2825, "\u0631\u0631": 2826, "\u0643\u062f": 2827, "\u0627\u0645\u062a": 2828, "\u0645\u0648\u0627\u0644": 2829, "\u0627\u0644\u0641\u0631\u0635\u0629": 2830, "\u0628\u0631\u0629": 2831, "\u0642\u0627\u0626\u064a": 2832, "\u0638\u0631\u0648\u0641": 2833, "\u0627\u0644\u0645\u062c\u0627\u0644": 2834, "\u0632\u064a\u0627\u062f\u0629": 2835, "\u0627\u0644\u062a\u062d\u062f\u062b": 2836, "\u0645\u0639\u064a\u0646\u0629": 2837, "\u0627\u0644\u0646\u0633": 2838, "\u0636\u0627\u064a\u0627": 2839, "\u0633\u0628\u0642": 2840, "199": 2841, "\u0623\u0643\u0644": 2842, "\u0632\u0645\u0646": 2843, "\u0628\u062a\u0644\u0643": 2844, "\u0631\u062c\u0627\u0644": 2845, "\u0644\u0623\u064a": 2846, "\u0641\u0627\u0638": 2847, "\u062d\u0633\u0627": 2848, "\u0643\u0644\u0645\u0627\u062a": 2849, "\u0627\u0644\u0643\u0644\u0645\u0627\u062a": 2850, "\u0648\u0644\u0630\u0627": 2851, "\u0628\u0627\u062a\u0627\u062a": 2852, "\u062d\u0631\u0643": 2853, "\u0648\u0627\u0644\u062d": 2854, "\u0627\u0644\u0645\u0639\u062f": 2855, "\u0648\u0627\u0641\u0642": 2856, "\u0642\u062f\u0627\u0645": 2857, "\u0627\u0644\u062c\u0647\u0627\u0632": 2858, "\u0627\u0644\u0627\u0645\u0648\u0631": 2859, "\u0627\u0644\u0623\u062d\u064a\u0627\u0621": 2860, "ED": 2861, "\u062a\u0633\u0645\u0649": 2862, "\u0635\u0627\u0631": 2863, "\u062c\u0645\u0629": 2864, "\u0627\u0644\u0645\u062f\u0627\u0631\u0633": 2865, "\u0623\u062e\u0631": 2866, "\u0645\u0641\u0647\u0648\u0645": 2867, "\u062d\u064a\u0644": 2868, "\u0631\u0641\u0639": 2869, "\u0643\u062a\u0627\u0628\u0629": 2870, "\u0627\u0636": 2871, "\u0651\u0645": 2872, "\u0627\u0644\u0648\u0636\u0639": 2873, "\u0645\u0627\u0632": 2874, "\u0631\u064a\u0636": 2875, "\u0623\u062d\u062f\u0647\u0645": 2876, "\u062a\u062f\u0639\u0649": 2877, "\u0638\u0627": 2878, "\u0627\u0644\u0623\u0641\u0636\u0644": 2879, "\u0627\u0644\u062d\u0642\u064a\u0642\u064a\u0629": 2880, "\u0627\u0644\u062c\u0645\u0627": 2881, "\u064a\u062c\u0631\u064a": 2882, "\u0623\u0643\u0645\u0644": 2883, "\u0631\u064a\u062a": 2884, "\u0645\u062b\u0644\u0629": 2885, "\u0627\u0644\u0645\u0646\u0627\u062e": 2886, "\u0627\u0644\u0648\u062d\u064a\u062f\u0629": 2887, "\u0648\u064a\u062f": 2888, "\u062a\u0637\u0628\u064a\u0642": 2889, "\u062e\u064a\u0631": 2890, "\u0634\u0627\u0628\u0647": 2891, "\u0631\u0633\u0627\u0644\u0629": 2892, "\u062b\u0646\u0627\u0621": 2893, "\u062d\u0643\u0645": 2894, "\u0641\u0646\u0627": 2895, "\u0627\u0644\u062a\u063a\u064a\u0631": 2896, "\u0627\u0644\u0627\u0637\u0641\u0627\u0644": 2897, "\u0636\u0627\u064b": 2898, "\u064a\u0648\u0631": 2899, "\u0627\u0644\u0623\u0639\u0644\u0649": 2900, "\u0627\u0644\u0623\u0633\u0627\u0633": 2901, "\u0627\u0644\u0642\u062f\u064a\u0645\u0629": 2902, "\u064a\u0641\u0643\u0631": 2903, "\u062a\u0639\u0637\u064a": 2904, "\u0645\u0635\u062f\u0631": 2905, "\u0622\u0646": 2906, "\u062a\u0636\u0639": 2907, "\u0646\u0642\u0648\u0644": 2908, "\u0627\u0644\u0645\u064f": 2909, "\u0644\u0623\u0648\u0644": 2910, "\u0623\u0641\u0639\u0644": 2911, "\u064a\u0639\u0637\u064a": 2912, "\u0627\u0644\u0648\u0627\u0636\u062d": 2913, "\u0627\u0644\u062d\u0627\u0633": 2914, "\u0627\u0644\u0625\u0639\u0644\u0627\u0645": 2915, "\u062a\u0635\u0648\u0631": 2916, "\u062c\u064a\u062f\u0627": 2917, "\u0634\u0627\u0631\u0629": 2918, "\u064a\u0639\u062f": 2919, "\u0633\u062a\u0637\u0639": 2920, "\u064a\u0642\u0627\u0631\u0628": 2921, "\u0633\u0631\u0637\u0627\u0646": 2922, "\u0627\u0644\u0645\u0637\u0627\u0641": 2923, "\u0624\u0644": 2924, "\u0646\u0637\u0627\u0642": 2925, "\u0627\u0644\u062d\u062f": 2926, "\u0627\u0644\u0645\u0642": 2927, "\u0627\u0644\u062d\u0645\u0636": 2928, "\u0627\u0644\u0631\u0624": 2929, "\u0627\u0644\u0648\u0638": 2930, "\u0627\u0644\u0628\u0644\u062f\u0627\u0646": 2931, "\u0627\u0644\u062a\u062c\u0627\u0631\u0628": 2932, "\u0651\u0647": 2933, "\u062a\u0631\u0648\u0646\u064a": 2934, "\u0648\u0641\u064a\u0631": 2935, "\u0646\u0641\u0639\u0644\u0647": 2936, "\u0645\u0641\u0627": 2937, "\u0648\u0644\u062f\u064a": 2938, "\u0627\u0644\u0639\u0646\u0627": 2939, "\u0627\u0644\u0646\u0635": 2940, "\u0627\u0644\u062f\u0645": 2941, "\u0623\u0639\u0645\u0627\u0644": 2942, "\u062b\u0627\u0631": 2943, "\u0643\u0648\u0643\u0628": 2944, "\u0644\u0648\u0633": 2945, "\u064a\u062e": 2946, "\u0648\u0627\u062d": 2947, "\u0627\u0644\u0633\u064a\u0627\u0633\u064a": 2948, "\u0635\u062f\u064a\u0642": 2949, "TED": 2950, "\u0642\u0627\u0630": 2951, "\u0648\u0644\u0643\u0646\u0646\u0627": 2952, "\u062f\u0631\u0627\u062a": 2953, "\u0625\u0633": 2954, "\u064a\u0636": 2955, "\u0633\u062a\u064a": 2956, "\u0648\u062a\u064a": 2957, "\u0627\u0644\u0625\u0633": 2958, "\u0627\u0644\u0648\u0637": 2959, "\u0628\u0636\u0639": 2960, "\u0633\u0639\u064a": 2961, "\u0635\u0646": 2962, "\u0627\u0646\u062f": 2963, "\u0644\u0644\u0639\u0645\u0644": 2964, "\u0627\u0644\u062d\u0642": 2965, "\u062a\u062d\u062f\u064a\u062f": 2966, "\u0639\u0648\u0646": 2967, "\u0648\u0627\u0644\u062e": 2968, "\u0651\u0650": 2969, "\u0627\u0644\u062f\u0648\u0644\u0629": 2970, "\u0623\u062e\u0630\u062a": 2971, "\u062c\u0633\u0645": 2972, "\u0635\u0644\u0629": 2973, "\u0639\u0627\u0631": 2974, "\u0645\u0642\u0627": 2975, "\u0645\u0646\u0627\u0637\u0642": 2976, "\u0623\u062d\u064a\u0627\u0646\u0627": 2977, "\u0638\u0647\u0631\u062a": 2978, "\u064a\u0647\u0645": 2979, "\u0623\u0646\u0641\u0633\u0647\u0645": 2980, "\u0648\u0646\u0635\u0641": 2981, "\u0648\u0631\u064a\u0629": 2982, "\u0645\u064a\u0632\u0629": 2983, "\u0646\u0638\u0631\u064a\u0629": 2984, "\u0632\u064a\u0646": 2985, "\u0644\u063a\u0629": 2986, "\u0633\u0645\u064a\u0647": 2987, "\u0627\u062c\u062a\u0645\u0627": 2988, "\u0623\u0633\u0631\u0639": 2989, "\u0623\u062b\u0631": 2990, "\u0640\u0640": 2991, "\u0642\u0648\u064a\u0629": 2992, "\u0648\u0642\u0644\u062a": 2993, "\u0645\u062a\u0627": 2994, "\u0642\u0627\u0644\u0648\u0627": 2995, "\u0628\u062d\u0627\u062b": 2996, "\u0627\u0644\u0633\u0644\u0648\u0643": 2997, "\u0623\u0633\u0628\u0648\u0639": 2998, "\u0627\u0631\u0643": 2999, "\u0643\u062a\u0634\u0627\u0641": 3000, "\u0625\u0635": 3001, "\u0635\u0639\u0628": 3002, "\u0639\u0642\u0644": 3003, "\u0646\u0643": 3004, "\u0627\u0644\u0643\u0627\u0645": 3005, "\u062c\u0627\u0628": 3006, "\u0627\u0644\u0645\u0631\u0636\u0649": 3007, "\u0635\u0645\u064a\u0645": 3008, "\u0645\u064b\u0627": 3009, "\u0648\u0627\u0644\u0641": 3010, "\u0628\u0643\u0627\u062a": 3011, "\u0636\u062e\u0645\u0629": 3012, "\u0627\u0644\u062d\u0631\u0627\u0631\u0629": 3013, "\u0627\u0644\u0633\u062c\u0646": 3014, "\u0627\u0644\u0642\u0627\u0646\u0648\u0646": 3015, "\u0628\u064a\u0626\u0629": 3016, "\u062d\u0627\u062f\u062b\u0629": 3017, "\u0648\u0627\u0633\u062a": 3018, "\u0646\u0641\u0647\u0645": 3019, "\u062a\u0635\u0646\u0639": 3020, "\u0627\u0644\u0645\u0646\u0638": 3021, "\u064a\u0639\u0631\u0641\u0648\u0646": 3022, "\u0645\u0642\u0627\u0631\u0646\u0629": 3023, "\u0623\u062c\u0632\u0627\u0621": 3024, "\u0634\u0631\u0627\u0621": 3025, "\u0645\u0627\u0637": 3026, "\u0627\u0644\u062d\u062f\u064a\u062b\u0629": 3027, "\u0623\u062c\u0647\u0632\u0629": 3028, "\u0628\u064a\u062f": 3029, "\u0644\u063a": 3030, "\u0645\u062d\u0644": 3031, "\u0627\u0644\u0647\u062f\u0641": 3032, "\u0645\u062a\u0631": 3033, "\u0648\u0635\u0648\u0644": 3034, "\u062f\u0631\u0627\u0643": 3035, "\u0628\u0646\u064a\u0629": 3036, "\u0633\u064a\u062d\u062f\u062b": 3037, "\u0628\u062f\u0621": 3038, "\u063a\u0627\u062f\u0631": 3039, "\u0628\u0625\u0645\u0643\u0627\u0646\u0646\u0627": 3040, "\u0625\u0633\u062a\u062e\u062f\u0627\u0645": 3041, "\u0639\u0635\u0631": 3042, "\u0627\u0644\u0623\u0628\u0639\u0627\u062f": 3043, "\u0639\u0645\u0644\u062a": 3044, "\u0627\u0644\u0633\u0627\u0639\u0629": 3045, "\u0627\u0641\u0636\u0644": 3046, "\u0634\u0641\u062a": 3047, "\u0627\u0644\u062d\u0627\u0644\u0627\u062a": 3048, "\u0627\u0644\u0635\u062d": 3049, "\u0627\u0647\u0631\u0629": 3050, "\u0627\u0644\u0639\u0646\u0641": 3051, "\u0642\u064a\u0645": 3052, "\u0642\u0627\u0646\u0648\u0646": 3053, "\u0644\u0635": 3054, "\u0645\u0646\u0632\u0644": 3055, "\u0627\u0644\u062a\u0627\u0644\u064a\u0629": 3056, "\u062a\u0648\u0642\u0639": 3057, "\u062d\u0645\u0644": 3058, "\u062f\u0641": 3059, "\u0637\u0644\u0627": 3060, "\u0646\u0631": 3061, "\u0627\u0644\u062d\u064a\u0648\u064a\u0629": 3062, "\u062c\u0648\u0631": 3063, "\u0644\u0648\u062c": 3064, "\u0641\u064a\u0631\u0648\u0633": 3065, "\u0627\u0644\u0627\u0635": 3066, "\u0627\u0644\u0645\u0627\u062f\u0629": 3067, "\u064a\u0635\u0646\u0639": 3068, "\u0648\u0635\u0644\u0646\u0627": 3069, "\u0623\u0646\u0638\u0631": 3070, "\u0627\u0644\u0639\u0627": 3071, "\u0623\u0648\u0644\u0627\u064b": 3072, "\u0628\u062b": 3073, "\u062f\u0646\u0627": 3074, "\u0634\u0641\u0649": 3075, "\u0647\u0648\u0644\u0629": 3076, "\u0645\u0627\u0631\u064a": 3077, "\u0643\u0644\u0651": 3078, "\u0627\u0644\u0633\u0646\u064a\u0646": 3079, "\u0639\u0645\u0642": 3080, "\u0644\u0648\u0627\u0646": 3081, "500": 3082, "\u062a\u062d\u0627\u0648\u0644": 3083, "\u062b\u0645\u0627\u0631": 3084, "\u0644\u0640": 3085, "\u0627\u0644\u0647\u0648": 3086, "\u0646\u0627\u064b": 3087, "\u0633\u0627\u0639\u062f\u0629": 3088, "\u062a\u0627\u0628\u0629": 3089, "\u0637\u0631\u0641": 3090, "\u063a\u0631\u064a\u0628": 3091, "\u0642\u0641": 3092, "\u0644\u062f\u0631\u062c\u0629": 3093, "\u0627\u0644\u0645\u0647\u0627": 3094, "\u0627\u0644\u0645\u062c\u0645\u0648\u0639\u0629": 3095, "\u0645\u0631\u0648\u0631": 3096, "\u0641\u0627\u064b": 3097, "\u0627\u0644\u0623\u0633\u0641\u0644": 3098, "\u062a\u0628\u064a\u0646": 3099, "\u062c\u062f\u064a": 3100, "\u0648\u0644\u0648": 3101, "\u0627\u0644\u0628\u0644\u0627\u062f": 3102, "\u0646\u062a\u0627\u0626\u062c": 3103, "\u064a\u0633\u062a\u0637\u064a\u0639\u0648\u0646": 3104, "\u0623\u062f\u0631\u0643\u062a": 3105, "\u0637\u0639\u0627\u0645": 3106, "\u0630\u0627\u0643\u0631\u0629": 3107, "\u0627\u0644\u0623\u0632": 3108, "\u0628\u0627\u0639": 3109, "\u0648\u0623\u0643\u062b\u0631": 3110, "\u0627\u0644\u0623\u0645\u0631\u0627\u0636": 3111, "\u0631\u0627\u0642\u0628\u0629": 3112, "\u0623\u0632": 3113, "\u0634\u0643\u0631": 3114, "\u0627\u0644\u0625\u0644\u0643": 3115, "\u0623\u0633\u0627\u0633\u0627": 3116, "\u0627\u0644\u0627\u0641": 3117, "\u0627\u0644\u064a\u0633\u0627\u0631": 3118, "\u0622\u062e\u0631\u064a\u0646": 3119, "\u0632\u0641": 3120, "\u0644\u062c\u0639\u0644": 3121, "\u0645\u0647\u0645\u0627": 3122, "\u0660\u0660": 3123, "\u0627\u0644\u0645\u0641\u062a": 3124, "\u062a\u0642\u0646\u064a\u0629": 3125, "\u062a\u062a\u062d\u062f\u062b": 3126, "\u0627\u0644\u0645\u0639\u0631\u0641\u0629": 3127, "\u062e\u0627\u0637\u0631": 3128, "\u062a\u0634\u0627\u0647\u062f": 3129, "\u0627\u0644\u0645\u0641": 3130, "\u0627\u0644\u0645\u0643": 3131, "\u0648\u0645\u064a\u0629": 3132, "\u0628\u0627\u0626\u064a\u0629": 3133, "\u0631\u0627\u062a\u064a\u062c": 3134, "\u0633\u0623\u0642\u0648\u0645": 3135, "\u062b\u0627\u0646\u064a": 3136, "\u0641\u0623\u0646\u062a": 3137, "\u0641\u062c\u0623\u0629": 3138, "\u0644\u0639\u0628": 3139, "\u0648\u0627\u0644\u062c": 3140, "\u0648\u0643\u0630\u0644\u0643": 3141, "\u0623\u0635\u063a\u0631": 3142, "\u062a\u0647\u0649": 3143, "\u0633\u0643\u0631": 3144, "\u0634\u0646": 3145, "\u0643\u0647\u0631": 3146, "\u0647\u064a\u0631": 3147, "\u0627\u0644\u0644\u064a\u0644": 3148, "\u0625\u0646\u0633\u0627\u0646": 3149, "\u0627\u0644\u0637\u0628": 3150, "\u0627\u0645\u0627": 3151, "\u0633\u0623\u0644": 3152, "\u0643\u0634\u0641": 3153, "\u064a\u0648\u0646": 3154, "\u0627\u0644\u062e\u0627\u0631": 3155, "\u0641\u0627\u0642": 3156, "\u062c\u064a\u062f\u0627\u064b": 3157, "\u0645\u0642\u0631\u0627\u0637\u064a\u0629": 3158, "\u0623\u0642\u0635\u062f": 3159, "\u0645\u062f\u0631": 3160, "\u064a\u0633\u0627\u0639\u062f": 3161, "\u0627\u0644\u062e\u064a": 3162, "\u0648\u0628\u0627\u0644\u0637\u0628\u0639": 3163, "\u0643\u0648\u0628": 3164, "\u0628\u062a\u0647": 3165, "\u0637\u0628\u064a\u0639\u0629": 3166, "\u0627\u0644\u064a\u0645\u064a\u0646": 3167, "\u0627\u0644\u062a\u0634": 3168, "\u0633\u0646\u0642\u0648\u0645": 3169, "\u062a\u0642\u062f\u064a\u0645": 3170, "\u062e\u0637\u0623": 3171, "\u0644\u0644\u062a\u0648": 3172, "\u0623\u0631\u0636": 3173, "\u0627\u0648\u0644": 3174, "\u0633\u0643\u0627\u0646": 3175, "\u0646\u064f": 3176, "\u0648\u063a": 3177, "\u0639\u0644\u0642\u0629": 3178, "\u064a\u0627\u062f": 3179, "\u0645\u0639\u064a\u0646": 3180, "\u0627\u0644\u0633\u0627\u0628\u0642": 3181, "\u0627\u0644\u0634\u0631\u0637\u0629": 3182, "\u062d\u0627\u0633": 3183, "\u0627\u0644\u062e\u0644": 3184, "\u0627\u0644\u062e\u0648\u0641": 3185, "\u062a\u0635\u0631\u0641": 3186, "\u0623\u0648\u0644\u0626\u0643": 3187, "\u0627\u0631\u062a\u0641\u0627\u0639": 3188, "\u0628\u0639\u064a\u062f\u0627": 3189, "\u0627\u0644\u0635\u062d\u064a\u062d": 3190, "\u0628\u0636\u0639\u0629": 3191, "\u0646\u0623\u062e\u0630": 3192, "\u0641\u064a\u0644\u0645": 3193, "\u0627\u0644\u062a\u0639\u0627\u0645\u0644": 3194, "\u0627\u0644\u0641\u0631\u0642": 3195, "\u0630\u0627\u062a\u0647": 3196, "\u0623\u0648\u0631\u0648\u0628\u0627": 3197, "\u0628\u0627\u0644\u0631": 3198, "\u0631\u0627\u0645": 3199, "\u0627\u0644\u0627\u062c\u062a\u0645\u0627\u0639\u064a": 3200, "\u0627\u0644\u063a\u0630\u0627\u0621": 3201, "\u0628\u0627\u0645\u0643\u0627\u0646": 3202, "\u0628\u0628\u0639\u0636": 3203, "\u0645\u062f\u0631\u0633\u0629": 3204, "\u0647\u0644\u0627\u0643": 3205, "\u0627\u0644\u062d\u062c\u0645": 3206, "\u0623\u0639\u0631\u0636": 3207, "\u062a\u0648\u0642\u0641": 3208, "\u0627\u0644\u0645\u062d\u0644\u064a\u0629": 3209, "\u0627\u0644\u0628\u062f": 3210, "\u0627\u0644\u062c\u0632\u064a": 3211, "\u0627\u0644\u064a\u0647": 3212, "\u0634\u0639\u0648\u0631": 3213, "\u0627\u0644\u0631\u0626\u064a\u0633\u064a": 3214, "\u0627\u0644\u062d\u0627\u0633\u0648\u0628": 3215, "\u0623\u0631\u0627\u062f": 3216, "\u0641\u0623\u0646\u0627": 3217, "\u0648\u0633\u0639": 3218, "\u0627\u0644\u0645\u062d\u062a\u0645\u0644": 3219, "\u062a\u0633\u0627\u0639\u062f": 3220, "\u0633\u064a\u0645": 3221, "\u0627\u0644\u0639\u062f": 3222, "\u0639\u062f\u062f\u0629": 3223, "\u0639\u0648\u062f": 3224, "\u0627\u0644\u062a\u0623\u062b\u064a\u0631": 3225, "\u0627\u0644\u0623\u063a": 3226, "\u0628\u0627\u0626": 3227, "\u062d\u064a\u0627\u0644": 3228, "\u062a\u062d\u0643\u0645": 3229, "\u0645\u0633\u0627\u062d\u0629": 3230, "\u064a\u0641\u0639\u0644\u0648\u0646": 3231, "\u0627\u0644\u0645\u0633\u0631\u062d": 3232, "\u0637\u0646\u0627": 3233, "\u0639\u062c": 3234, "\u064a\u063a": 3235, "\u0645\u0639\u0646\u0627": 3236, "\u0627\u0644\u0639\u0636": 3237, "\u0645\u062a\u0646\u0627": 3238, "\u062e\u0644\u064a\u0629": 3239, "\u0627\u0644\u063a\u0627\u0628\u0627\u062a": 3240, "\u064a\u0643\u064a\u0629": 3241, "\u0642\u062f\u064a\u0645": 3242, "\u0646\u0642\u0635": 3243, "\u0648\u0628\u0631": 3244, "\u0645\u0627\u0631\u0633": 3245, "\u0648\u0627\u0643\u0628": 3246, "\u0633\u064a\u0626\u0629": 3247, "\u0639\u062f\u062a": 3248, "\u0646\u062a\u062c": 3249, "\u0645\u0639\u0627\u0644\u062c\u0629": 3250, "\u062a\u0639\u062a\u0628\u0631": 3251, "\u0645\u0633\u0628": 3252, "\u0628\u0627\u0643": 3253, "\u062a\u0631\u062d": 3254, "\u0645\u062b\u0644\u0627": 3255, "\u0631\u0643\u0632": 3256, "\u0642\u0644\u0628": 3257, "\u0641\u0639\u0627\u0644": 3258, "\u0627\u0644\u0623\u062e\u064a\u0631": 3259, "\u062f\u0648\u0645\u0627": 3260, "\u062d\u062f\u0648\u062b": 3261, "\u0648\u0639\u064a\u0629": 3262, "\u064a\u0642\u0648\u062f": 3263, "\u0648\u0632\u064a\u0639": 3264, "\u0628\u0627\u0644\u0643\u0627\u0645\u0644": 3265, "\u0627\u0644\u0645\u062e\u0644": 3266, "\u0627\u0644\u0645\u0648\u0642\u0639": 3267, "\u062f\u064a\u0642\u0629": 3268, "\u0644\u064a\u0643\u0648\u0646": 3269, "\u0627\u0644\u0646\u0651": 3270, "\u0646\u0648\u0639\u0629": 3271, "\u0627\u0644\u0645\u062f\u0649": 3272, "\u0623\u0628\u062f\u0627\u064b": 3273, "\u0644\u0632": 3274, "\u0627\u0644\u0641\u0639\u0644": 3275, "\u0627\u0644\u062e\u0627\u0645": 3276, "\u0627\u0644\u0628\u0631\u0646\u0627\u0645\u062c": 3277, "\u0627\u0644\u0637\u0627\u0626\u0631\u0629": 3278, "\u0628\u0627\u0644\u0645\u0627\u0626\u0629": 3279, "\u0628\u0623\u0643\u0645\u0644": 3280, "\u0627\u0644\u062d\u062f\u0648\u062f": 3281, "\u0627\u0644\u0644\u0639\u0628\u0629": 3282, "\u0627\u0644\u0628\u064a\u0648\u0644\u0648\u062c": 3283, "14": 3284, "\u062b\u0648\u0631": 3285, "\u0643\u0634\u0627\u0641": 3286, "\u0648\u0644\u0647\u0630\u0627": 3287, "\u062d\u0627\u0644\u064a\u0627": 3288, "16": 3289, "\u062a\u0633\u0645\u062d": 3290, "\u0642\u0634": 3291, "\u0646\u0646": 3292, "\u0627\u0644\u0648\u0633\u0637": 3293, "\u0628\u0631\u0627\u0621": 3294, "\u0642\u0631\u0627\u0631": 3295, "\u0627\u0644\u0623\u0633\u0628\u0648\u0639": 3296, "\u0628\u0645\u0642\u062f": 3297, "\u0627\u0644\u062a\u062c": 3298, "\u0631\u0627\u0641": 3299, "\u0627\u0644\u062d\u064a\u0648\u0627\u0646": 3300, "70": 3301, "\u0639\u0638\u064a\u0645\u0629": 3302, "\u0645\u064a\u062a": 3303, "\u0627\u0646\u0638\u0631\u0648\u0627": 3304, "\u0627\u0644\u0645\u0644\u0643": 3305, "\u062c\u0632\u064a\u0644\u0627\u064b": 3306, "\u0648\u0627\u0644\u0643": 3307, "\u0631\u0627\u063a": 3308, "\u0627\u0644\u0646\u0633\u0628\u0629": 3309, "\u0627\u0644\u0641\u0642\u0631": 3310, "\u0627\u0644\u0625\u062c\u0627\u0628\u0629": 3311, "\u0643\u0631\u0647": 3312, "\u0639\u0645\u0644\u0647": 3313, "\u0627\u0644\u0631\u0627\u0626\u0639\u0629": 3314, "\u064a\u0631\u0648\u0646": 3315, "\u0631\u064a\u0637": 3316, "\u0627\u0644\u0642\u0648\u0627": 3317, "\u0627\u0644\u0634\u0639\u0628": 3318, "\u062d\u0627\u0628": 3319, "\u062d\u0627\u062c\u0629": 3320, "\u062a\u0635\u0648\u064a\u0631": 3321, "\u0628\u0623\u0646\u0646\u0627": 3322, "\u0623\u0633\u0627\u0628\u064a\u0639": 3323, "\u0627\u0644\u0645\u0647\u0645\u0629": 3324, "\u062c\u0645\u0627": 3325, "\u0635\u0631\u0641": 3326, "\u0645\u0648\u0631": 3327, "\u064a\u0636\u0639": 3328, "\u0645\u0646\u062a": 3329, "\u0627\u0644\u0645\u0628\u0646\u0649": 3330, "\u0633\u064a\u0627\u0631\u0627\u062a": 3331, "\u0642\u0627\u062f\u0631\u0629": 3332, "\u0628\u0642\u064a": 3333, "\u0628\u0627\u0644\u0631\u063a\u0645": 3334, "\u062a\u0643\u0645": 3335, "\u0633\u062f": 3336, "\u0633\u062a\u064a\u0641": 3337, "\u0643\u0644\u0646\u0627": 3338, "\u062f\u0627\u0639": 3339, "\u0648\u062a\u0644\u0643": 3340, "\u0633\u0623\u0644\u062a": 3341, "\u0627\u0644\u0631\u0626\u064a\u0633\u064a\u0629": 3342, "\u062a\u0634\u0643\u0644": 3343, "\u0634\u0628": 3344, "\u0627\u0644\u0628\u0646\u0627\u0621": 3345, "\u0627\u0644\u0625\u0635": 3346, "\u0627\u0644\u062b\u0627\u0646": 3347, "\u0627\u0643\u062a\u0634\u0641": 3348, "\u0627\u064a\u0636\u0627\u064b": 3349, "\u0623\u0648\u0627": 3350, "\u062e\u0648\u0644": 3351, "\u0636\u063a\u0637": 3352, "\u0647\u0627\u0626\u0644\u0629": 3353, "\u0628\u0627\u0642": 3354, "\u062d\u064a\u0648\u0627\u0646\u0627\u062a": 3355, "\u0641\u0639\u0644\u062a": 3356, "\u0634\u0627\u0631\u0627\u062a": 3357, "\u0627\u062b\u0646\u064a\u0646": 3358, "\u0627\u0644\u0623\u062e\u0628\u0627\u0631": 3359, "\u0627\u0644\u0634\u0645\u0633\u064a\u0629": 3360, "\u0627\u0644\u062b\u0644\u0627\u062b\u0629": 3361, "\u062a\u062e\u0631\u062c": 3362, "\u0643\u064a\u0644": 3363, "\u0648\u0627\u0644\u0633": 3364, "\u0641\u064a\u0627\u062a": 3365, "\u0627\u0644\u0639\u0634\u0631\u064a\u0646": 3366, "\u0647\u0648\u062f": 3367, "\u0633\u0646\u062a": 3368, "\u0634\u062e\u0635\u064a\u0629": 3369, "\u0623\u0633\u0627\u0633": 3370, "\u0625\u0639": 3371, "\u062b\u0642": 3372, "\u062b\u064a": 3373, "\u062f\u0648\u0627": 3374, "\u0627\u0644\u0647\u0627\u062a\u0641": 3375, "\u0627\u0644\u0646\u0638": 3376, "\u0628\u0627\u0633": 3377, "\u0631\u0628\u0637": 3378, "\u0648\u0633\u064a\u0644\u0629": 3379, "\u0627\u0644\u0643\u0647\u0631\u0628\u0627\u0621": 3380, "\u062a\u0643\u0646\u0648\u0644\u0648\u062c\u064a\u0627": 3381, "\u0630\u0628": 3382, "\u0638\u0627\u0631": 3383, "\u0643\u0647\u0630\u0647": 3384, "\u064a\u062e\u0635": 3385, "\u0627\u0644\u0623\u0631\u062c": 3386, "\u0644\u0643\u0646\u0647\u0645": 3387, "\u0627\u0644\u0628\u064a\u062a": 3388, "\u0628\u0631\u0648\u0646": 3389, "\u062d\u0648\u0644\u0646\u0627": 3390, "\u064a\u0635\u062f\u0642": 3391, "\u062b\u0645\u0631": 3392, "\u0646\u0636\u0639": 3393, "\u0627\u0644\u0639\u0648\u062f\u0629": 3394, "\u0642\u0627\u0639\u062f\u0629": 3395, "\u0627\u0644\u0642\u064a\u0627\u062f\u0629": 3396, "\u0634\u0627\u0628": 3397, "\u0648\u0627\u0631\u0639": 3398, "\u0627\u0644\u0623\u062f\u0648\u0627\u062a": 3399, "\u0642\u064a\u0627\u0633": 3400, "\u0643\u0644\u064a": 3401, "\u064a\u0633\u0645\u062d": 3402, "\u0627\u0644\u0634\u0631\u0642": 3403, "\u0648\u0636\u0648\u062d": 3404, "\u0646\u0638\u0631\u0646\u0627": 3405, "\u0648\u0638\u064a\u0641": 3406, "\u0627\u0644\u0633\u0644\u0637\u0629": 3407, "\u0627\u0645\u0631\u0623\u0629": 3408, "\u0641\u0644\u0646": 3409, "\u0647\u062c": 3410, "\u0647\u0634\u0629": 3411, "\u0627\u0644\u0625\u062e\u062a": 3412, "\u0645\u062b\u0644\u064a": 3413, "\u062a\u0639\u0627\u0645\u0644": 3414, "\u0623\u0631\u064a\u0643\u0645": 3415, "\u062a\u0639\u062f": 3416, "\u0632\u064a\u0644": 3417, "\u0648\u0634\u0643": 3418, "\u0627\u0644\u062f\u0631": 3419, "\u0627\u0644\u0625\u064a": 3420, "\u0644\u062f\u064a\u0643\u0645": 3421, "\u0627\u0644\u0623\u0646\u0648\u0627\u0639": 3422, "\u0627\u0644\u0645\u0648\u0627\u0631\u062f": 3423, "\u0628\u0639\u064a\u062f\u0627\u064b": 3424, "\u0646\u062c\u0639\u0644": 3425, "\u0627\u0644\u0645\u0631\u0627": 3426, "\u0627\u0631\u064a\u0629": 3427, "\u0627\u0644\u062b\u0642\u0629": 3428, "\u062d\u0627\u0648\u0644\u062a": 3429, "\u062d\u064a\u0627\u062a\u0643": 3430, "\u0627\u0643\u062a\u0634\u0627\u0641": 3431, "\u0628\u0645\u062c\u0631\u062f": 3432, "\u0633\u062e": 3433, "\u0647\u064a\u0629": 3434, "\u0644\u0644\u0639\u0627\u0644\u0645": 3435, "\u0627\u0644\u0633\u0645\u0627\u0621": 3436, "\u0627\u0644\u062c\u064a\u062f": 3437, "\u0628\u0639\u0636\u0646\u0627": 3438, "\u0645\u062f\u0646": 3439, "\u062e\u062a\u0644\u0641": 3440, "\u0627\u0633\u062a\u062e\u062f": 3441, "\u0627\u0633\u062a\u0637\u064a\u0639": 3442, "\u0633\u0648\u0649": 3443, "\u0636\u062e\u0645": 3444, "\u0627\u0644\u0645\u0639\u0631": 3445, "\u0645\u062a\u0649": 3446, "\u062d\u0627\u0641\u0629": 3447, "\u0634\u0643\u064a\u0644": 3448, "\u0648\u0635\u0641": 3449, "\u0627\u062d\u0628": 3450, "\u062a\u062a\u062d\u0631\u0643": 3451, "\u0632\u0648\u0646": 3452, "\u0627\u0644\u0644\u064a": 3453, "\u0627\u0646\u0639": 3454, "\u0627\u0644\u062a\u0641\u0627\u0639\u0644": 3455, "\u0627\u0644\u0646\u0641\u0633": 3456, "\u0627\u0644\u0630\u0643\u0627\u0621": 3457, "\u062a\u0631\u0648\u0646\u064a\u0629": 3458, "\u0623\u0631\u062f\u0646\u0627": 3459, "\u062a\u0641\u0639\u0644\u0647": 3460, "\u062c\u064a\u0645": 3461, "\u0633\u0648\u0642": 3462, "\u0641\u0644\u0627": 3463, "\u0644\u0645\u0639\u0631\u0641\u0629": 3464, "\u062d\u0627\u0641\u0638": 3465, "\u0627\u062c\u0644": 3466, "\u0641\u0645\u0627": 3467, "\u0643\u0647\u0630\u0627": 3468, "\u0647\u0631\u0629": 3469, "\u0646\u0627\u0637\u064a": 3470, "\u0641\u064a\u0630": 3471, "\u0645\u062a\u062d": 3472, "\u064a\u062f\u0632": 3473, "\u062d\u0638\u0627\u062a": 3474, "\u062f\u0627\u0626\u0631\u0629": 3475, "\u0627\u0644\u0643\u0644\u0645\u0629": 3476, "\u0627\u0644\u0642\u0627\u062f\u0645": 3477, "\u0633\u0637": 3478, "\u0648\u0627\u0644\u0643\u062b\u064a\u0631": 3479, "\u0648\u064a\u0645\u0643\u0646\u0643": 3480, "\u0627\u0646\u0638\u0631": 3481, "\u0627\u0644\u0639\u064a\u0634": 3482, "\u0627\u0644\u0627\u062e\u0631": 3483, "\u0627\u0644\u0622\u0644\u0627\u0641": 3484, "\u062a\u0639\u0648\u062f": 3485, "\u0627\u0644\u0627\u0646\u0633\u0627\u0646": 3486, "\u0641\u0631\u0627\u0646": 3487, "\u0628\u0623\u0646\u0647\u0627": 3488, "\u0627\u0644\u0641\u064a\u0631\u0648\u0633": 3489, "\u062a\u0641\u0643\u064a\u0631": 3490, "\u0646\u0627\u062d\u064a\u0629": 3491, "\u0627\u0644\u0623\u0643\u0628\u0631": 3492, "\u0627\u0644\u0634\u0627\u0631\u0639": 3493, "\u0627\u0644\u0637\u064a\u0648\u0631": 3494, "\u062d\u0642\u064b\u0627": 3495, "\u0625\u062d\u062a": 3496, "\u0628\u0648\u0628": 3497, "\u0634\u062f\u064a\u062f": 3498, "\u0627\u0644\u064a\u062f": 3499, "\u0627\u0644\u0648\u0642\u0648\u062f": 3500, "\u062f\u064a\u0642": 3501, "\u0627\u0644\u062d\u0627\u0644\u064a": 3502, "\u0627\u0644\u0633\u0647\u0644": 3503, "\u0627\u0644\u0642\u0628\u064a\u0644": 3504, "\u0627\u0644\u0633\u064a\u0627\u0633\u0629": 3505, "13": 3506, "\u0627\u0644\u0622\u0644\u0629": 3507, "\u0627\u0644\u063a\u0627\u0632": 3508, "\u0627\u0628\u0642": 3509, "\u062c\u064a\u0628": 3510, "\u0631\u0633\u0627\u0644": 3511, "\u0623\u0633\u0627\u0633\u064a": 3512, "\u0634\u0643\u0631\u064b\u0627": 3513, "\u0633\u064a\u0626": 3514, "\u0627\u0644\u063a\u0631\u0628": 3515, "\u0627\u0644\u062f\u0631\u0627\u0633\u0629": 3516, "\u0628\u0623\u0633": 3517, "\u062a\u062a\u0645": 3518, "\u0644\u0639": 3519, "\u0627\u0644\u062a\u0651": 3520, "\u0627\u0644\u0639\u0645\u0644\u064a": 3521, "\u0627\u0644\u0627\u062e": 3522, "\u0623\u062a\u0630\u0643\u0631": 3523, "\u0641\u0631\u0635": 3524, "\u0627\u0644\u0631\u0642\u0645": 3525, "\u063a\u0627\u0646\u0633\u062a\u0627\u0646": 3526, "\u062b\u0645\u0627\u0646\u064a\u0629": 3527, "\u0648\u062a\u062d": 3528, "\u0648\u0627\u0644\u0627\u0646": 3529, "\u0627\u0644\u0646\u062a\u064a\u062c\u0629": 3530, "\u0627\u0644\u062c\u064a\u062f\u0629": 3531, "\u064a\u0639\u062a\u0642\u062f\u0648\u0646": 3532, "\u0642\u0630": 3533, "\u0643\u0644\u0641": 3534, "\u0627\u0644\u0639\u0648\u0627": 3535, "\u0641\u0627\u064a\u0629": 3536, "\u062d\u062f\u062b\u062a": 3537, "\u0623\u0645\u0648\u0631": 3538, "\u0627\u0644\u0631\u064a\u0627\u062d": 3539, "\u0627\u0644\u062c\u064a\u0646\u0627\u062a": 3540, "\u0631\u0628\u064a": 3541, "\u063a\u0627\u0645": 3542, "\u0627\u0644\u062d\u0645": 3543, "\u0627\u0644\u0633\u0644\u0627\u0645": 3544, "\u0627\u0644\u0633\u0637\u062d": 3545, "\u064a\u062f\u0641\u0639": 3546, "\u0627\u0644\u062b\u062f\u064a": 3547, "\u062c\u0645\u064a\u0639\u0646\u0627": 3548, "\u062d\u064a\u0627\u062a\u0647": 3549, "\u0627\u0644\u0634\u0627\u0634\u0629": 3550, "\u0634\u0639\u0628": 3551, "\u0635\u062d\u0629": 3552, "\u0636\u0631\u0627\u0621": 3553, "\u0648\u064a\u0627": 3554, "\u0627\u0644\u0648\u0627\u062d\u062f": 3555, "\u0627\u0644\u0645\u0642\u062f": 3556, "\u0633\u0644\u0633\u0644": 3557, "\u062a\u062d\u062a\u0648\u064a": 3558, "\u0632\u064a\u0648\u0646": 3559, "\u0627\u0644\u062a\u0639\u0628\u064a\u0631": 3560, "\u0631\u0626\u064a\u0633": 3561, "\u0627\u0633\u062a\u062e\u062f\u0645": 3562, "\u0642\u062f\u0631\u062a": 3563, "\u064a\u0645\u0648\u062a": 3564, "\u0627\u0644\u0641\u0631\u062f": 3565, "\u0643\u062a\u064a\u0631\u064a\u0627": 3566, "\u0644\u0623\u0646\u0643": 3567, "\u0628\u0646\u0633\u0628\u0629": 3568, "\u0645\u0634\u0627\u0647\u062f\u0629": 3569, "\u0631\u0648\u0646": 3570, "\u0631\u0648\u0628\u0648\u062a": 3571, "\u0627\u0644\u0645\u0638": 3572, "\u0644\u0627\u0642\u064a": 3573, "\u0627\u0644\u0646\u0648\u0645": 3574, "\u062a\u0631\u0643\u0629": 3575, "\u0645\u0644\u0643\u0629": 3576, "\u0627\u0644\u0625\u062c\u062a\u0645\u0627\u0639\u064a\u0629": 3577, "\u0623\u064a\u0629": 3578, "\u0627\u062e\u0628\u0631": 3579, "\u0635\u0639\u0628\u0629": 3580, "\u0637\u0627\u062a": 3581, "\u0639\u062f\u064a\u062f\u0629": 3582, "\u0645\u0648\u062a": 3583, "\u0644\u0627\u0639": 3584, "\u062a\u062d\u0631\u0643": 3585, "\u064a\u062d\u0645\u0644": 3586, "\u0627\u0644\u062b\u0627\u0644\u062b\u0629": 3587, "\u0627\u0644\u062a\u062c\u0627\u0631\u064a\u0629": 3588, "\u0627\u0643": 3589, "\u0642\u0648\u062f": 3590, "\u0651\u062f": 3591, "\u0627\u0644\u0646\u0627\u062a": 3592, "\u0627\u0644\u0644\u064a\u0644\u0629": 3593, "\u0627\u0644\u0635\u062f": 3594, "\u0627\u0644\u0625\u0646\u0633\u0627\u0646\u064a\u0629": 3595, "\u0628\u0634\u0623\u0646": 3596, "\u0627\u062e\u062a\u0628\u0627\u0631": 3597, "\u0648\u0628\u0639\u062f\u0647\u0627": 3598, "\u0627\u0633\u062a\u0637\u0639\u0646\u0627": 3599, "\u0628\u062e\u0635\u0648\u0635": 3600, "\u0627\u0644\u0645\u0643\u062a": 3601, "\u064a\u0631\u062a": 3602, "\u0627\u0644\u0639\u0638\u064a\u0645": 3603, "\u0644\u064a\u0633\u0648\u0627": 3604, "\u0627\u0642\u062a\u0635\u0627\u062f": 3605, "\u0628\u0648\u0636\u0639": 3606, "\u0634\u062f": 3607, "\u0642\u0644\u0629": 3608, "\u0644\u0648\u0644": 3609, "\u0648\u0627\u0644\u064a": 3610, "\u0627\u0644\u062a\u0646\u0627": 3611, "\u0628\u062a\u064a": 3612, "\u0634\u0627\u0626": 3613, "\u062c\u0644\u0633": 3614, "\u0641\u0625\u0646\u0647\u0627": 3615, "\u0627\u0641\u0629": 3616, "\u0628\u0627\u0644\u062c": 3617, "\u062c\u064a\u0629": 3618, "\u062f\u0627\u0645\u0629": 3619, "\u0631\u063a\u0645": 3620, "\u0646\u0635\u0644": 3621, "\u0628\u064a\u0647": 3622, "\u0627\u0626\u0646": 3623, "\u0645\u0648\u0632": 3624, "\u062a\u0634\u0628\u0647": 3625, "\u0641\u0642\u0644\u062a": 3626, "\u0641\u0633\u064a\u0631": 3627, "\u0639\u0643\u0633": 3628, "\u062a\u0631\u0648\u0627": 3629, "\u0627\u0644\u0625\u0631": 3630, "\u0634\u062e\u0635\u0627": 3631, "\u062e\u0637\u0648\u0629": 3632, "\u0632\u0627\u064a\u062f": 3633, "\u0637\u0627\u0626\u0631\u0629": 3634, "17": 3635, "\u0623\u062f\u0627\u0629": 3636, "\u0633\u064a\u0628": 3637, "\u0627\u0644\u0627\u0642\u062a\u0635\u0627\u062f\u064a": 3638, "\u0644\u0645\u0633": 3639, "\u0643\u062a\u0627": 3640, "\u0623\u0633\u0648\u0623": 3641, "\u062d\u0638\u0648\u0638": 3642, "\u0627\u0644\u0628\u0631\u0645\u062c": 3643, "\u062d\u0635\u0644\u0646\u0627": 3644, "\u062f\u0639\u0645": 3645, "\u0643\u0648\u0643": 3646, "\u0639\u0627\u0641": 3647, "\u0627\u0644\u062b\u0648\u0631\u0629": 3648, "\u0641\u062a\u0627\u0629": 3649, "\u0627\u0644\u062a\u0635\u0648\u064a\u0631": 3650, "\u0628\u062c": 3651, "\u0633\u0628\u0639\u0629": 3652, "\u0636\u0631\u0628": 3653, "\u0639\u0648": 3654, "\u0648\u0628\u062f\u0623\u062a": 3655, "\u0623\u0646\u0634": 3656, "\u0648\u0627\u0637": 3657, "\u0627\u0644\u0628\u0627\u0631": 3658, "\u0627\u0644\u0646\u0628\u0627\u062a\u0627\u062a": 3659, "\u0645\u0631\u0643": 3660, "\u0633\u0645\u0629": 3661, "\u0627\u0644\u062f\u064a\u0646": 3662, "\u0641\u0627\u0621\u0629": 3663, "\u0627\u0644\u062a\u0631\u0643\u064a\u0632": 3664, "\u062a\u0648\u0642": 3665, "\u0646\u0643\u0646": 3666, "\u0627\u0644\u0641\u0627\u0626": 3667, "\u064a\u0642\u0638": 3668, "\u0627\u0644\u0631\u0648\u0628\u0648\u062a\u0627\u062a": 3669, "300": 3670, "\u0627\u0643\u0628\u0631": 3671, "\u0645\u062e\u062a\u0628\u0631": 3672, "\u0647\u0648\u0644": 3673, "\u0648\u0627\u0632\u0646": 3674, "\u0644\u0623\u0646\u064a": 3675, "\u0623\u0645\u0631\u0627\u0636": 3676, "\u064a\u0632\u064a\u062f": 3677, "\u0628\u0625\u0645\u0643\u0627\u0646\u0643": 3678, "\u0641\u0648\u0631\u0646\u064a\u0627": 3679, "\u0627\u0644\u0631\u0627\u0626\u0639": 3680, "\u0627\u0644\u0643\u0628\u0631": 3681, "\u0639\u0627\u0634": 3682, "\u062a\u062e\u0628\u0631": 3683, "\u062a\u0628\u0642\u0649": 3684, "\u0633\u0631\u064a\u0639": 3685, "\u0627\u0644\u062d\u0627\u062c": 3686, "\u0645\u062a\u0648\u0633\u0637": 3687, "\u0642\u064a\u064a\u0645": 3688, "\u0639\u0645\u0631\u064a": 3689, "\u0628\u0627\u0644\u062a\u0627\u0644\u064a": 3690, "\u0627\u0644\u0641\u064a\u0644\u0645": 3691, "\u064a\u0641\u0639\u0644\u0647": 3692, "\u0627\u0644\u0623\u0634\u062c\u0627\u0631": 3693, "\u0638\u0627\u0647\u0631": 3694, "\u0625\u062f\u0627\u0631\u0629": 3695, "\u0646\u0648\u0646": 3696, "\u0643\u0646\u064a": 3697, "\u0645\u0639\u0642\u062f\u0629": 3698, "\u062a\u062c\u0645\u0639": 3699, "\u0627\u0644\u0645\u062d\u064a\u0637\u0627\u062a": 3700, "\u0644\u0639\u0645\u0644": 3701, "\u0627\u0644\u0647\u0631": 3702, "\u0642\u062f\u0631\u0627\u062a": 3703, "\u0627\u0644\u0645\u0633\u0627\u0639\u062f\u0629": 3704, "\u0627\u0644\u0631\u0624\u064a\u0629": 3705, "er": 3706, "\u0623\u0635\u0644": 3707, "\u0635\u0627\u062f": 3708, "\u0643\u0631\u0627": 3709, "\u0644\u0633\u0646\u0627": 3710, "\u0648\u0623\u0646\u062a": 3711, "\u0627\u0644\u0628\u062d": 3712, "\u0627\u0644\u0627\u062d": 3713, "\u0648\u064a\u0642\u0648\u0644": 3714, "\u0627\u0644\u0631\u062d\u0644\u0629": 3715, "\u0623\u062f\u0648\u0627\u062a": 3716, "\u062a\u0632\u0627\u0644": 3717, "\u0639\u0645\u0631\u0647": 3718, "\u063a\u0627\u0644\u0628\u0627": 3719, "90": 3720, "\u0623\u0633\u0645": 3721, "\u062d\u0631\u0628": 3722, "\u062f\u0627\u0646": 3723, "\u0636\u0645": 3724, "\u0647\u064a\u0627": 3725, "\u0648\u062d\u062f\u0629": 3726, "\u0627\u0644\u0645\u062f\u0631": 3727, "\u0639\u0644\u0648\u0645": 3728, "\u0647\u0627\u0626\u0644": 3729, "\u0648\u0627\u064a": 3730, "\u0627\u0644\u062a\u0642\u062f\u0645": 3731, "\u0645\u0631\u0623\u0629": 3732, "\u0625\u0644\u064a\u0643\u0645": 3733, "\u0639\u0642\u064a\u062f": 3734, "\u0623\u0634\u0643\u0627\u0644": 3735, "\u0625\u0639\u062a": 3736, "\u0627\u0642\u0648\u0644": 3737, "\u062c\u064a\u0631": 3738, "\u0646\u0635\u0646\u0639": 3739, "\u0645\u0646\u062e\u0641\u0636": 3740, "\u0642\u0627\u0634": 3741, "\u0627\u0644\u0628\u0633\u064a": 3742, "\u0633\u064a\u062a": 3743, "\u0645\u0631\u062d": 3744, "\u0627\u0644\u0625\u0642\u062a\u0635\u0627\u062f": 3745, "\u062e\u0637\u064a\u0637": 3746, "\u0627\u0644\u0636\u063a\u0637": 3747, "\u062a\u062f\u062e\u0644": 3748, "\u0648\u0638\u064a\u0641\u0629": 3749, "\u0645\u0633\u0627\u0639\u062f\u0629": 3750, "\u0645\u0634\u0627\u0628\u0647": 3751, "\u0627\u0644\u062b\u0642\u0627\u0641\u0629": 3752, "\u0648\u0627\u0636\u062d\u0629": 3753, "\u0628\u0628\u0646\u0627\u0621": 3754, "\u0645\u062e\u0644": 3755, "\u0646\u0630\u0647\u0628": 3756, "\u0648\u0648\u0636\u0639": 3757, "\u0627\u0644\u0625\u0646\u062c\u0644\u064a\u0632\u064a\u0629": 3758, "\u0627\u0644\u0623\u0644\u0639\u0627\u0628": 3759, "\u0645\u0624\u0633\u0633\u0629": 3760, "\u0634\u0647\u062f": 3761, "\u063a\u064a\u0644": 3762, "\u0645\u0637\u0644": 3763, "\u0646\u0645\u0627\u0630\u062c": 3764, "\u0644\u0627\u0639\u0628": 3765, "\u0627\u0644\u0646\u062c\u0648\u0645": 3766, "\u0627\u0644\u0642\u0648\u0627\u0646\u064a\u0646": 3767, "\u0645\u062a\u0644\u0643": 3768, "\u0627\u0644\u0637\u0628\u064a\u0629": 3769, "\u064a\u0644\u0639\u0628": 3770, "\u0641\u0643\u0631\u0648\u0627": 3771, "\u062a\u0646\u062a\u062c": 3772, "\u0623\u0628\u0639\u062f": 3773, "\u062a\u0633\u0627": 3774, "\u0641\u0642\u0629": 3775, "\u0648\u0627\u0644\u0631": 3776, "\u0648\u0628\u0639\u0636": 3777, "\u0627\u0644\u062c\u064a\u0646": 3778, "\u0642\u0631\u0623": 3779, "\u063a\u0627\u0632": 3780, "\u0628\u0627\u0644\u0645\u0646\u0627\u0633\u0628\u0629": 3781, "\u0627\u0644\u0641\u064a\u0632\u064a\u0627\u0621": 3782, "\u0627\u0644\u0645\u0633\u0627\u0648\u0627\u0629": 3783, "\u0639\u0645\u0644\u064a\u0627\u062a": 3784, "\u0635\u0631\u064a": 3785, "\u0644\u0642\u064a": 3786, "\u0627\u0644\u0645\u0631\u062a": 3787, "\u0627\u062a\u0641": 3788, "\u0631\u0627\u0643": 3789, "\u064a\u062a\u0647\u0645": 3790, "\u0627\u0644\u0637\u0627": 3791, "\u064a\u0641\u0647\u0645": 3792, "\u0645\u062c\u0644\u0629": 3793, "\u0628\u0627\u0644\u062a\u062d": 3794, "\u062d\u0631\u064a\u0629": 3795, "\u0644\u0641\u062a\u0631\u0629": 3796, "\u0627\u0644\u0645\u0641\u0627": 3797, "\u0648\u0642\u0627\u0644\u062a": 3798, "\u0628\u062f\u0644": 3799, "\u0644\u0646\u062f\u0646": 3800, "\u0639\u0645\u0644\u0646\u0627": 3801, "\u0627\u0644\u062d\u0643\u0648\u0645\u0627\u062a": 3802, "\u0633\u0645\u0639\u062a": 3803, "\u064a\u0645\u064a\u0627\u0626\u064a\u0629": 3804, "\u0627\u0644\u062a\u0642\u0644\u064a\u062f\u064a\u0629": 3805, "\u0627\u0644\u062b\u0627\u0646\u0648\u064a\u0629": 3806, "\u062a\u0641\u0647\u0645": 3807, "\u0642\u0631\u064a\u0628\u0627": 3808, "\u064a\u0631\u0649": 3809, "\u0627\u0644\u0646\u062c\u0627\u062d": 3810, "\u0627\u0644\u062c\u0630": 3811, "\u0642\u0635\u064a\u0631\u0629": 3812, "\u0644\u0644\u062d\u064a\u0627\u0629": 3813, "\u0643\u0627\u0644\u064a\u0641\u0648\u0631\u0646\u064a\u0627": 3814, "\u0645\u062c\u0627": 3815, "\u0627\u0644\u0630\u0647": 3816, "\u0645\u0627\u0633": 3817, "\u0627\u0644\u0623\u0637\u0628\u0627\u0621": 3818, "\u0627\u0644\u0623\u0631\u0642\u0627\u0645": 3819, "\u0631\u0627\u0633\u0629": 3820, "\u0643\u062a\u0628\u062a": 3821, "\u0627\u0644\u0645\u0634\u0627\u0631\u064a\u0639": 3822, "\u0633\u0639\u064a\u062f": 3823, "\u0627\u0644\u062e\u0635\u0648\u0635": 3824, "\u062d\u0645\u0627\u064a\u0629": 3825, "\u0641\u062c\u0627\u0631": 3826, "\u0645\u064a\u0627\u0647": 3827, "\u0631\u0627\u062d": 3828, "\u064a\u0639\u062a\u0645\u062f": 3829, "\u0645\u064a\u0627\u062a": 3830, "\u0631\u0627\u0626\u0637": 3831, "\u0627\u0644\u0623\u0633\u0628\u0627\u0628": 3832, "\u0639\u0627\u0644\u0645\u064a": 3833, "\u0627\u0644\u0639\u0644\u0627\u0642\u0627\u062a": 3834, "2000": 3835, "\u0623\u063a\u0644\u0628": 3836, "\u0646\u0645\u0637": 3837, "\u0647\u0628": 3838, "\u0651\u064a": 3839, "\u0648\u062a\u064a\u0646": 3840, "\u0648\u0644\u0643\u0646\u0646\u064a": 3841, "\u0648\u0643\u064a": 3842, "\u0634\u0639\u0627\u0631": 3843, "\u0627\u0644\u062e\u0637\u0623": 3844, "\u0627\u0644\u0631\u0626\u064a\u0633": 3845, "\u0623\u062c\u062f": 3846, "\u0627\u0642\u062a": 3847, "\u062a\u062d\u062f": 3848, "\u0642\u0648\u064a": 3849, "\u0647\u0627\u062f": 3850, "\u0631\u0627\u0628": 3851, "\u062f\u0627\u0641\u0639": 3852, "\u0627\u0644\u0628\u0642\u0627\u0621": 3853, "\u0627\u0644\u062c\u0648": 3854, "\u062d\u0644\u0648\u0644": 3855, "\u0623\u0631\u063a\u0628": 3856, "\u0627\u0644\u0633\u064a\u0627\u0633\u064a\u0629": 3857, "\u0627\u0644\u0623\u0633\u0627\u0633\u064a": 3858, "\u0645\u062c\u062f\u062f\u0627": 3859, "\u062b\u0642\u0627\u0641\u0629": 3860, "\u0623\u0637\u0648\u0644": 3861, "\u062e\u0641\u0627": 3862, "\u0631\u0627\u0646": 3863, "\u0642\u0633\u0645": 3864, "\u0648\u062f\u064a": 3865, "\u064a\u0644\u062a": 3866, "\u0645\u0627\u062f\u0629": 3867, "\u0627\u0644\u0627\u0628\u062a\u0643\u0627\u0631": 3868, "\u0627\u0644\u062f\u062e\u0648\u0644": 3869, "\u0627\u0644\u0644\u0642\u0627": 3870, "\u062a\u0628": 3871, "\u062b\u0644\u0629": 3872, "\u062d\u0627\u0644\u0627\u062a": 3873, "\u0635\u0646\u062f\u0648\u0642": 3874, "\u0645\u0648\u0633": 3875, "\u0627\u0644\u0645\u0631\u064a\u062e": 3876, "\u0627\u0644\u0645\u0631\u064a\u0636": 3877, "\u0639\u0644\u0627\u0645\u0629": 3878, "\u0648\u0642\u0631\u0627\u0637\u064a\u0629": 3879, "\u0645\u062a\u0639\u062f\u062f\u0629": 3880, "\u0623\u062a\u0645\u0646\u0649": 3881, "\u0627\u0644\u063a\u0627\u0644\u0628": 3882, "\u062a\u0631\u0648\u0646\u0647": 3883, "\u0627\u0644\u0633\u0631\u0639\u0629": 3884, "\u0627\u0644\u0641\u062a\u0631\u0629": 3885, "\u0648\u062c\u064a\u0647": 3886, "\u0627\u0644\u0637\u064a\u0631\u0627\u0646": 3887, "\u0627\u0644\u062e\u0645\u0633": 3888, "\u0627\u0644\u062f\u062e\u0644": 3889, "\u0641\u0648\u0631\u062f": 3890, "24": 3891, "\u062a\u0627\u0645": 3892, "\u0632\u064a\u062f": 3893, "\u0639\u0637": 3894, "\u0641\u0641\u064a": 3895, "\u0627\u0644\u0625\u0644": 3896, "\u0627\u0644\u0645\u0628\u0627\u0646\u064a": 3897, "\u0623\u0646\u0638\u0645\u0629": 3898, "\u064a\u0645\u0631": 3899, "\u0628\u0627\u0647": 3900, "\u0648\u064a\u0633": 3901, "\u0633\u0646\u064a\u0646": 3902, "\u0623\u062e\u064a\u0631": 3903, "\u0623\u0633\u0628\u0627\u0628": 3904, "\u0627\u0644\u0623\u062d\u0645\u0631": 3905, "\u0646\u0633\u0627": 3906, "\u064a\u062e\u0631\u062c": 3907, "\u0641\u064a\u0646\u0629": 3908, "\u0645\u0646\u0643": 3909, "\u064a\u062a\u0627\u0646": 3910, "\u0648\u062c\u064a\u0646": 3911, "\u0648\u062a\u0645": 3912, "\u062e\u0635\u0627\u0626": 3913, "\u0645\u0633\u0624\u0648\u0644": 3914, "\u0648\u064a\u062a\u0631": 3915, "\u0627\u0644\u0645\u062e\u062f\u0631\u0627\u062a": 3916, "\u062c\u0633\u062f": 3917, "\u0627\u0644\u0643\u0628\u0631\u0649": 3918, "\u0623\u0642\u062f\u0645": 3919, "\u0627\u064a\u0646": 3920, "\u0646\u0631\u0627\u0647": 3921, "\u0645\u0627\u0647\u0648": 3922, "\u0644\u0627\u0645\u064a": 3923, "\u0625\u0646\u0646\u0627": 3924, "\u0627\u0644\u0628\u0646\u064a\u0629": 3925, "\u0627\u0644\u0627\u0637\u0644\u0627\u0642": 3926, "\u0646\u062a\u0639\u0644\u0645": 3927, "\u062e\u062f\u0645\u0629": 3928, "\u0646\u0638\u064a\u0645": 3929, "\u0645\u0636\u0649": 3930, "\u0627\u0644\u0627\u0648\u0644\u0649": 3931, "\u0631\u0648\u0629": 3932, "\u0637\u0628\u0639": 3933, "\u0644\u0628\u0639\u0636": 3934, "\u0648\u064a\u0645\u0643\u0646\u0646\u0627": 3935, "\u0627\u0644\u0645\u0642\u0627": 3936, "\u0627\u0644\u0645\u062c\u0645\u0648\u0639": 3937, "\u0627\u0644\u0634\u0631\u0643\u0629": 3938, "\u0623\u0639\u0648\u0627\u0645": 3939, "\u0623\u0635\u0648\u0627\u062a": 3940, "\u0645\u0624\u062a\u0645\u0631": 3941, "\u0645\u0648\u0627\u062f": 3942, "\u0637\u0631\u0627\u0641": 3943, "\u0627\u0630\u0646": 3944, "\u0628\u0643\u0645": 3945, "\u0631\u0648\u062d": 3946, "\u0639\u0642\u062f": 3947, "\u0644\u0634\u062e\u0635": 3948, "\u0644\u064a\u064a\u0646": 3949, "\u0627\u0644\u0641\u0648\u0631": 3950, "\u062a\u0645\u064a": 3951, "\u062a\u0627\u0629": 3952, "\u0627\u0644\u0645\u0644\u0627\u064a\u064a\u0646": 3953, "\u0627\u0644\u0627\u0631\u0636": 3954, "\u0645\u0648\u0633\u064a\u0642\u0649": 3955, "\u0645\u062c\u0645\u0648\u0639\u0627\u062a": 3956, "\u0627\u0644\u0623\u0631\u062c\u062d": 3957, "\u0623\u0628\u064a": 3958, "\u0648\u062f\u0627": 3959, "\u0645\u0639\u0643\u0645": 3960, "\u0627\u0644\u0646\u062d\u0644": 3961, "\u0627\u0644\u0625\u062d\u062a": 3962, "\u0648\u0641\u0631\u0629": 3963, "\u062e\u0631\u064a\u0637\u0629": 3964, "\u063a\u0631\u064a\u0628\u0629": 3965, "\u0645\u064a\u0631": 3966, "\u0627\u0644\u0645\u0648\u062c\u0648\u062f": 3967, "\u0627\u0644\u0628\u0627\u0628": 3968, "\u0627\u0644\u062e\u0644\u064a\u0629": 3969, "\u0623\u0633\u0626\u0644\u0629": 3970, "\u0641\u0625\u0646\u0646\u0627": 3971, "\u0627\u0644\u0646\u0627\u0631": 3972, "\u0642\u0627\u0637\u0639": 3973, "\u0627\u0644\u0635\u0646\u0627\u0639\u064a\u0629": 3974, "\u0628\u0627\u0644\u0633": 3975, "\u0632\u062f": 3976, "\u0642\u0636\u064a\u0629": 3977, "\u0645\u0633\u0627\u0639\u062f": 3978, "\u0648\u0639\u0646": 3979, "\u064a\u0623\u062a": 3980, "\u0627\u0644\u0623\u0645\u0648\u0627\u0644": 3981, "\u064a\u0645\u062a\u0644\u0643": 3982, "\u062a\u0639\u062a\u0645\u062f": 3983, "\u0627\u0644\u0639\u0644\u0627\u0642\u0629": 3984, "\u0637\u0628\u064a\u0639\u064a": 3985, "\u0644\u0644\u0625\u0647\u062a\u0645\u0627\u0645": 3986, "\u0627\u0644\u0645\u0646\u0627\u0633\u0628\u0629": 3987, "\u0627\u0644\u0645\u0634\u0627\u0631\u0643\u0629": 3988, "\u0631\u0627\u0647\u0627": 3989, "\u062a\u062c\u0631\u064a": 3990, "\u0633\u0631\u0639": 3991, "\u062d\u0635\u0627\u0626": 3992, "\u0627\u0644\u062a\u0639\u0627\u0637\u0641": 3993, "\u0628\u0642\u062f\u0631": 3994, "\u0648\u0651": 3995, "\u0627\u0644\u0639\u0627\u062f": 3996, "\u0625\u0646\u0642\u0627\u0630": 3997, "\u0633\u0644\u062d\u0629": 3998, "\u062a\u062f\u0641\u0639": 3999, "\u0627\u0644\u062c\u0645\u0627\u0644": 4000, "\u0627\u0644\u0623\u0646\u0638\u0645\u0629": 4001, "\u0627\u0633\u062a\u062e\u062f\u0627\u0645\u0647\u0627": 4002, "\u0645\u0630\u0647\u0644\u0629": 4003, "\u0626\u0627\u0628": 4004, "\u0641\u0631\u0642": 4005, "\u0645\u0641\u064a": 4006, "\u0627\u0644\u0645\u0627\u0644\u064a\u0629": 4007, "\u0642\u0627\u0639": 4008, "\u0642\u0627\u0641": 4009, "\u0627\u0644\u0628\u0627\u0644\u063a": 4010, "\u0633\u0627\u0621\u0644": 4011, "\u0627\u0633\u0645\u0647": 4012, "\u0626\u0647": 4013, "\u0634\u0645\u0627\u0644": 4014, "\u0641\u0644\u0645": 4015, "\u0645\u062d\u0638\u0648\u0638": 4016, "\u0646\u064a\u0639": 4017, "\u0639\u0644\u0627\u0642\u0627\u062a": 4018, "\u0633\u064a\u0645\u0627\u062a": 4019, "\u0627\u0644\u0635\u0628\u0627\u062d": 4020, "\u062a\u0645\u062b": 4021, "\u062a\u062d\u0648\u064a\u0644": 4022, "\u0628\u0637\u0631\u0642": 4023, "\u0628\u062f\u0627\u062e\u0644": 4024, "\u0627\u0644\u0627\u062a\u0635\u0627\u0644": 4025, "\u0627\u0644\u0639\u0644\u0645\u064a\u0629": 4026, "\u062c\u0627\u0626\u0632\u0629": 4027, "\u0623\u0644\u0629": 4028, "\u062a\u0644\u062a": 4029, "\u0633\u0639\u0629": 4030, "\u0641\u064a\u0627\u064b": 4031, "\u0633\u064a\u0643": 4032, "\u0648\u0643\u0646\u0627": 4033, "\u0644\u0627\u0641\u0627\u062a": 4034, "\u0627\u0644\u0633\u064a\u0637\u0631\u0629": 4035, "\u0646\u0634\u0639\u0631": 4036, "\u0627\u0644\u0628\u0631\u0627\u0632\u064a\u0644": 4037, "\u0628\u0627\u0631\u0629": 4038, "\u062a\u0648\u0641\u064a\u0631": 4039, "\u0641\u0645\u0646": 4040, "\u0644\u0627\u062d\u0642\u0627\u064b": 4041, "\u064a\u062a\u0637\u0644\u0628": 4042, "\u062a\u0631\u0641": 4043, "\u0639\u0627\u0648\u0646": 4044, "\u0623\u0644\u0639\u0627\u0628": 4045, "\u0634\u064a\u0626\u064b\u0627": 4046, "\u0644\u0623\u062c\u0644": 4047, "\u062d\u0642\u0642": 4048, "\u0634\u063a\u064a\u0644": 4049, "\u0642\u0645\u0629": 4050, "\u0641\u064a\u0641": 4051, "\u0630\u0627\u0621": 4052, "\u0648\u0627\u0635": 4053, "\u0648\u0644\u064a\u0646": 4054, "\u0627\u0644\u0646\u0647\u0627": 4055, "\u0627\u0644\u0643\u0631": 4056, "\u0643\u0645\u0628\u064a\u0648\u062a\u0631": 4057, "\u0627\u0644\u0634\u0647\u0631": 4058, "\u062a\u0631\u0628": 4059, "\u0628\u0637\u0628\u064a\u0639": 4060, "\u0627\u0644\u0639\u0644\u064a\u0627": 4061, "\u0627\u0644\u062c\u0627\u0645\u0639\u0629": 4062, "\u0627\u062e\u0630": 4063, "\u0631\u0648\u0631\u0629": 4064, "\u0638\u0647\u0648\u0631": 4065, "\u0642\u0633": 4066, "\u0627\u0644\u062c\u0631\u064a": 4067, "\u0639\u0627\u0637": 4068, "\u0639\u0627\u0626\u0644\u0629": 4069, "\u062d\u0627\u0644\u064a\u0627\u064b": 4070, "\u0637\u0628\u064a\u0628": 4071, "\u0627\u0644\u0645\u0624\u0633\u0633\u0627\u062a": 4072, "\u0644\u0648\u062c\u064a\u0627": 4073, "\u064a\u0633\u0627": 4074, "\u0627\u0644\u062a\u062d\u0648\u0644": 4075, "\u0627\u0644\u0623\u064a": 4076, "\u0631\u064a\u0648": 4077, "\u0647\u0645\u0629": 4078, "\u0627\u0644\u0639\u062f\u062f": 4079, "\u0636\u0627\u0626\u064a\u0629": 4080, "\u0644\u0648\u062b": 4081, "\u062a\u0646\u0645\u0648": 4082, "\u0627\u0644\u0623\u0633\u0645\u0627\u0643": 4083, "\u062a\u062d\u062f\u062b\u062a": 4084, "\u0627\u0644\u0634\u0645\u0627\u0644\u064a\u0629": 4085, "\u0627\u0633\u0627": 4086, "\u0634\u0649": 4087, "\u0641\u0639\u0629": 4088, "\u064a\u0628\u0644\u063a": 4089, "\u0627\u0644\u0645\u0641\u0636": 4090, "\u0627\u0644\u0645\u0646\u0627\u0633\u0628": 4091, "\u0630\u0647\u0628\u0646\u0627": 4092, "\u0627\u0644\u0642\u0645\u0631": 4093, "\u0648\u064a\u0642": 4094, "\u062a\u062a\u062e\u064a\u0644": 4095, "\u0623\u0645\u0643\u0646": 4096, "\u0627\u0644\u0634\u064a\u0626": 4097, "\u0639\u0635\u0627\u0628": 4098, "\u0628\u063a": 4099, "\u062b\u0648\u0631\u0629": 4100, "\u0634\u062a\u0627": 4101, "\u0644\u064a\u0628": 4102, "\u0645\u0639\u0631\u0641": 4103, "\u0627\u0644\u0639\u0627\u062f\u064a": 4104, "\u0645\u0644\u064a\u0627\u0631\u0627\u062a": 4105, "\u0643\u062a\u0648\u0631": 4106, "\u062c\u0645\u064a\u0639\u0647\u0627": 4107, "\u0646\u0638\u0631\u062a\u0645": 4108, "\u0635\u0646\u0639\u062a": 4109, "\u0635\u0627\u0644\u0627\u062a": 4110, "\u0635\u0628\u0627\u062d": 4111, "\u0642\u0645": 4112, "\u0642\u0631\u0627\u0621\u0629": 4113, "\u0644\u0645\u0646": 4114, "\u0648\u0645\u0627\u0630\u0627": 4115, "\u0627\u0644\u0623\u0642": 4116, "\u0643\u0644\u064a\u0629": 4117, "\u0644\u0644\u062c\u0645\u064a\u0639": 4118, "\u0627\u0644\u062d\u0633\u0627": 4119, "\u0627\u0644\u062d\u0634\u0631\u0627\u062a": 4120, "\u0627\u0644\u0642\u0644\u064a\u0644\u0629": 4121, "\u062d\u064a\u0648\u0627\u0646": 4122, "\u0627\u0644\u0641\u062a\u0627\u0629": 4123, "\u0627\u0644\u062f\u0648\u0644\u0627": 4124, "\u0627\u0644\u062b\u0627": 4125, "\u0645\u064a\u0644\u0629": 4126, "\u0628\u0627\u0631\u0627\u062a": 4127, "\u0636\u0639\u0641": 4128, "\u064a\u0624\u062f\u064a": 4129, "\u0627\u0644\u062f\u0631\u0627\u0633\u0627\u062a": 4130, "\u0645\u062d\u062f\u062f\u0629": 4131, "\u062d\u0631\u0627\u0631\u0629": 4132, "\u0642\u0648\u0646": 4133, "\u0648\u0627\u0644\u0634": 4134, "\u0627\u0644\u0645\u062e\u062a\u0628\u0631": 4135, "\u064a\u0646\u062a\u062c": 4136, "\u0648\u062c\u0644": 4137, "\u0627\u0644\u0642\u0637\u0627": 4138, "\u0628\u062d\u0642": 4139, "\u0628\u062f\u0623\u0648\u0627": 4140, "\u062c\u0627\u0621\u062a": 4141, "\u0635\u0639\u0648\u0628\u0629": 4142, "\u0625\u0630\u064b\u0627": 4143, "\u0627\u0644\u0639\u0645\u0644\u064a\u0627\u062a": 4144, "\u0622\u0645\u0644": 4145, "\u062a\u0648\u0646": 4146, "\u0638\u0627\u0647\u0631\u0629": 4147, "\u0651\u0647\u0627": 4148, "\u0648\u0627\u0639\u062a\u0642\u062f": 4149, "\u0627\u0644\u062a\u0639\u0644\u0645": 4150, "\u0627\u0644\u0641\u0635\u0644": 4151, "\u062c\u0627\u0628\u064a\u0629": 4152, "\u062c\u0644\u0627\u062a": 4153, "\u062a\u0634\u063a\u064a\u0644": 4154, "\u0627\u0644\u062a\u0642\u0646\u064a\u0627\u062a": 4155, "\u0627\u0644\u0623\u062f\u0648\u064a\u0629": 4156, "\u0627\u0644\u062a\u0639\u0627\u0648\u0646": 4157, "\u0627\u0644\u062a\u0644\u0641\u0627\u0632": 4158, "\u0623\u0630\u0647\u0628": 4159, "\u0628\u0627\u0644\u0639\u0645\u0644": 4160, "\u0641\u0630": 4161, "\u0627\u0644\u0644\u0648": 4162, "\u0648\u0644\u062f\u064a\u0646\u0627": 4163, "\u062d\u062a\u064a": 4164, "\u0639\u0627\u062f\u064a": 4165, "\u062a\u0639\u0631\u064a\u0641": 4166, "\u0623\u0633\u0641": 4167, "\u0645\u0633\u0623\u0644\u0629": 4168, "\u0646\u0633\u062e\u0629": 4169, "\u062a\u062e\u064a\u0644\u0648\u0627": 4170, "\u0623\u0624\u0645\u0646": 4171, "\u062d\u0627\u0645": 4172, "\u0633\u0648\u0631": 4173, "\u0641\u062d\u0635": 4174, "\u0627\u0644\u062f\u064a\u0646\u0627": 4175, "\u064a\u0627\u062c\u0627\u062a": 4176, "\u0627\u0644\u0646\u0642\u0627\u0637": 4177, "\u064a\u062a\u063a\u064a\u0631": 4178, "\u062c\u0627\u0648\u0632": 4179, "\u0639\u0627\u0644\u0645\u064a\u0629": 4180, "\u062c\u0646\u0628": 4181, "\u0645\u062c\u062f\u062f\u0627\u064b": 4182, "\u0635\u0627\u0635": 4183, "\u0637\u0642\u064a": 4184, "\u0627\u0644\u0646\u0645\u0627\u0630\u062c": 4185, "\u0633\u064a\u0644": 4186, "\u0648\u0644\u0643\u0646\u0647\u0645": 4187, "\u0627\u0644\u0644\u063a": 4188, "\u0623\u0645\u0631\u0627": 4189, "\u0635\u0641\u062d\u0629": 4190, "\u0628\u0639\u064a\u062f\u0629": 4191, "\u0627\u0644\u0645\u0634\u0647\u062f": 4192, "\u0637\u0628\u064a\u0642": 4193, "\u064a\u0645\u0644\u0643\u0648\u0646": 4194, "\u0627\u0644\u0641\u062a\u064a\u0627\u062a": 4195, "\u0627\u0644\u062d\u0645\u0631\u0627\u0621": 4196, "\u0627\u0644\u0645\u0641\u0636\u0644\u0629": 4197, "\u0645\u0628\u0646\u0649": 4198, "\u0627\u0644\u0623\u0645\u0646": 4199, "\u0645\u0639\u0643": 4200, "\u0627\u0644\u0643\u0644\u0627\u0645": 4201, "\u0627\u0644\u062c\u0644\u064a\u062f": 4202, "\u0628\u064a\u0648\u062a": 4203, "\u0627\u0644\u0625\u0639\u062a": 4204, "\u0628\u0627\u0644\u0646\u0638\u0631": 4205, "\u0642\u0627\u0626\u062f": 4206, "\u062a\u0633\u064a\u0631": 4207, "\u0645\u0630\u0647\u0644": 4208, "\u0627\u0644\u062d\u0636\u0648\u0631": 4209, "\u062a\u0643\u0644\u0641\u0629": 4210, "\u0631\u064a\u0631": 4211, "\u0646\u0633\u0628": 4212, "\u0647\u064a\u0645": 4213, "\u064a\u0642\u062f\u0645": 4214, "\u0627\u0644\u0633\u062a": 4215, "\u0648\u0627\u062f": 4216, "\u0631\u0641\u0636": 4217, "\u0628\u0623\u0646\u0646\u064a": 4218, "\u0627\u0644\u0645\u0631\u0648\u0631": 4219, "\u0647\u0646\u062f\u0633\u0629": 4220, "\u0627\u062e\u062a\u0631": 4221, "\u062a\u0633\u0645": 4222, "\u062e\u0645\u0629": 4223, "\u0633\u0648\u0621": 4224, "\u064a\u0628\u062d\u062b": 4225, "\u0644\u0627\u0633": 4226, "\u0627\u0644\u062a\u0643\u0646\u0648\u0644\u0648\u062c": 4227, "\u0627\u0644\u0639\u0642\u062f": 4228, "\u062f\u0627\u062e\u0644\u064a": 4229, "\u0642\u0627\u0639\u0629": 4230, "\u0627\u0644\u062c\u0648\u0627\u0628": 4231, "\u0627\u0644\u0642\u0631\u0627": 4232, "\u062a\u062d\u0648\u064a": 4233, "\u0646\u062a\u064a\u0646": 4234, "\u062e\u0637\u0648\u0637": 4235, "\u063a\u064a\u0651\u0631": 4236, "\u0623\u062f\u0631\u0643": 4237, "\u0627\u0644\u0645\u0641\u062a\u0631\u0636": 4238, "\u0651\u0649": 4239, "\u0648\u062c\u0645": 4240, "\u0645\u062a\u0623\u0643": 4241, "\u0642\u0637\u0627\u0639": 4242, "\u0628\u062a\u0647\u0627": 4243, "\u062f\u0631\u062c\u0627\u062a": 4244, "\u0627\u0644\u0625\u0646\u062a\u0627\u062c": 4245, "\u0623\u0646\u0651\u0647": 4246, "\u0627\u0644\u0642\u0637\u0639": 4247, "\u0623\u0639\u0637\u064a\u0643\u0645": 4248, "\u0632\u0644\u062a": 4249, "\u0645\u0645\u0646": 4250, "\u0646\u062e": 4251, "\u0639\u0645\u0644\u0647\u0627": 4252, "\u062e\u0627\u0630": 4253, "\u0643\u0648\u0646\u0627\u062a": 4254, "\u0628\u0627\u0644\u0625\u0636\u0627\u0641\u0629": 4255, "\u0632\u0627\u0645": 4256, "\u0632\u0645\u0644\u0627": 4257, "\u0644\u0641\u0639\u0644": 4258, "\u0645\u062e\u062a": 4259, "\u0648\u0644\u0627\u062a": 4260, "\u0627\u0644\u0643\u0631\u0629": 4261, "\u0648\u0636\u0629": 4262, "\u062c\u0644\u0628": 4263, "\u0623\u062e\u0630\u0646\u0627": 4264, "\u0633\u0645\u062d\u0648\u0627": 4265, "\u0627\u0644\u0642\u0637\u0628": 4266, "\u0637\u0628\u064a\u0639\u064a\u0629": 4267, "\u0623\u0641\u063a\u0627\u0646\u0633\u062a\u0627\u0646": 4268, "\u0627\u0644\u062d\u0627\u0636\u0631": 4269, "\u0642\u0636\u064a\u062a": 4270, "\u0623\u0628": 4271, "\u0623\u0645\u0646": 4272, "\u0623\u0637\u0644\u0642": 4273, "\u0625\u0631": 4274, "\u0636\u0631\u0629": 4275, "\u0639\u062f\u0627": 4276, "\u0644\u0648\u0628": 4277, "\u0648\u0627\u0633\u0639": 4278, "\u0628\u0639\u0627\u062b": 4279, "\u0627\u0644\u0628\u0644\u0627\u0633\u062a": 4280, "\u0648\u0627\u0631\u0632": 4281, "\u0627\u0644\u0647\u0646\u062f\u0633\u0629": 4282, "\u0627\u0644\u0648\u0631\u0642": 4283, "\u064a\u062d\u062a\u0648\u064a": 4284, "\u062a\u0641\u0627\u0639\u0644": 4285, "\u062f\u0639\u0627": 4286, "\u0635\u064a": 4287, "\u0637\u0628": 4288, "\u063a\u0628\u0629": 4289, "\u0641\u0644\u0629": 4290, "\u0644\u0628\u0646\u0627\u0621": 4291, "\u0648\u0627\u0644\u0633\u0628\u0628": 4292, "\u0645\u0627\u0631\u0643": 4293, "\u0648\u0631\u0627\u062a": 4294, "\u0645\u0631\u0628\u0639": 4295, "\u0627\u0644\u0634\u0639\u0631": 4296, "\u0627\u0644\u062e\u0645": 4297, "\u0643\u0627\u0629": 4298, "\u0627\u0644\u0633\u0627\u0628\u0642\u0629": 4299, "\u0642\u0631\u0631\u0646\u0627": 4300, "\u0623\u0644\u062a": 4301, "\u062e\u0644\u0627": 4302, "\u0633\u0624": 4303, "\u0634\u062c\u0631\u0629": 4304, "\u0645\u0646\u0637\u0642": 4305, "\u0627\u0644\u062a\u0644\u0641": 4306, "\u0627\u0644\u0627\u062e\u0631\u0649": 4307, "\u0627\u0644\u0642\u0636\u0627\u064a\u0627": 4308, "\u0643\u0648\u0646\u064a": 4309, "\u0645\u062a\u0637": 4310, "\u0639\u0645\u064a": 4311, "\u064a\u0633\u062a\u062d\u0642": 4312, "\u0627\u0644\u062e\u0637\u0648\u0629": 4313, "\u0627\u0644\u0646\u0638\u0631\u064a\u0629": 4314, "\u062f\u0631\u0633\u0648\u0646": 4315, "\u0623\u0635\u062f\u0642\u0627\u0626\u064a": 4316, "\u0622\u0644": 4317, "\u0639\u0642\u0648\u0644": 4318, "\u0645\u0627\u0646\u064a": 4319, "\u0627\u0644\u0645\u0645\u0644\u0643\u0629": 4320, "\u0627\u0644\u0623\u0648\u0631": 4321, "\u0644\u064a\u0641": 4322, "\u0643\u0627\u0646\u0627": 4323, "\u0631\u062a\u064a": 4324, "\u0635\u0631\u064a\u0629": 4325, "\u062e\u0648\u0631": 4326, "\u0631\u0639\u0627\u064a\u0629": 4327, "\u0642\u0648\u0627\u0646\u064a\u0646": 4328, "\u0627\u0644\u0645\u062c\u0627": 4329, "\u0627\u0644\u0623\u062c\u0647\u0632\u0629": 4330, "\u0644\u0644\u0630": 4331, "\u0633\u064a\u0621": 4332, "\u0639\u0644\u064a\u0651": 4333, "\u0643\u0627\u0641\u064a\u0629": 4334, "\u062a\u062a\u063a\u064a\u0631": 4335, "\u064a\u062d\u0628\u0648\u0646": 4336, "\u0630\u0627\u062a\u0647\u0627": 4337, "\u063a\u0644\u0642": 4338, "\u0627\u0644\u0639\u0644\u0645\u064a": 4339, "\u0631\u0623\u064a\u0646\u0627": 4340, "\u0628\u0642\u0627\u0621": 4341, "\u0628\u0644\u064a\u0648\u0646": 4342, "\u062c\u062a\u0645\u0639": 4343, "\u0635\u0627": 4344, "\u0644\u0641\u0647\u0645": 4345, "\u0645\u062f\u0629": 4346, "\u0646\u0648\u0627\u062c\u0647": 4347, "\u0647\u062f\u0627\u0641": 4348, "\u0645\u0627\u0647\u064a": 4349, "\u0627\u0644\u062a\u0639\u0642\u064a\u062f": 4350, "\u0627\u0644\u0642\u0631\u0627\u0631": 4351, "\u0627\u0644\u0634\u0648\u0627\u0631\u0639": 4352, "\u062c\u0645\u0627\u0644\u064a": 4353, "\u0648\u0644\u0627\u064b": 4354, "\u0641\u062a\u0631\u0627\u0636": 4355, "\u0627\u0644\u0628\u064a\u0626\u064a\u0629": 4356, "\u0627\u062d\u062b": 4357, "\u0635\u062d\u064a\u062d\u0629": 4358, "\u0631\u0627\u062c\u0639": 4359, "\u0627\u0644\u0641\u0642\u0631\u0627\u0621": 4360, "\u0625\u0645\u0643\u0627\u0646\u064a\u0629": 4361, "or": 4362, "\u0628\u0631\u064a\u062f": 4363, "\u0637\u0644\u0627\u0628": 4364, "\u0646\u0648\u0627": 4365, "\u0648\u0643\u0645": 4366, "\u0627\u0644\u0648\u0639\u064a": 4367, "\u0646\u0627\u062c": 4368, "\u0644\u0627\u0626": 4369, "\u0645\u0639\u062f": 4370, "\u062a\u0646\u0638\u064a\u0645": 4371, "\u0628\u0645\u0639\u0646\u0649": 4372, "\u0628\u0633\u0647\u0648\u0644\u0629": 4373, "\u063a\u0627\u0644\u0628\u0627\u064b": 4374, "\u063a\u0636\u0648\u0646": 4375, "\u0627\u0644\u062f\u064a\u0645\u0642\u0631\u0627\u0637\u064a\u0629": 4376, "\u0636\u064a\u0639": 4377, "\u0627\u0644\u0623\u0645\u0644": 4378, "\u0644\u0644\u0648\u0635\u0648\u0644": 4379, "\u0628\u062f\u0648\u0631": 4380, "\u0648\u064a\u062c\u0628": 4381, "\u0627\u0644\u062e\u064a\u0631": 4382, "\u0646\u0638\u0631\u064a": 4383, "\u0627\u0644\u0632\u0631\u0627\u0639\u0629": 4384, "\u0627\u0644\u0645\u0646\u0627\u0639\u0629": 4385, "\u0644\u0644\u0623\u0637\u0641\u0627\u0644": 4386, "\u0628\u0627\u0644\u0636\u0631\u0648\u0631\u0629": 4387, "\u0627\u0644\u062e\u0627\u0631\u062c\u064a": 4388, "\u0627\u0644\u0628\u062f\u0621": 4389, "\u0623\u064a\u0627": 4390, "\u0633\u0627\u0631\u0629": 4391, "\u0641\u0631\u0636": 4392, "\u0648\u0627\u0644\u0630\u064a\u0646": 4393, "\u0628\u062d\u062c\u0645": 4394, "\u0633\u062a\u0637\u0627\u0639\u062a": 4395, "\u0627\u0633\u062a\u0639\u0645\u0627\u0644": 4396, "\u0627\u0644\u0636\u0648": 4397, "\u0627\u0644\u0645\u0635\u0627": 4398, "\u0627\u0644\u0642\u0627\u0639\u062f\u0629": 4399, "\u0627\u0644\u0646\u0627\u062a\u062c": 4400, "\u0623\u0628\u062f\u0623": 4401, "\u0625\u0645\u0627": 4402, "\u0633\u0644\u064a": 4403, "\u0644\u0635\u0646\u0639": 4404, "\u0648\u062e\u0644\u0627\u0644": 4405, "\u0627\u0646\u062a\u0642": 4406, "\u0627\u0644\u062a\u062d\u062a": 4407, "\u064a\u0645\u0632": 4408, "\u0627\u0644\u0622\u0644\u0627\u062a": 4409, "\u0623\u064a\u062f\u064a": 4410, "\u0634\u0631\u0642": 4411, "\u0634\u0627\u0634\u0629": 4412, "\u0648\u0627\u0642\u0641": 4413, "\u062c\u0639\u0644\u0646\u064a": 4414, "\u0627\u0644\u0623\u0633\u0648\u062f": 4415, "\u0627\u0644\u0645\u0633\u0624\u0648\u0644": 4416, "\u0628\u0631\u0627\u0645\u062c": 4417, "\u064a\u0633\u062a\u062e\u062f\u0645\u0648\u0646": 4418, "\u0627\u0644\u0646\u0648\u0648\u064a\u0629": 4419, "\u0627\u0644\u0631\u0633\u0627\u0644\u0629": 4420, "\u064a\u062d\u0627\u0648\u0644\u0648\u0646": 4421, "\u0627\u0644\u0645\u0646\u062a\u062c\u0627\u062a": 4422, "\u0627\u0634\u064a\u0627\u0621": 4423, "\u062e\u0631\u0627\u062c": 4424, "\u0634\u062f\u064a\u062f\u0629": 4425, "\u0636\u0644": 4426, "\u0627\u0644\u0645\u0647": 4427, "\u0639\u0644\u0627\u0646": 4428, "\u0644\u0627\u062d\u0642\u0627": 4429, "\u0627\u0644\u0623\u0648": 4430, "\u0645\u0639\u0629": 4431, "\u0627\u0644\u0637\u0631\u0641": 4432, "\u0643\u0631\u0631": 4433, "\u0645\u062b\u0644\u0627\u064b": 4434, "\u0646\u062a\u0627\u062c": 4435, "\u0639\u0627\u0644\u0645\u0646\u0627": 4436, "198": 4437, "\u0635\u062f\u0642\u0627\u0621": 4438, "\u0627\u0644\u0637\u0627\u0626\u0631\u0627\u062a": 4439, "\u062d\u0627\u0633\u0648\u0628": 4440, "\u062f\u064a\u0631": 4441, "\u0630\u0648\u064a": 4442, "\u0642\u0631\u0628": 4443, "\u0645\u0645\u064a\u0632": 4444, "\u064a\u063a\u064a\u0631": 4445, "\u0631\u0627\u062b": 4446, "\u0627\u0644\u0628\u0643\u062a\u064a\u0631\u064a\u0627": 4447, "\u0645\u062a\u0623\u0643\u062f": 4448, "\u0639\u062f\u0627\u0645": 4449, "\u0623\u0639\u0638\u0645": 4450, "\u062a\u062f\u0631\u064a\u0628": 4451, "\u0627\u0644\u0631\u0627\u0628\u0639\u0629": 4452, "\u0627\u0644\u0631\u0642\u0645\u064a\u0629": 4453, "\u0627\u0644\u0623\u0641\u0644\u0627\u0645": 4454, "\u0634\u062a\u0627\u064a\u0646": 4455, "\u062f\u0648\u0631\u0629": 4456, "\u0646\u0633\u0627\u0621": 4457, "\u0627\u0644\u0642\u062f\u064a\u0645": 4458, "\u062d\u0648\u0644\u0647\u0627": 4459, "\u062e\u0644\u0627\u0644\u0647\u0627": 4460, "\u062a\u062e\u0627\u0628\u0627\u062a": 4461, "\u0631\u0624\u064a\u062a\u0647\u0627": 4462, "\u0644\u0627\u0642\u064a\u0629": 4463, "\u062a\u0633\u062a\u0637\u064a\u0639\u0648\u0646": 4464, "\u0627\u0644\u062a\u062d\u062f\u064a\u0627\u062a": 4465, "\u0628\u0627\u0644\u062a\u062d\u062f\u064a\u062f": 4466, "\u0623\u0637": 4467, "\u062b\u0628\u062a": 4468, "\u0634\u0639\u0627": 4469, "\u0642\u0631\u064a\u0628": 4470, "\u0627\u0644\u0645\u0630\u0647": 4471, "\u0627\u0644\u0645\u0634\u0643\u0644": 4472, "\u0627\u0644\u0623\u0645\u062b\u0644\u0629": 4473, "\u0645\u0639\u0647\u062f": 4474, "\u0627\u0644\u0628\u0637\u0627": 4475, "\u0628\u0627\u0639\u0629": 4476, "\u0627\u0644\u0637\u0628\u0642\u0629": 4477, "\u0648\u0628\u0634\u0643\u0644": 4478, "\u0636\u0627\u0641\u064a\u0629": 4479, "\u0648\u0643\u0633": 4480, "\u0645\u0633\u0627\u0631": 4481, "\u0645\u0633\u062a\u0648\u064a\u0627\u062a": 4482, "\u0642\u0648\u0644\u0647": 4483, "\u0627\u0644\u0642\u0627\u0639\u0629": 4484, "\u0646\u0628\u0624": 4485, "\u0627\u0644\u0645\u0646\u0638\u0645\u0627\u062a": 4486, "\u062c\u0648\u0631\u062c": 4487, "\u0627\u0644\u062d\u0627\u062c\u0629": 4488, "ot": 4489, "\u0625\u062c\u062a\u0645\u0627": 4490, "\u0627\u0642\u0648\u0645": 4491, "\u062e\u0637\u0629": 4492, "\u0632\u0627\u062f": 4493, "\u0645\u0634\u0643\u0644": 4494, "\u0645\u0636\u064a": 4495, "\u064a\u0634\u0643\u0644": 4496, "\u0627\u0644\u0638\u0631\u0648\u0641": 4497, "\u0639\u0646\u0641": 4498, "\u0627\u0631\u0636": 4499, "\u0625\u0646\u062c\u0627\u0632": 4500, "\u0628\u0627\u062e\u062a": 4501, "\u062a\u0642\u0639": 4502, "\u0627\u0644\u062b\u0631\u0648\u0629": 4503, "\u0623\u062e\u0628\u0627\u0631": 4504, "\u0637\u0644\u0639": 4505, "\u0645\u0633\u062a\u0639\u062f": 4506, "\u0642\u0648\u0644\u0629": 4507, "\u0636\u0627\u0621\u0629": 4508, "\u062e\u0631\u062c\u062a": 4509, "\u0648\u062c\u0645\u064a\u0639": 4510, "\u0622\u0647": 4511, "\u062b\u0646\u064a\u0646": 4512, "\u0633\u0647\u0644": 4513, "\u0634\u0645": 4514, "\u0646\u0628\u062d\u062b": 4515, "\u0648\u0631\u0627\u064b": 4516, "\u0648\u0627\u0630\u0627": 4517, "\u0627\u0644\u062a\u0642\u0637": 4518, "\u0627\u0644\u0623\u0635\u0644": 4519, "\u0648\u0631\u0642\u0629": 4520, "\u062c\u0645\u0647\u0648\u0631": 4521, "\u062e\u062a\u0641\u064a": 4522, "\u0637\u064a\u0644\u0629": 4523, "\u0627\u0644\u0645\u0633\u062a\u0634\u0641\u0649": 4524, "\u0648\u0636\u0639\u0646\u0627": 4525, "\u0627\u0644\u0641\u0631\u0635": 4526, "\u0627\u0644\u0635\u0646\u0627\u0639\u064a": 4527, "in": 4528, "\u0623\u0649": 4529, "\u0623\u0639\u0645": 4530, "\u062a\u0627\u0646": 4531, "\u0646\u0642\u0627\u0637": 4532, "\u0627\u0644\u0630\u0627\u0643\u0631\u0629": 4533, "\u0627\u0644\u062d\u0627\u062f": 4534, "\u0627\u0644\u0630\u0643\u0648\u0631": 4535, "\u0628\u0627\u0631\u064a": 4536, "\u0627\u0644\u062c\u0645\u064a\u0644\u0629": 4537, "\u0627\u0644\u0642\u0636\u064a\u0629": 4538, "\u064a\u062f\u0648\u0631": 4539, "\u0627\u0644\u062e\u0644\u0641": 4540, "\u0648\u0636\u0649": 4541, "\u0642\u0631\u064a\u0629": 4542, "\u0623\u0642\u0631\u0628": 4543, "\u0645\u0631\u062a\u0628\u0637": 4544, "\u0627\u0641\u0631\u064a\u0642\u064a\u0627": 4545, "\u062a\u0646\u0641": 4546, "\u0631\u062f\u0629": 4547, "\u0634\u0637": 4548, "\u0635\u0645\u0645": 4549, "\u0627\u0644\u062e\u0631\u0648\u062c": 4550, "\u0641\u064a\u0644": 4551, "\u0627\u0644\u062a\u0627\u0633": 4552, "\u0631\u064a\u062d": 4553, "\u0647\u0645\u064a\u0629": 4554, "\u0644\u064a\u0627\u062a": 4555, "\u0639\u0646\u0648\u0627\u0646": 4556, "\u064a\u062c\u0644\u0633": 4557, "\u0627\u0644\u0645\u062a\u0648\u0633\u0637": 4558, "\u0645\u0648\u0638": 4559, "\u0627\u0644\u0636\u062e\u0645\u0629": 4560, "\u062a\u062f\u0631\u064a": 4561, "\u0627\u0644\u062c\u0645\u064a\u0644": 4562, "\u062a\u0633\u0645\u0639": 4563, "\u0644\u0644\u062a\u0641\u0643\u064a\u0631": 4564, "\u0623\u0633\u0627\u0633\u064a\u0629": 4565, "\u0648\u0627\u0644\u062f\u062a\u064a": 4566, "\u0627\u0644\u062d\u0644\u0648\u0644": 4567, "\u0627\u0644\u0623\u0641\u0631\u0627\u062f": 4568, "\u062a\u0628\u0627\u0647": 4569, "\u0627\u0644\u062a\u062d\u062a\u064a\u0629": 4570, "400": 4571, "\u0628\u062c\u062f": 4572, "\u062f\u0645\u062c": 4573, "\u0639\u0627\u0644": 4574, "\u0646\u062c\u0627\u062d": 4575, "\u0627\u0644\u0645\u062b\u0644": 4576, "\u0627\u0644\u062a\u0642\u0627\u0637": 4577, "\u0627\u0644\u062d\u064a\u0629": 4578, "\u0627\u0644\u0628\u0627\u062d\u062b": 4579, "\u0627\u0644\u0643\u0641\u0627\u064a\u0629": 4580, "\u0648\u062c\u0629": 4581, "\u062a\u0642\u0648\u062f": 4582, "\u062a\u0639\u0628\u064a\u0631": 4583, "\u0627\u0644\u0645\u062a\u0639\u0644\u0642\u0629": 4584, "\u0643\u0628\u064a\u0631\u0627": 4585, "\u062a\u0646\u0627\u0648\u0644": 4586, "\u0627\u0646\u062a\u0627\u062c": 4587, "\u062f\u064a\u0645\u0648\u0642\u0631\u0627\u0637\u064a\u0629": 4588, "\u0623\u0641\u0631\u0627\u062f": 4589, "\u0627\u0644\u0643\u0647\u0631\u0628\u0627\u0626\u064a\u0629": 4590, "\u0627\u0644\u0642\u0648\u0627\u0639\u062f": 4591, "\u0631\u0645": 4592, "\u0634\u0647": 4593, "\u0627\u0644\u0642\u062f\u0645": 4594, "\u0646\u0627\u062b": 4595, "\u0646\u0627\u0641": 4596, "\u0627\u0644\u0643\u062a\u0627\u0628\u0629": 4597, "\u0631\u0627\u0626\u062d\u0629": 4598, "\u0645\u0644\u064a\u0626\u0629": 4599, "\u0627\u0644\u0645\u0633\u0627\u062d\u0629": 4600, "\u062a\u0634\u0627\u0631\u062f": 4601, "\u0627\u0644\u0631\u0633\u0648\u0645": 4602, "\u0627\u063a": 4603, "\u0648\u064a\u0627\u064b": 4604, "\u0627\u0644\u0645\u0634\u064a": 4605, "\u0627\u0644\u0639\u0631\u0627\u0642": 4606, "\u0627\u0644\u0639\u062b\u0648\u0631": 4607, "\u064a\u0639\u0627\u062f": 4608, "\u0648\u062c\u0639\u0644": 4609, "\u0644\u062a\u0643\u0648\u0646": 4610, "\u062f\u0645\u0627\u0646": 4611, "\u0628\u062d\u0644\u0648\u0644": 4612, "\u0623\u0634\u0643\u0631": 4613, "\u0627\u0644\u0632\u0631": 4614, "\u0634\u0627\u0631\u0643\u062a": 4615, "\u0627\u0644\u062e\u0637\u0648\u0637": 4616, "\u0632\u0648\u062c\u062a\u064a": 4617, "\u0645\u0642\u062f\u0627\u0631": 4618, "\u0633\u0631\u064a\u0639\u0629": 4619, "\u062a\u0648\u0641\u0631": 4620, "\u0646\u0634\u0627\u0637": 4621, "\u064a\u062c\u0627\u062f": 4622, "\ufe8d\ufedf": 4623, "\u0627\u0644\u0642\u0627\u0626\u0645\u0629": 4624, "\u0627\u0646\u0633": 4625, "\u0633\u062a\u062c\u062f": 4626, "\u0631\u0627\u0631\u064a": 4627, "\u0627\u0644\u0646\u0645\u0637": 4628, "\u062a\u0642\u0644\u064a": 4629, "\u0627\u0635\u0628\u062d": 4630, "\u0648\u0643\u0627\u0644\u0629": 4631, "\u064a\u062a\u0645\u0643\u0646": 4632, "\u0627\u062b\u0646\u0627\u0646": 4633, "\u0627\u062e\u062a\u064a\u0627\u0631": 4634, "\u0623\u0642\u0648\u0649": 4635, "\u0627\u0644\u062f\u0648\u0644\u064a": 4636, "\u0627\u0644\u062f\u0648\u0644\u064a\u0629": 4637, "\u063a\u0637\u064a\u0629": 4638, "\u0627\u0644\u0635\u062d\u064a\u062d\u0629": 4639, "am": 4640, "\u0625\u0644\u0643": 4641, "\u0625\u0631\u062a": 4642, "\u0627\u0644\u0645\u0628\u0627": 4643, "\u064a\u0639\u0627\u0646\u0648\u0646": 4644, "\u0627\u0644\u0646\u0645\u0644": 4645, "\u0627\u0644\u0646\u0634\u0627\u0637": 4646, "\u0633\u064a\u0642\u0648\u0645": 4647, "\u0627\u0644\u062c\u064a\u0634": 4648, "\u0627\u0644\u0642\u064a\u0645\u0629": 4649, "\u0644\u062a\u0647": 4650, "\u0628\u0623\u0646\u0647\u0645": 4651, "\u0627\u0643\u062a\u0634\u0641\u062a": 4652, "\u0627\u0644\u0628\u062d\u0631\u064a\u0629": 4653, "\u0645\u0624\u062e\u0631\u0627": 4654, "45": 4655, "\u0626\u0627": 4656, "\u0631\u064a\u062a\u0634\u0627\u0631\u062f": 4657, "\u0627\u0644\u062d\u0631\u064a\u0629": 4658, "\u0625\u0644\u0647\u064a": 4659, "\u0628\u0627\u062f\u0644": 4660, "\u0627\u0644\u0631\u0633\u0627\u0626\u0644": 4661, "\u0645\u062c\u0644\u0633": 4662, "\u0645\u0635\u0627\u062f\u0631": 4663, "\u0627\u0644\u0642\u0631\u0634": 4664, ":\"\"": 4665, "\u062b\u0627\u0644": 4666, "\u0639\u064a\u0634": 4667, "\u0643\u0648\u0645": 4668, "\u0645\u0648\u0627\u0642\u0639": 4669, "\u0647\u0630\u064a\u0646": 4670, "\u0627\u0644\u0645\u0639\u062a": 4671, "\u0627\u0644\u0639\u0638\u064a\u0645\u0629": 4672, "\u064a\u062a\u0633": 4673, "\u0646\u064a\u0643": 4674, "\u062c\u0627\u064b": 4675, "\u0633\u0646\u062a\u064a\u0646": 4676, "\u062a\u0645\u0627\u0645\u064b\u0627": 4677, "\u0627\u0644\u0627\u0646\u062a": 4678, "\u064a\u0639\u0646\u064a\u0647": 4679, "\u064a\u0624\u0645\u0646": 4680, "\u0633\u062a\u0631\u0648\u0646": 4681, "\u0642\u0627\u0631\u0646\u0629": 4682, "\u0627\u0644\u063a\u0630\u0627\u0626\u064a\u0629": 4683, "\u0627\u0644\u0645\u064a\u0643\u0631": 4684, "\u0623\u0635\u062f\u0642\u0627\u0626": 4685, "\"(": 4686, "\u0623\u062e\u062a": 4687, "\u0635\u062f\u0631": 4688, "\u0645\u0627\u0644\u0627\u062a": 4689, "\u0627\u0644\u0645\u0636\u0627": 4690, "\u0648\u0646\u062a": 4691, "\u0627\u0644\u0633\u064a\u0631": 4692, "\u0627\u0644\u062c\u064a\u0644": 4693, "\u0627\u0644\u0642\u0648\u0649": 4694, "\u0627\u0644\u0637\u0628\u064a\u0628": 4695, "\u0648\u0641\u0643\u0631": 4696, "\u0648\u0623\u062d": 4697, "\u062a\u0642\u062f\u064a\u0631": 4698, "\u0648\u0627\u062c\u0647\u0629": 4699, "\u0628\u062f\u064a": 4700, "\u0628\u0648\u062c\u0648\u062f": 4701, "\u0645\u062d\u064a\u0637": 4702, "\u0627\u0644\u062a\u0646\u0648\u0639": 4703, "\u0631\u0627\u0628\u0637": 4704, "\u0645\u0639\u0631\u0636": 4705, "\u0627\u0644\u0639\u0635\u0631": 4706, "\u0627\u0644\u0633\u0648": 4707, "\u0627\u0644\u062c\u0648\u064a": 4708, "\u0647\u064a\u0643\u0644": 4709, "\u0645\u062a\u062d\u0641": 4710, "\u062a\u0631\u0627\u062a": 4711, "\u0627\u0644\u0635\u064a\u062f": 4712, "\u0627\u0644\u063a\u0644\u0627\u0641": 4713, "\u0639\u0627\u0645\u064a\u0646": 4714, "\u0627\u0644\u0623\u0645\u0645": 4715, "\u0627\u0644\u0623\u0633\u0648\u0627\u0642": 4716, "\u064a\u0647\u062a\u0645": 4717, "\u0627\u062e\u062a\u0631\u0627\u0639": 4718, "\u062a\u0624\u062b\u0631": 4719, "\u0627\u0644\u0627\u0642\u062a\u0635\u0627\u062f\u064a\u0629": 4720, "\u062e\u0641\u0627\u0636": 4721, "\u0623\u0639\u062f": 4722, "\u062a\u0648\u0627\u062c\u0647": 4723, "\u062c\u0646\u0627": 4724, "\u062d\u0644\u0645": 4725, "\u063a\u0646": 4726, "\u0641\u0644\u064a": 4727, "\u0645\u0628\u062f": 4728, "\u0645\u0643\u062a\u0628": 4729, "\u0627\u0644\u0645\u0631\u0627\u0647": 4730, "\u0627\u0644\u062a\u0647": 4731, "\u0633\u062a\u0642\u0648\u0645": 4732, "\u0645\u062b\u064a\u0644": 4733, "\u0623\u0645\u064a\u0646": 4734, "\u0639\u064a\u0646\u0627\u062a": 4735, "\u064a\u0633\u0623\u0644": 4736, "\u062a\u0633\u062c\u064a\u0644": 4737, "\u0646\u0639\u0631\u0641\u0647": 4738, "\u0627\u0644\u0634\u0645\u0627\u0644\u064a": 4739, "\u0627\u0644\u062e\u0627\u0631\u062c\u064a\u0629": 4740, "\u0627\u0644\u062d\u0648\u0627\u0633\u064a\u0628": 4741, "\u0628\u0637\u0628\u064a\u0639\u0629": 4742, "\u0628\u0641\u0639\u0644": 4743, "\u0634\u064a\u0629": 4744, "\u0627\u0644\u0627\u0644\u0643": 4745, "\u0642\u062f\u0645\u062a": 4746, "\u0627\u0644\u0639\u064a\u0646": 4747, "\u0628\u0639\u062b": 4748, "\u0628\u0627\u0626\u064a": 4749, "\u0627\u0644\u0634\u0628\u0643\u0627\u062a": 4750, "\u0639\u0644\u0645\u064a\u0646": 4751, "\u0643\u062a\u0626\u0627\u0628": 4752, "\u062a\u0635\u062f\u0642": 4753, "\u0628\u0625\u0633\u062a\u062e\u062f\u0627\u0645": 4754, "\u0642\u0648\u0627\u0639\u062f": 4755, "\u062a\u0628\u062d\u062b": 4756, "\u062c\u0644\u062a": 4757, "\u0639\u0641": 4758, "\u0627\u0646\u0648": 4759, "\u0627\u0644\u0645\u0642\u0628": 4760, "\u064a\u0627\u0632": 4761, "\u0648\u0631\u062f": 4762, "\u0648\u0645\u062a": 4763, "\u0633\u0627\u0628\u0642": 4764, "\u0628\u062f\u0648\u0627": 4765, "\u0627\u0644\u0635\u063a\u0627\u0631": 4766, "\u0627\u0644\u062e\u064a\u0627\u0631": 4767, "\u062c\u0627\u0628\u0627\u062a": 4768, "\u0628\u0642\u0648\u0629": 4769, "\u0627\u0644\u062a\u0635\u0631\u0641": 4770, "\u0637\u0627\u0646\u064a\u0627": 4771, "\u0625\u062c\u0631\u0627\u0621": 4772, "\u062b\u0627\u0628\u062a": 4773, "\u0630\u0627\u0646": 4774, "\u0646\u063a": 4775, "\u0627\u062a\u062c\u0627\u0647": 4776, "\u0644\u0644\u0645\u0631\u0629": 4777, "\u064a\u062f\u062e\u0644": 4778, "\u0642\u064a\u0644": 4779, "\u0641\u0627\u062f\u0629": 4780, "\u0628\u062d\u0631": 4781, "\u062a\u062a\u0628\u0639": 4782, "\u0623\u0639\u064a\u0634": 4783, "\u062c\u0632\u064a\u0631\u0629": 4784, "\u0627\u0644\u0634\u062e\u0635\u064a": 4785, "\u0627\u0644\u0645\u0635\u062f\u0631": 4786, "\u0644\u0644\u0627\u0633\u062a": 4787, "\u062a\u0639\u0644": 4788, "\u062f\u0649": 4789, "\u0642\u0646": 4790, "\u0644\u0631\u0624\u064a\u0629": 4791, "\u0646\u0633\u0645\u064a\u0647": 4792, "\u064a\u0644\u064a": 4793, "\u0627\u0644\u062a\u0645": 4794, "\u0631\u0627\u0639\u0627\u062a": 4795, "\u0645\u0639\u0642\u062f": 4796, "\u0644\u0644\u0641": 4797, "\u064a\u062a\u0643": 4798, "\u062a\u062d\u0633\u064a\u0646": 4799, "\u0646\u062a\u064a": 4800, "\u0642\u0644\u0642": 4801, "\u0646\u0639\u0648\u062f": 4802, "\u062a\u062c\u0627\u0631\u0628": 4803, "\u0627\u0644\u063a\u0631\u0628\u064a\u0629": 4804, "\u0644\u0646\u0631\u0649": 4805, "\u0645\u062d\u0637\u0629": 4806, "\u0631\u0624\u064a\u062a\u0647": 4807, "\u0627\u0644\u0628\u0631\u064a\u0629": 4808, "\u0627\u0644\u0646\u0641\u0633\u064a\u0629": 4809, "\u0628\u064a\u0627": 4810, "\u0628\u0643\u0631": 4811, "\u063a\u0631\u0641": 4812, "\u064a\u0637\u0644\u0642": 4813, "\u0627\u062a\u0635\u0627\u0644": 4814, "\u0648\u0627\u0626\u064a": 4815, "\u0631\u064a\u062d\u0629": 4816, "\u0648\u0642\u0628\u0644": 4817, "\u0627\u0644\u062e\u064a\u0627\u0631\u0627\u062a": 4818, "\u062a\u062d\u0628": 4819, "\u0648\u0636\u0639\u0647\u0627": 4820, "\u0641\u0642\u0627\u0644": 4821, "\u062d\u0631\u0641\u064a\u0627": 4822, "\u0641\u0631\u064a\u0642\u064a\u0629": 4823, "\u062c\u0648\u0647\u0631": 4824, "\u0632\u064a\u0627\u0631\u0629": 4825, "\u0645\u0646\u062a\u062c\u0627\u062a": 4826, "\u0627\u0644\u0648\u0637\u0646\u064a\u0629": 4827, "\u0631\u0627\u062a\u064a\u062c\u064a\u0629": 4828, "\u0633\u0645\u0627\u0639": 4829, "\u0635\u0644\u062a": 4830, "\u063a\u0631\u0628": 4831, "\u0642\u0627\u0646": 4832, "\u0644\u0627\u0646\u0647\u0627": 4833, "\u0645\u0647\u0646\u062f": 4834, "\u0627\u0644\u0645\u0648\u0627\u0642\u0639": 4835, "\u0627\u0644\u062d\u064a\u0646": 4836, "\u0647\u0648\u0629": 4837, "\u0633\u0627\u064b": 4838, "\u0627\u0644\u0627\u064a": 4839, "\u0627\u0644\u062e\u0637\u0631": 4840, "\u0627\u0644\u0625\u0642\u062a\u0635\u0627\u062f\u064a": 4841, "\u0648\u0627\u062d\u062f\u0627": 4842, "\u0627\u0644\u0648\u0632\u0646": 4843, "\u0623\u0643\u0633\u064a\u062f": 4844, "\u0623\u0645\u0644\u0643": 4845, "\u062a\u062f\u0648\u0631": 4846, "\u0648\u0627\u0626\u062f": 4847, "\u0627\u0644\u0623\u0635\u0648\u0627\u062a": 4848, "\u0627\u0644\u0637\u0627\u0648\u0644\u0629": 4849, "!\"\"": 4850, "an": 4851, "\u0625\u0636\u0627\u0641\u0629": 4852, "\u0645\u0628\u062a": 4853, "\u0648\u0644\u0643\u064a": 4854, "\u0627\u0644\u0645\u0647\u0646\u062f": 4855, "\u0643\u0646\u0644\u0648\u062c\u064a\u0627": 4856, "\u0642\u0627\u0633\u0645": 4857, "\u0627\u0644\u0646\u0635\u0641": 4858, "\u0648\u062c\u0648\u0647": 4859, "\u0627\u0644\u062c\u062f": 4860, "\u062a\u0631\u063a\u0628": 4861, "\u0627\u0644\u0635\u064a\u0641": 4862, "\u0627\u0644\u062e\u0636\u0631\u0627\u0621": 4863, "\u0648\u0636\u064a\u062d": 4864, "\u0627\u0644\u063a\u0627\u0628\u0629": 4865, "\u0641\u0625\u0646\u0643": 4866, "\u062a\u0645\u062a\u0644\u0643": 4867, "\u0627\u0644\u0628\u0631\u0627\u0645\u062c": 4868, "\u0622\u0633\u064a\u0627": 4869, "\u0623\u062d\u062f\u062b": 4870, "\u0623\u0641\u0647\u0645": 4871, "\u0628\u0628\u0637": 4872, "\u0628\u062c\u0627\u0646\u0628": 4873, "\u062e\u064a\u0627\u0631": 4874, "\u0635\u0642": 4875, "\u064a\u062a\u064a\u0646": 4876, "\u0627\u0644\u0627\u0647\u062a\u0645\u0627\u0645": 4877, "\u0627\u0644\u0625\u0628\u062f\u0627\u0639": 4878, "\u0633\u0646\u0627\u0646": 4879, "\u0643\u0627\u062f\u064a": 4880, "\u0627\u0644\u064a\u0648\u0645\u064a\u0629": 4881, "\u0627\u0633\u062a\u063a\u0631\u0642": 4882, "\u0642\u0631\u0623\u062a": 4883, "\u0627\u0644\u0645\u062f\u0646\u064a\u0629": 4884, "\u0628\u0635\u062f\u062f": 4885, "\u0648\u0638\u0627\u0626\u0641": 4886, "\u0627\u0644\u062c\u0646\u0633\u064a": 4887, "\u062e\u0627\u0637\u0626\u0629": 4888, "\u062b\u0646\u0627\u0626\u064a": 4889, "\u0627\u0644\u0639\u0627\u062f\u0629": 4890, "\u0627\u0644\u062c\u0632\u064a\u0626\u0627\u062a": 4891, "\u0625\u0645": 4892, "\u0628\u0627\u0644\u0628": 4893, "\u0648\u0627\u0646\u064a": 4894, "\u0648\u0644\u0641": 4895, "\u0644\u0644\u0635": 4896, "\u0644\u0644\u0625\u0646": 4897, "\u0628\u0627\u0639\u062a": 4898, "\u0623\u062a\u0649": 4899, "\u0648\u0623\u0631\u064a\u062f": 4900, "\u0641\u0639\u0644\u0647\u0627": 4901, "\u0648\u0644\u0627\u064a\u0627\u062a": 4902, "\u0633\u0623\u0644\u0629": 4903, "\u062f\u0627\u0626\u0645": 4904, "\u0628\u0627\u0646\u0632\u064a": 4905, "\u0639\u0634\u0631\u0627\u062a": 4906, "\u0628\u0627\u0644\u0642\u0631\u0628": 4907, "\u062a\u0631\u0643\u064a\u0632": 4908, "\u062d\u0627\u062f\u062b\u0627\u062a": 4909, "\u0627\u0644\u0623\u0647\u0645\u064a\u0629": 4910, "\u0627\u0644\u0648\u0638\u0627\u0626\u0641": 4911, "\u0633\u0639\u064a\u062f\u0629": 4912, "\u0627\u0644\u0623\u0632\u0631\u0642": 4913, "\u0627\u0644\u0645\u062c\u0645\u0648\u0639\u0627\u062a": 4914, "\u0627\u0647\u062a\u0645\u0627": 4915, "\u0631\u064a\u0646": 4916, "\u0632\u0639": 4917, "\u0638\u0647\u0627\u0631": 4918, "\u0641\u0639\u0646\u062f\u0645\u0627": 4919, "\u0642\u062f\u064a\u0645\u0629": 4920, "\u0651\u0639": 4921, "\u0644\u0643\u064a\u0629": 4922, "\u0648\u0627\u0634\u0646": 4923, "\u0627\u0644\u062e\u062f\u0645\u0627\u062a": 4924, "\u0642\u0644\u0646\u0627": 4925, "\u0631\u0627\u0626\u0639\u0627": 4926, "\u0625\u0644\u064a\u0646\u0627": 4927, "\u062b\u0644\u0627\u062b\u064a\u0629": 4928, "\u0627\u0644\u0623\u0648\u0644\u064a\u0629": 4929, "\u0627\u0644\u0628\u064a\u0636": 4930, "\u062c\u0632\u0621\u0627": 4931, "\u0639\u0645\u0631\u0647\u0627": 4932, "\u0644\u062a\u062d\u0642\u064a\u0642": 4933, "\u064a\u0646\u062a\u0647\u064a": 4934, "\u0625\u062b\u0627\u0631\u0629": 4935, "\u0627\u0644\u0645\u062e\u0644\u0648\u0642\u0627\u062a": 4936, "\u0627\u0642\u0644": 4937, "\u0628\u062a\u0631": 4938, "\u0628\u0627\u0644\u0637\u0631\u064a\u0642\u0629": 4939, "\u062a\u0639\u0644\u064a": 4940, "\u062d\u0627\u0646": 4941, "\u062f\u0627\u0645": 4942, "\u0632\u0631\u0627\u0639\u0629": 4943, "\u0633\u0641": 4944, "\u0644\u062d\u0644": 4945, "\u0644\u0646\u0641\u0633\u064a": 4946, "\u0645\u0627\u0644\u064a\u0629": 4947, "\u0645\u0634\u0627\u0647\u062f": 4948, "\u0647\u0627\u064a": 4949, "\u0642\u062f\u0645\u0629": 4950, "\u0643\u0648\u0646\u0647\u0627": 4951, "\u0648\u0623\u062e": 4952, "\u0645\u062f\u0647\u0634": 4953, "\u0623\u0645\u0631\u064a\u0643\u064a": 4954, "\u064a\u0624\u062b\u0631": 4955, "\u0625\u0637\u0644\u0627\u0642": 4956, "\u062f\u0644\u064a\u0644": 4957, "\u0633\u062d": 4958, "\u0637\u0631\u064a": 4959, "\u0641\u0625\u0630\u0627": 4960, "\u0643\u0647": 4961, "\u0648\u0648": 4962, "\u0648\u064a\u0645\u0643\u0646\u0643\u0645": 4963, "\u064a\u062f\u0629": 4964, "\u0627\u0646\u064a\u0627": 4965, "\u0645\u0639\u062a": 4966, "\u0627\u0644\u0639\u0631": 4967, "\u0633\u064a\u062a\u0645": 4968, "\u0627\u0644\u0642\u0631\u0627\u0621\u0629": 4969, "\u0627\u0644\u0625\u062d\u0633\u0627\u0633": 4970, "\u0623\u062e\u064a\u0631\u0627": 4971, "\u0644\u0646\u0642\u0644": 4972, "\u0627\u0633\u062a\u0637\u0639\u062a": 4973, "\u064a\u0648\u0645\u0627\u064b": 4974, "\u0627\u0644\u0628\u0633\u064a\u0637\u0629": 4975, "\u062a\u0634\u0643\u064a\u0644": 4976, "\u0633\u0644\u0627": 4977, "\u0637\u0628\u0642\u0629": 4978, "\u0648\u0644\u064a\u062f": 4979, "\u0644\u0644\u0634": 4980, "\u0627\u0644\u0628\u0633\u0627\u0637\u0629": 4981, "\u0648\u0642\u0648\u0641": 4982, "\u0627\u0644\u0633\u0645\u0643": 4983, "\u0627\u0644\u062e\u0628\u0632": 4984, "\u0641\u0639\u0644\u062a\u0647": 4985, "\u062d\u0648\u0644\u0647": 4986, "\u062d\u0644\u0627\u062a": 4987, "\u0641\u0639\u0627\u0644\u064a\u0629": 4988, "\u0648\u0627\u0646\u0628": 4989, "\u0648\u0643\u0627\u0646\u0648\u0627": 4990, "\u0646\u062c\u062d": 4991, "\u0627\u0644\u064a\u0627\u0628\u0627\u0646": 4992, "150": 4993, "\u0628\u0645\u062b": 4994, "\u0633\u0645\u0627": 4995, "\u0633\u0628\u0639": 4996, "\u0645\u0648\u0642\u0641": 4997, "\u0648\u0633\u0646": 4998, "\u0633\u062a\u0645\u0631": 4999, "\u062f\u064a\u0641\u064a\u062f": 5000, "\u0627\u0644\u0639\u0627\u0637": 5001, "\u0627\u0644\u062d\u0641\u0627\u0638": 5002, "\u062d\u0627\u064a\u0627": 5003, "\u0623\u062a\u0639\u0644\u0645\u0648\u0646": 5004, "\u0631\u062a\u0647": 5005, "\u0645\u062d\u0648\u0631": 5006, "\u0633\u0648\u064a\u0627\u064b": 5007, "\u062a\u062c\u0627\u0648\u0632": 5008, "\u0625\u0645\u0631\u0623\u0629": 5009, "\u062a\u063a\u0644": 5010, "\u062c\u0648\u062c\u0644": 5011, "\u0633\u0644\u0645": 5012, "\u0641\u0631\u0627": 5013, "\u064a\u0645\u0627": 5014, "\u064a\u0641\u062a\u0631\u0636": 5015, "\u0634\u0631\u0628": 5016, "\u0646\u062a\u0639\u0627\u0645\u0644": 5017, "\u0623\u0639\u064a\u0646": 5018, "\u0623\u0639\u0636\u0627\u0621": 5019, "\u0631\u0627\u0626\u064a\u0644": 5020, "\u062c\u064a\u0627\u0644": 5021, "\u0633\u0645\u064a\u0647\u0627": 5022, "\u0627\u0644\u062a\u0641\u0627\u0635\u064a\u0644": 5023, ",\"\"": 5024, "\u062e\u0627\u0626": 5025, "\u0635\u0627\u0646": 5026, "\u0636\u0628": 5027, "\u0646\u0627\u0629": 5028, "\u0645\u0627\u0643\u0646": 5029, "\u0627\u0644\u062a\u0639\u0631\u0641": 5030, "\u0627\u0644\u0623\u0634\u0643\u0627\u0644": 5031, "\u0627\u0644\u0646\u0647\u0631": 5032, "\u0627\u0644\u0643\u0648\u0627\u0643\u0628": 5033, "\u0648\u0642\u0645\u0646\u0627": 5034, "\u0648\u062a\u0627": 5035, "\u062f\u0631\u0627\u0646": 5036, "\u0641\u0639\u0644\u0646\u0627": 5037, "\u0627\u0644\u0631\u064a\u0627\u0636\u064a\u0629": 5038, "\u0645\u0631\u062a\u0628\u0637\u0629": 5039, "\u0627\u0633\u062a\u0637\u0627\u0639": 5040, "99": 5041, "\u0625\u0633\u0645": 5042, "\u0628\u0633\u0627\u0637\u0629": 5043, "\u062a\u0648\u064a\u062a\u0631": 5044, "\u0639\u0637\u064a": 5045, "\u0641\u0647\u0630\u0647": 5046, "\u0645\u0636\u0627": 5047, "\u0646\u062a\u0645\u0643\u0646": 5048, "\u0631\u0627\u0639\u064a": 5049, "\u0627\u0631\u062f": 5050, "\u0648\u0642\u0627\u0645": 5051, "\u0646\u064a\u0641": 5052, "\u0627\u0644\u0631\u0628": 5053, "\u0645\u062d\u0631\u0643": 5054, "\u062c\u0639\u0644\u0647\u0627": 5055, "\u0645\u0627\u0646\u064a\u0627": 5056, "\u064a\u062d\u062a\u0627\u062c\u0648\u0646": 5057, "\u0627\u0644\u0635\u062d\u0631\u0627\u0621": 5058, "\u0627\u0644\u0644\u0642\u0627\u062d": 5059, "\u0627\u0644\u0633\u0648\u062f\u0627\u0621": 5060, ".:": 5061, "75": 5062, "\u0622\u0631": 5063, "\u0623\u0644\u0645": 5064, "\u0623\u062d\u062a\u0627\u062c": 5065, "\u062a\u0630": 5066, "\u0635\u0628": 5067, "\u0641\u0633\u0629": 5068, "\u0642\u0631\u0627\u0636": 5069, "\u0645\u0638": 5070, "\u0648\u0630": 5071, "\u0627\u0644\u0645\u0633\u062a\u062e\u062f\u0645": 5072, "\u0648\u0644\u062f\u062a": 5073, "\u0627\u0644\u0623\u0631\u0627\u0636\u064a": 5074, "\u0627\u0644\u062e\u0628\u0631": 5075, "\u0627\u0644\u0631\u063a\u0628\u0629": 5076, "\u0648\u0644\u0648\u062c\u064a\u0629": 5077, "\u0627\u0644\u0633\u064a\u062f": 5078, "\u0627\u0644\u0639\u0627\u0626\u0644\u0629": 5079, "\u0627\u0633\u062a\u062e\u062f\u0645\u062a": 5080, "\u0641\u0634": 5081, "\u0642\u0648\u0642": 5082, "\u0645\u0626": 5083, "\u0648\u0651\u0631": 5084, "\u0627\u0644\u0648\u062c\u0647": 5085, "\u0645\u0627\u0626\u0629": 5086, "\u0627\u0644\u0645\u0641\u0647\u0648\u0645": 5087, "\u0627\u062a\u0647\u0627": 5088, "\u0642\u0627\u062f\u0629": 5089, "\u0628\u0627\u062d\u0629": 5090, "\u0627\u0628\u0648\u0646": 5091, "\u0623\u0639\u0648\u062f": 5092, "\u0633\u0644\u0648\u0628": 5093, "\u062a\u0633\u0623\u0644": 5094, "\u0644\u0625\u0639\u0627\u062f\u0629": 5095, "\u0642\u0627\u0637\u0639\u0629": 5096, "\u0627\u0644\u062c\u0646\u0633\u064a\u0629": 5097, "\u0627\u0644\u062a\u062f\u0631\u064a\u0628": 5098, "\u064a\u062a\u062d\u062f\u062b\u0648\u0646": 5099, "\u064a\u0634\u0639\u0631\u0648\u0646": 5100, "\u0633\u0643\u0631\u064a\u0629": 5101, "on": 5102, "\u0628\u0623\u062e\u0630": 5103, "\u0628\u0648\u0636\u0648\u062d": 5104, "\u062a\u0633\u0628\u0628": 5105, "\u062a\u0628\u0644\u063a": 5106, "\u062d\u0633\u0627\u0628": 5107, "\u0633\u0648\u0627": 5108, "\u0635\u0628\u0627": 5109, "\u0646\u0627\u062f": 5110, "\u0641\u064a\u0632": 5111, "\u0627\u0644\u062a\u0643\u0644\u0641\u0629": 5112, "\u0627\u0644\u062a\u0646\u0628\u0624": 5113, "\u0627\u0644\u0639\u0634": 5114, "\u0644\u0644\u0628\u062d\u062b": 5115, "\u064a\u062a\u0631": 5116, "\u0644\u062a\u063a\u064a\u064a\u0631": 5117, "\u0646\u062d\u0628": 5118, "\u0645\u062b\u0644\u0645\u0627": 5119, "\u0645\u0648\u064a\u0629": 5120, "\u0645\u062f\u0627\u0631": 5121, "\u0646\u0648\u0639\u064a\u0629": 5122, "\u0627\u0644\u0623\u0631\u0636\u064a\u0629": 5123, "\u0627\u0644\u0623\u062e\u0636\u0631": 5124, "\u0627\u0644\u0645\u0634\u0627\u0639\u0631": 5125, "\u0627\u0644\u0645\u0633\u0627\u0631": 5126, "\u0627\u0639\u062a\u0642\u062f\u062a": 5127, "\u0639\u0642\u0648\u062f": 5128, "\u0628\u0631\u064a\u0637\u0627\u0646\u064a\u0627": 5129, "\u0641\u0627\u0626\u062f\u0629": 5130, "\u0627\u0644\u0648\u0637\u0646\u064a": 5131, "\u0627\u0644\u0645\u0647\u0627\u0631\u0627\u062a": 5132, "\u0627\u0644\u062f\u0648\u0644\u0627\u0631\u0627\u062a": 5133, "\u0628\u0645\u062b\u0627\u0628\u0629": 5134, "35": 5135, "\u062b\u0649": 5136, "\u0633\u0627\u0646\u064a": 5137, "\u064a\u0651\u0629": 5138, "\u0627\u0644\u0645\u0639\u0627\u062f": 5139, "\u0627\u062a\u0636\u062d": 5140, "\u0627\u0645\u0644\u0629": 5141, "\u0645\u0644\u062a": 5142, "\u0636\u0627\u0626": 5143, "\u0648\u0623\u0635": 5144, "\u0628\u064a\u0646\u0646\u0627": 5145, "\u0627\u0626\u0642": 5146, "\u0627\u0644\u0648\u0631\u0627\u0621": 5147, "\u0628\u0625\u0633\u062a": 5148, "\u0627\u0644\u0628\u064a\u0627\u0646\u064a": 5149, "\u062a\u0633\u0639\u0629": 5150, "\u0627\u0644\u0646\u0627\u062d\u064a\u0629": 5151, "\u0627\u0644\u0645\u0624\u062a\u0645\u0631": 5152, "\u0627\u0645\u0631\u064c": 5153, "\u0639\u0627\u0626\u0644\u062a\u064a": 5154, "\u0627\u0644\u0642\u0637\u0627\u0639": 5155, "\u0627\u0644\u062a\u0644\u0641\u0632\u064a\u0648\u0646": 5156, "\u0622\u0645\u0646": 5157, "\u0623\u0642\u062f\u0627\u0645": 5158, "\u0624\u0633": 5159, "\u0627\u0646\u062a\u0647\u0649": 5160, "\u0627\u0644\u062a\u062e\u0644\u0635": 5161, "\u0627\u0644\u062d\u0642\u0627\u0626\u0642": 5162, "\u0625\u0646\u0646\u064a": 5163, "\u0628\u0627\u062d\u062b": 5164, "\u0641\u0627\u0641": 5165, "\u0639\u0644\u0645\u064a": 5166, "\u0623\u0634\u0639\u0629": 5167, "\u0627\u0644\u0645\u0633\u062a\u062d\u064a\u0644": 5168, "\u0627\u0639\u0631\u0641": 5169, "\u0633\u0645\u0639\u062a\u0645": 5170, "\u0623\u0636\u0639\u0627\u0641": 5171, "\u0627\u0644\u062a\u062c\u0627\u0631\u0629": 5172, "\u0645\u0646\u062e\u0641\u0636\u0629": 5173, "\u062f\u0626": 5174, "\u0633\u0648\u064a\u0629": 5175, "\u0636\u0637\u0631\u0627": 5176, "\u064a\u0638\u0646": 5177, "\u064f\u0644": 5178, "\u0627\u0644\u0639\u0638\u0645": 5179, "\u0627\u0644\u0628\u0646": 5180, "\u0627\u0644\u0628\u0631\u064a\u0637": 5181, "\u0627\u0644\u062c\u0628\u0644": 5182, "\u0648\u0639\u062f": 5183, "\u0627\u0644\u062f\u0642\u064a\u0642\u0629": 5184, "\u0627\u0644\u063a\u0631\u064a\u0628": 5185, "\u062e\u0637\u0627\u0621": 5186, "\u0627\u0630\u0627\u064b": 5187, "\u0645\u0633\u0627\u0641\u0629": 5188, "\u0627\u0644\u0635\u064a\u0646\u064a\u0629": 5189, "\u0633\u0639\u062f\u0627\u0621": 5190, "\u0627\u0644\u0645\u063a\u0646\u0627\u0637\u064a": 5191, "\u0627\u0644\u0643\u0627\u0645\u064a\u0631\u0627": 5192, "21": 5193, "\u0623\u0648\u0642\u0627\u062a": 5194, "\u0628\u0627\u0644\u0627\u0646": 5195, "\u062c\u0648\u0644": 5196, "\u0632\u0627\u0644\u0629": 5197, "\u0635\u0648\u064a\u0631": 5198, "\u0642\u064a\u0627": 5199, "\u0648\u0623\u0646\u0647": 5200, "\u0648\u0623\u064a\u0636\u0627": 5201, "\u0627\u0644\u0644\u0648\u062d\u0629": 5202, "\u0647\u0627\u0628\u064a": 5203, "\u0627\u0644\u0623\u062c\u0632\u0627\u0621": 5204, "\u0644\u064a\u0648\u0645": 5205, "\u0642\u0627\u0642": 5206, "\u0627\u0644\u062c\u0644\u062f": 5207, "\u0628\u062a\u0646\u0627": 5208, "\u0648\u062f\u0639": 5209, "\u0648\u0644\u0627\u062f": 5210, "\u0642\u0635\u062f": 5211, "\u0628\u0633\u0637": 5212, "\u0645\u0641\u064a\u062f\u0629": 5213, "\u0637\u0639": 5214, "\u0641\u0647\u0646\u0627\u0643": 5215, "\u0651\u0628": 5216, "\u0627\u0644\u0645\u0633\u064a": 5217, "\u0627\u0644\u0623\u0639\u0635\u0627\u0628": 5218, "\u0627\u0644\u0642\u064a\u0627": 5219, "\u0627\u0644\u0641\u0631\u064a\u0642": 5220, "\u0627\u0644\u064a\u0647\u0627": 5221, "\u0628\u064a\u0646\u0647\u0627": 5222, "\u0627\u0644\u063a\u0631\u0628\u064a": 5223, "\u0623\u0631\u0633\u0644": 5224, "\u0623\u062d\u0635\u0644": 5225, "\u0641\u0644\u0627\u062a": 5226, "\u0627\u0644\u0645\u0631\u062c": 5227, "\u062a\u0647\u0627\u0621": 5228, "\u0627\u0644\u0627\u0633\u062a\u0645\u0627\u0639": 5229, "\u0627\u0644\u0623\u0631\u0628\u0639\u0629": 5230, "\u060c...": 5231, "\u0622\u062e\u0630": 5232, "\u0623\u0637\u0641": 5233, "\u062a\u0638\u0646": 5234, "\u0631\u0647": 5235, "\u0631\u0648\u064a": 5236, "\u0633\u0649": 5237, "\u0648\u0642\u0629": 5238, "\u0651\u0642": 5239, "\u0627\u0644\u062d\u062f\u062b": 5240, "\u0627\u0644\u0623\u0628\u064a\u0636": 5241, "\u0627\u0644\u0639\u0634\u0631": 5242, "\u0627\u0644\u062c\u0627\u0630": 5243, "\u062a\u0642\u0646\u064a\u0627\u062a": 5244, "\u064a\u0642\u0639": 5245, "\u0631\u0624\u0648\u0633": 5246, "\u0630\u0643\u064a\u0629": 5247, "\u062f\u062e\u0644\u062a": 5248, "\u0645\u0646\u0638\u0648\u0631": 5249, "\u0645\u0624\u062e\u0631\u0627\u064b": 5250, "\u0645\u062a\u062d\u0645\u0633": 5251, "\u0623\u0636\u0639": 5252, "\u0632\u064a\u0631": 5253, "\u0641\u0631\u0629": 5254, "\u0645\u0645\u064a\u0632\u0629": 5255, "\u0648\u0627\u0644\u0635": 5256, "\u0648\u0646\u0638\u0631": 5257, "\u0627\u0644\u0623\u0648\u0642\u0627\u062a": 5258, "\u0647\u064a\u0626\u0629": 5259, "\u0627\u0644\u0641\u0635": 5260, "\u0627\u0644\u0631\u0648\u0627": 5261, "\u0627\u0644\u0631\u0623\u0633": 5262, "\u062a\u0645\u0628\u0631": 5263, "\u062e\u0635\u0635\u0629": 5264, "\u062a\u0635\u0627\u0628": 5265, "\u0628\u0637\u0627\u0644": 5266, "\u0637\u0644\u0628\u062a": 5267, "\u0628\u0642\u0644\u064a\u0644": 5268, "\u062a\u0643\u0648\u064a\u0646": 5269, "\u0627\u0644\u0646\u0627\u0645\u064a\u0629": 5270, "\u0645\u0645\u0627\u0631": 5271, "\u0645\u0644\u0627\u0626": 5272, "\u062b\u0646\u0627\u0626\u064a\u0629": 5273, "\u0648\u0628\u064a\u0646\u0645\u0627": 5274, "\u0641\u0631\u0627\u0646\u0633\u064a\u0633": 5275, "\u0628\u063a\u0636": 5276, "\u062a\u0648\u0627\u0635\u0644": 5277, "\u0632\u0627\u0644\u062a": 5278, "\u0633\u062d\u0628": 5279, "\u0642\u064a\u062a": 5280, "\u0645\u0643\u0627\u0641": 5281, "\u0648\u0639\u0646\u062f": 5282, "\u0646\u0627\u0626": 5283, "\u0631\u064a\u0643\u0627": 5284, "\u0627\u0644\u0639\u0643\u0633": 5285, "\u064a\u0639\u0637": 5286, "\u0627\u0644\u0633\u064a\u0646": 5287, "\u0628\u062f\u0642\u0629": 5288, "\u0627\u0644\u0641\u0643\u0631": 5289, "\u0648\u0641\u062c\u0623\u0629": 5290, "\u062f\u0631\u0628": 5291, "\u0627\u0644\u0627\u062a\u062c\u0627\u0647": 5292, "\u0627\u0644\u062d\u064a\u0648\u064a": 5293, "\u0645\u0644\u0627\u0628\u0633": 5294, "\u0623\u062e\u0628\u0631\u0646\u064a": 5295, "\u0634\u0631\u064a\u0637": 5296, "\u0627\u0644\u0642\u0637\u0639\u0629": 5297, "\u062f\u062e\u0648\u0644": 5298, "\u0627\u0644\u0639\u0646\u0627\u0635\u0631": 5299, "\u0627\u0644\u062e\u0627\u0645\u0633\u0629": 5300, "\u0627\u0639\u0627\u062f\u0629": 5301, "\u0635\u0641\u0631": 5302, "\u063a\u0630\u064a\u0629": 5303, "\u0644\u0623\u0643\u062b\u0631": 5304, "\u0645\u0648\u0644\u0629": 5305, "\u0648\u0648\u062f": 5306, "\u064a\u0651": 5307, "\u064a\u062b\u064a\u0631": 5308, "\u064a\u0641\u064a\u0629": 5309, "\u0627\u0644\u0645\u0636": 5310, "\u0627\u0644\u0623\u0644\u0648\u0627\u0646": 5311, "\u0628\u0639\u0631\u0636": 5312, "\u0642\u0627\u062f\u064a": 5313, "\u0628\u0627\u0642\u064a": 5314, "\u0627\u0644\u0633\u0631\u064a": 5315, "\u0627\u0644\u062c\u0644\u064a": 5316, "\u0645\u062a\u0639\u0629": 5317, "\u0633\u0645\u0643": 5318, "\u0623\u0635\u062d\u0627\u0628": 5319, "\u0631\u0627\u0626\u062d": 5320, "\u064a\u062d\u0628": 5321, "\u0633\u064a\u0627\u0633\u0629": 5322, "\u0627\u0644\u0633\u0627\u062f": 5323, "\u0627\u0644\u062c\u0646\u0648\u0628\u064a\u0629": 5324, "\u0627\u0644\u0631\u0627\u0628\u0639": 5325, "\u0646\u0633\u062a\u062e\u062f\u0645\u0647\u0627": 5326, "\u0636\u0627\u0639\u0641": 5327, "\u0645\u0639\u0631\u0648\u0641": 5328, "\u0628\u0645\u0639\u062f\u0644": 5329, "\u0632\u0644\u0646\u0627": 5330, "\u0634\u0627\u062a": 5331, "\u064a\u0639\u0644\u0645\u0648\u0646": 5332, "\u0627\u0644\u0645\u0631\u0627\u062a": 5333, "\u0648\u0644\u0645\u0627\u0630\u0627": 5334, "\u0627\u0631\u0639\u064a\u0646": 5335, "\u064a\u0645\u064a\u0627\u0621": 5336, "\u0627\u0644\u0628\u0627": 5337, "\u0648\u0642\u0627\u0644\u0648\u0627": 5338, "\u0627\u0644\u0642\u064a\u0645": 5339, "\u0627\u0644\u062e\u062f": 5340, "\u0627\u0644\u062e\u0631\u064a\u0637\u0629": 5341, "\u062a\u0639\u0628\u0631": 5342, "\u0628\u064a\u0646\u0647\u0645": 5343, "\u0627\u0644\u0645\u062a\u0637": 5344, "\u0645\u0633\u062d": 5345, "\u0627\u0644\u0645\u0646\u0637\u0642": 5346, "\u0627\u0644\u0645\u0639\u0642\u062f\u0629": 5347, "\u062a\u0643\u0645\u0646": 5348, "\u0646\u0633\u0623\u0644": 5349, "\u0627\u0644\u0645\u0635\u0645\u0645": 5350, "\u0645\u0634\u0627\u0631\u064a\u0639": 5351, "\u0637\u0627\u0626\u0631": 5352, "\u062c\u0633\u062f\u064a": 5353, "\u0633\u0647\u0644\u0629": 5354, "\u0645\u0631\u064a\u0636": 5355, "\u0627\u0644\u062f\u0627\u062e\u0644\u064a\u0629": 5356, "\u062a\u0644\u0627\u062d\u0638": 5357, "\u0636\u0648": 5358, "\u0642\u0631\u064a": 5359, "\u0627\u0644\u0645\u0641\u0636\u0644": 5360, "\u0627\u0644\u0645\u0637\u0631": 5361, "\u0627\u0644\u0645\u0642\u0627\u0628\u0644": 5362, "\u0627\u0644\u0645\u0633\u0623\u0644\u0629": 5363, "\u064a\u0646\u064a\u0627\u062a": 5364, "\u0648\u0631\u0642": 5365, "\u0642\u0627\u0639\u062f": 5366, "\u062e\u0631\u064a\u0629": 5367, "\u0627\u0644\u0641\u0631\u0627\u063a": 5368, "\u0634\u0627\u0641\u0627\u062a": 5369, "\u0633\u0628\u0648\u0643": 5370, "\u062c\u0644\u0648\u0633": 5371, "\u0645\u0633\u0631": 5372, "\u0631\u0627\u0626\u0628": 5373, "\u0648\u0635\u064a\u0644": 5374, "\u0648\u0645\u0627\u0646": 5375, "\u0645\u0645\u0643\u0646\u0627": 5376, "\u0627\u0644\u0623\u0645\u0627\u0645": 5377, "\u062c\u0633\u0627\u0645": 5378, "\u0628\u0623\u0643\u0645\u0644\u0647\u0627": 5379, "\u0623\u0630\u0643\u0631": 5380, "\u0625\u0637\u0627\u0631": 5381, "\u0628\u0627\u0644\u062f": 5382, "\u062d\u0628\u064a": 5383, "\u0631\u062e": 5384, "\u0631\u0645\u0632": 5385, "\u0648\u0627\u0644\u0634\u064a\u0621": 5386, "\u064a\u0648\u0636\u062d": 5387, "\u0627\u0644\u0645\u064a\u0632": 5388, "\u0639\u0646\u0647\u0645": 5389, "\u0627\u0644\u0630\u0627\u062a\u064a": 5390, "\u0625\u0644\u0642\u0627\u0621": 5391, "\u0627\u0644\u0627\u0643\u062b\u0631": 5392, "\u0645\u0631\u0647": 5393, "\u0628\u062a\u0629": 5394, "\u062a\u062d\u0644\u064a\u0644": 5395, "\u0642\u0635\u064a\u0631": 5396, "\u0628\u0646\u0627\u0626": 5397, "\u0627\u0644\u0636\u0631": 5398, "\u0627\u0644\u0632\u0648\u0627\u062c": 5399, "\u0645\u0635\u0631": 5400, "\u0642\u0627\u0628\u0644\u062a": 5401, "\u0645\u0648\u0627\u062c\u0647\u0629": 5402, "\u0641\u0627\u062a\u064a\u062d": 5403, "\u0635\u062f\u064a\u0642\u064a": 5404, "\u0642\u0646\u0627\u0639": 5405, "\u0623\u0628\u062d\u062b": 5406, "\u0625\u0641\u0631\u064a\u0642\u064a\u0627": 5407, "\u062a\u064e": 5408, "\u0639\u0638": 5409, "\u0642\u0636\u064a": 5410, "\u0645\u0643\u0648\u0646": 5411, "\u0641\u064a\u064a\u0646": 5412, "\u0627\u0644\u0623\u062e\u0631": 5413, "\u0633\u0627\u062d\u0629": 5414, "\u0633\u064a\u062c": 5415, "\u0644\u0645\u0633\u062a": 5416, "\u0639\u0627\u0626\u0644": 5417, "\u0628\u062a\u0635\u0645\u064a\u0645": 5418, "\u062c\u0627\u0639\u0629": 5419, "\u0627\u0644\u062b\u0644\u062c": 5420, "\u0646\u0639\u0637\u064a": 5421, "\u0645\u0633\u062a\u0645\u0631": 5422, "\u0641\u0625\u0646\u0647\u0645": 5423, "\u0646\u0633\u062e": 5424, "\u0635\u062f\u0642": 5425, "\u0627\u0644\u0633\u064a\u0626\u0629": 5426, "\u064a\u062c\u0639\u0644\u0646\u0627": 5427, "\u0643\u0627\u062a\u0628": 5428, "\u0645\u0631\u0636\u0649": 5429, "\u0627\u0644\u0646\u0641\u0633\u064a": 5430, "\u062a\u062d\u062f\u064a\u062f\u0627\u064b": 5431, "\u0645\u0641\u062a\u0648\u062d\u0629": 5432, "\u0622\u064a": 5433, "\u0623\u0641\u0639\u0644\u0647": 5434, "\u0623\u0632\u0645\u0629": 5435, "\u062a\u0648\u0632\u064a\u0639": 5436, "\u062a\u0641\u0633\u064a\u0631": 5437, "\u062b\u0627\u0644\u062b": 5438, "\u062c\u0648\u0627": 5439, "\u062d\u0642\u064a": 5440, "\u062e\u0648\u0641": 5441, "\u0644\u0623\u062d\u062f": 5442, "\u0645\u0641": 5443, "\u0648\u0625\u0644\u0649": 5444, "\u0646\u0627\u0648\u0644": 5445, "\u0639\u0627\u062f\u064a\u0629": 5446, "\u0648\u0628\u0627\u0644\u0646\u0633\u0628\u0629": 5447, "\u0643\u062a\u0644\u0629": 5448, "\u0645\u062f\u064a\u0631": 5449, "\u0633\u0644\u0642": 5450, "\u0623\u0634\u0628\u0647": 5451, "\u0623\u062f\u0646\u0649": 5452, "\u0645\u0644\u0627\u062d\u0638\u0629": 5453, "\u0631\u0623\u0633\u064a": 5454, "\u0635\u0648\u0631\u0627\u062a": 5455, "\u0623\u0635\u062f\u0642\u0627\u0621": 5456, "\u0627\u0644\u062a\u063a\u064a\u0631\u0627\u062a": 5457, "\u0627\u0644\u062e\u0644\u0641\u064a\u0629": 5458, "\u0627\u0644\u0645\u0638\u0644\u0645\u0629": 5459, "\u0627\u0644\u0642\u0631\u0627\u0631\u0627\u062a": 5460, "\u0628\u0648\u062f": 5461, "\u0642\u064f": 5462, "\u0643\u0627\u0626\u0646\u0627\u062a": 5463, "\u0646\u0628\u0646\u064a": 5464, "\u0646\u0631\u0627\u0647\u0627": 5465, "\u0647\u0648\u0646": 5466, "\u0648\u0644\u0643": 5467, "\u0623\u0646\u062f\u0631\u0633\u0648\u0646": 5468, "\u0645\u0631\u062a\u064a\u0646": 5469, "\u0627\u0644\u0637\u0648\u064a\u0644": 5470, "\u062c\u0627\u0628\u064a": 5471, "\u0634\u0627\u0647\u062f\u0629": 5472, "\u0648\u0633\u064a\u0646": 5473, "\u062b\u0645\u0651": 5474, "\u0628\u0627\u0644\u062a\u0641\u0643\u064a\u0631": 5475, "\u062a\u0634\u064a\u0631": 5476, "\u062f\u0639\u0646\u0627": 5477, "\u0627\u0644\u0627\u0645\u0631\u064a\u0643\u064a\u0629": 5478, "\u0635\u062d\u064a\u0641\u0629": 5479, "\u0648\u0627\u0626\u0631": 5480, "\u0639\u0644\u0627\u0646\u0627\u062a": 5481, "\u0639\u0636\u0648": 5482, "\u0628\u0623\u0643\u0645\u0644\u0647": 5483, "\u0643\u0646\u064a\u0633\u0629": 5484, "\u0628\u0639\u0627\u062b\u0627\u062a": 5485, "\u0626\u0631\u0627\u0646": 5486, "\u0634\u0637\u0629": 5487, "\u0641\u0633\u0648\u0641": 5488, "\u0645\u0634\u0627\u0631\u0643\u0629": 5489, "\u064a\u0643\u0627": 5490, "\u0645\u0627\u062d": 5491, "\u0627\u0645\u064a\u0645": 5492, "\u0627\u0644\u062d\u0631\u0627\u0631\u064a": 5493, "\u0627\u0644\u0633\u0648\u062f": 5494, "\u0627\u0644\u062c\u0647\u0629": 5495, "\u0647\u064a\u0644": 5496, "\u0627\u0644\u0635\u0639": 5497, "\u0627\u0644\u0625\u062a\u0635": 5498, "\u0645\u062e\u062a\u0644\u0641\u064a\u0646": 5499, "\u0623\u0634\u0627\u0631\u0643": 5500, "\u0646\u0634\u0623\u062a": 5501, "\u0627\u062d\u062a\u0645\u0627\u0644": 5502, "\u0630\u0643\u064a\u0627\u0621": 5503, "\u0627\u0644\u0641\u0646\u0648\u0646": 5504, "\u0625\u062e\u0628\u0627\u0631": 5505, "\u0627\u0644\u0647\u0648\u0627\u062a\u0641": 5506, "\u0643\u064a\u0644\u0648\u0645": 5507, "\u0648\u0627\u0634\u0646\u0637\u0646": 5508, "\u0622\u0644\u0627\u062a": 5509, "\u062a\u0644\u0648": 5510, "\u0646\u0646\u062a": 5511, "\u0646\u062f\u0631\u0643": 5512, "\u0627\u0644\u0645\u062e\u0627\u0637\u0631": 5513, "\u0648\u0627\u0631\u062f": 5514, "\u0627\u0644\u062d\u0643\u0645": 5515, "\u0644\u0643\u0646\u0643": 5516, "\u0627\u0644\u0628\u0631\u064a\u062f": 5517, "\u0633\u064a\u0642\u0648\u0644": 5518, "\u0627\u0644\u0643\u064a\u0645\u064a\u0627\u0626\u064a\u0629": 5519, "\u064a\u062a\u062d\u0631\u0643": 5520, "\u0646\u064a\u062c": 5521, "\u062a\u0631\u062a\u064a": 5522, "\u0648\u064a\u0647": 5523, "\u062a\u062d\u0642\u0642": 5524, "\u062a\u062a\u0639\u0644\u0645": 5525, "\u0641\u062a\u0631\u0627": 5526, "\u0628\u0623\u0646\u0643": 5527, "\u0627\u0644\u0645\u062d\u0645\u0648\u0644": 5528, "\u062b\u0644\u062b": 5529, "\u0644\u0627\u0646\u0646\u0627": 5530, "\u062d\u0642\u064a\u0642\u0629\u064b": 5531, "\u0627\u0644\u062c\u064a\u0646\u0648\u0645": 5532, "\u0627\u0644\u062c\u0627\u0630\u0628\u064a\u0629": 5533, "\u062c\u062a": 5534, "\u062d\u062f\u064a\u0642\u0629": 5535, "\u0634\u0628\u0647": 5536, "\u0639\u0627\u0646": 5537, "\u064a\u0634\u0627\u0647\u062f": 5538, "\u0627\u0644\u062f\u0631\u062c\u0629": 5539, "\u0627\u0644\u0645\u0637\u0644": 5540, "\u0627\u0644\u0627\u062f": 5541, "\u0628\u0627\u0645\u0627": 5542, "\u0627\u0644\u0633\u0641\u0631": 5543, "\u062a\u0642\u0631\u064a\u0628": 5544, "\u064a\u062c\u062f": 5545, "\u0641\u0639\u0627\u0644\u0629": 5546, "\u0645\u0635\u0645": 5547, "\u0625\u0644\u064a\u0643": 5548, "\u064a\u0648\u0645\u064a\u0627\u064b": 5549, "\u0627\u0633\u062a\u062e\u062f\u0627\u0645\u0647": 5550, "\u062a\u0633\u062a\u062d\u0642": 5551, "\u0627\u0644\u0643\u0644\u064a\u0629": 5552, "\u0639\u0644\u0627\u0645\u0627\u062a": 5553, "\u064a\u0639\u0627\u062f\u0644": 5554, "\u0626\u0648\u0644": 5555, "\u062c\u0648\u062f\u0629": 5556, "\u0635\u062d\u064a\u0629": 5557, "\u0644\u0649": 5558, "\u0645\u062d\u0627\u0648\u0644": 5559, "\u0647\u0630\u0629": 5560, "\u064a\u0628\u0629": 5561, "\u064a\u0648\u0627\u062c\u0647": 5562, "\u0627\u0644\u062d\u0627\u0626": 5563, "\u0627\u0644\u062d\u0627\u0644\u064a\u0629": 5564, "\u0627\u0644\u0643\u062b": 5565, "\u0623\u0648\u0636\u062d": 5566, "\u0627\u0644\u0625\u064a\u062f\u0632": 5567, "\u062a\u062d\u0631\u064a\u0643": 5568, "\u0648\u0633\u064a\u0639": 5569, "\u0627\u0644\u0633\u064a\u0627\u0642": 5570, "\u0643\u0648\u064a\u0646": 5571, "\u0623\u062c\u0633\u0627\u0645": 5572, "\u0627\u0644\u0645\u0631\u0643\u0632": 5573, "\u064a\u0645\u064a\u0627\u0626\u064a": 5574, "\u0627\u0644\u0645\u062b\u064a\u0631\u0629": 5575, "\u0627\u0644\u062e\u064a\u0627\u0644": 5576, "\u0628\u0645\u0642\u062f\u0648\u0631": 5577, "\u0627\u0644\u0632\u0631\u0642\u0627\u0621": 5578, "\u0625\u0634\u0627\u0631\u0629": 5579, "\u0628\u0648\u0633": 5580, "\u062c\u0648\u0639": 5581, "\u0637\u0646\u064a\u0646": 5582, "\u0639\u0627\u0644\u064a": 5583, "\u0645\u062e\u0637": 5584, "\u0645\u0631\u0627\u0642\u0628\u0629": 5585, "\u0646\u062f\u0639": 5586, "\u064a\u0627\u0644": 5587, "\u0627\u0644\u0642\u062f": 5588, "\u0646\u0627\u0647\u0645": 5589, "\u0627\u0644\u0645\u0647\u0646": 5590, "\u064a\u0646\u0645\u0648": 5591, "\u064a\u0631\u0627\u0645": 5592, "\u0642\u062f\u0645\u064a": 5593, "\u0627\u0644\u0630\u0643\u0631": 5594, "\u0625\u0644\u062a": 5595, "\u062a\u0631\u0643\u062a": 5596, "\u0648\u064a\u0642\u0648\u0645": 5597, "\u0627\u0644\u062e\u0627\u0637": 5598, "\u0628\u062a\u063a\u064a\u064a\u0631": 5599, "\u0645\u0635\u0627": 5600, "\u0633\u0623\u0631\u064a\u0643\u0645": 5601, "\u062f\u0631\u0627\u0633\u0627\u062a": 5602, "\u0643\u0628\u0648\u062a": 5603, "\u0645\u0631\u0627\u0643\u0632": 5604, "\u062d\u062f\u064a\u062b\u064a": 5605, "\u0627\u0644\u0641\u0642\u064a\u0631\u0629": 5606, "\".": 5607, "\u0626\u064a\u0627": 5608, "\u0627\u062f\u0629": 5609, "\u0628\u0648\u0637": 5610, "\u062d\u0631\u0641": 5611, "\u062d\u0642\u064a\u0642": 5612, "\u062e\u062f\u0645\u0627\u062a": 5613, "\u0631\u0639\u0629": 5614, "\u0633\u062c\u0629": 5615, "\u0642\u0648\u0649": 5616, "\u0645\u0623\u0644": 5617, "\u0645\u0627\u0645\u0629": 5618, "\u0627\u0644\u0645\u0628\u0627\u062f": 5619, "\u0627\u0644\u0645\u062d\u0627\u062f\u062b\u0629": 5620, "\u0645\u0639\u0627\u062f": 5621, "\u062d\u062f\u0651": 5622, "\u0627\u0644\u0627\u0633\u0627": 5623, "\u0646\u064a\u0648": 5624, "\u0627\u0644\u0631\u0648\u062d": 5625, "\u062a\u0645\u0643\u0646\u062a": 5626, "\u0648\u0628\u064a\u0627": 5627, "\u0623\u062a\u0643\u0644\u0645": 5628, "\u0648\u062c\u062f\u0648\u0627": 5629, "\u062a\u0643\u0648\u0646\u0648\u0627": 5630, "\u0627\u0644\u0642\u0631\u064a\u0629": 5631, "\u0627\u0644\u0631\u0642\u0645\u064a": 5632, "\u0645\u0646\u0632\u0644\u064a": 5633, "\u0628\u0634\u0631\u064a\u0629": 5634, "\u064a\u0623\u062a\u0648\u0646": 5635, "\u0644\u0644\u0630\u0647\u0627\u0628": 5636, "\u0623\u0633\u062a\u062e\u062f\u0645": 5637, "\u0626\u0630": 5638, "\u0628\u0627\u0644\u0623\u0645\u0631": 5639, "\u0628\u0623\u0634\u064a\u0627\u0621": 5640, "\u062d\u0636\u0631": 5641, "\u062f\u0641\u0642": 5642, "\u0634\u062d": 5643, "\u0637\u0627\u0644\u0645\u0627": 5644, "\u063a\u0628\u0648\u0646": 5645, "\u0641\u0623": 5646, "\u0641\u0636\u0627\u0621": 5647, "\u0644\u0639\u062f\u0629": 5648, "\u0645\u062d\u062f\u062f": 5649, "\u0648\u063a\u0631\u0627": 5650, "\u0643\u0646\u062f\u0627": 5651, "\u0642\u062f\u0645\u0627": 5652, "\u0627\u0644\u0634\u0631\u064a\u062d\u0629": 5653, "\u0645\u062a\u0647\u0627": 5654, "\u0645\u062a\u0639\u0644\u0642": 5655, "\u0648\u0643\u0623\u0646\u0647": 5656, "\u0623\u0633\u0644\u0648\u0628": 5657, "\u062e\u0637\u064a": 5658, "\u0627\u0644\u0645\u062c\u0631\u0627\u062a": 5659, "\u0641\u0643\u0631\u0646\u0627": 5660, "\u0625\u0644\u064a\u0647\u0645": 5661, "\u062c\u0646\u0648\u0646": 5662, "\u0634\u0627\u0631\u0639": 5663, "\u0639\u0631\u0641\u062a": 5664, "\u0643\u064a\u0646\u064a\u0627": 5665, "\u0627\u0644\u062d\u0631\u0648\u0628": 5666, "\u0627\u0644\u0630\u0627\u062a\u064a\u0629": 5667, "\u0627\u0644\u0648\u0633\u0637\u0649": 5668, "\u0625\u0631\u0633\u0627\u0644": 5669, "\u0626\u064a\u0627\u064b": 5670, "\u0628\u0627\u0644\u0643\u062b\u064a\u0631": 5671, "\u0631\u0633\u0627\u0626\u0644": 5672, "\u0644\u0646\u062a": 5673, "\u0646\u0623\u0645\u0644": 5674, "\u0647\u0627\u0646": 5675, "\u0648\u0627\u0644\u0646\u0627\u0633": 5676, "\u0641\u064a\u0636": 5677, "\u0641\u064a\u0642": 5678, "\u0648\u0646\u0646\u0627": 5679, "\u0631\u064a\u064a\u0646": 5680, "\u064a\u0639\u0631\u0636": 5681, "\u0627\u0644\u0631\u0642\u0635": 5682, "\u0628\u062a\u0633": 5683, "\u0648\u0633\u0637\u0629": 5684, "\u0627\u0626\u062f": 5685, "\u0628\u0637\u0627\u0642\u0629": 5686, "\u0623\u0633\u0645\u0627\u0643": 5687, "\u0634\u062e\u0635\u0627\u064b": 5688, "\u0637\u0644\u062d": 5689, "\u0627\u0644\u062c\u0646\u0648\u0628\u064a": 5690, "\u0628\u0631\u0645\u062c\u0629": 5691, "\u0627\u0644\u0645\u0642\u0628\u0644\u0629": 5692, "qu": 5693, "\u0627\u0644\u0645\u062e\u0637\u0637": 5694, "\u0644\u0644\u0627\u0646": 5695, "\u0623\u064a\u0651": 5696, "\u063a\u064a\u0631\u062a": 5697, "\u0645\u0633\u0643": 5698, "\u0631\u0627\u0626\u0645": 5699, "\u0627\u0644\u0645\u0633\u062a\u0647\u0644\u0643": 5700, "\u0631\u0623\u064a\u062a\u0645": 5701, "\u0628\u0627\u0644\u0644\u063a\u0629": 5702, "\u062a\u062a\u0645\u0643\u0646": 5703, "\u062c\u0647\u0627": 5704, "\u0633\u0639\u0631": 5705, "\u0634\u064a\u0631": 5706, "\u0645\u0642\u0637": 5707, "\u0646\u063a\u064a\u0631": 5708, "\u0648\u064a\u062a\u0645": 5709, "\u0651\u0641": 5710, "\u0627\u062a\u0644": 5711, "\u0627\u062a\u0647": 5712, "\u0644\u0627\u062d\u0642": 5713, "\u0627\u0644\u0639\u0627\u0644\u064a\u0629": 5714, "\u064a\u0639\u0627\u0646\u064a": 5715, "\u0627\u0644\u0646\u0642\u0644": 5716, "\u064a\u062a\u0639\u0644\u0645": 5717, "\u0627\u0644\u0641\u0646\u0627": 5718, "\u0639\u0645\u064a\u0642": 5719, "\u0644\u0648\u062d\u062f": 5720, "\u0648\u0642\u062a\u0627": 5721, "\u0641\u062a\u0631\u0627\u0636\u064a": 5722, "\u0633\u0631\u0649": 5723, "\u0645\u0635\u0646\u0639": 5724, "\u063a\u0644\u0627\u0644": 5725, "\u064a\u0633\u062a\u0645\u0631": 5726, "\u0628\u0627\u0633\u062a\u0645\u0631\u0627\u0631": 5727, "\u0642\u0631\u0627\u0631\u0627\u062a": 5728, "\u062a\u0639\u062a\u0642\u062f\u0648\u0646": 5729, "\u064a\u0641\u0643\u0631\u0648\u0646": 5730, "\u0623\u062d\u064a\u0627\u0646\u0627\u064b": 5731, "\"[": 5732, "\u0625\u062f\u0631\u0627\u0643": 5733, "\u0627\u0634\u062e\u0627\u0635": 5734, "\u062b\u0642\u0629": 5735, "\u0634\u0641\u064a\u0627\u062a": 5736, "\u0635\u064a\u062f": 5737, "\u0641\u062c": 5738, "\u064a\u0648\u062f": 5739, "\u0645\u0646\u0637\u0642\u064a": 5740, "\u0627\u0644\u0623\u0628\u062d\u0627\u062b": 5741, "\u0631\u0627\u0629": 5742, "\u0644\u0644\u0647": 5743, "\u0648\u0645\u0631\u0629": 5744, "\u0627\u0644\u062c\u0628\u0627\u0644": 5745, "\u064a\u062f\u0627\u0646": 5746, "\u0639\u0644\u0645\u064a\u0629": 5747, "\u0648\u0623\u062e\u0630": 5748, "\u0643\u0627\u062b\u0631": 5749, "\u0645\u0634\u0627\u0639\u0631": 5750, "\u0639\u0635\u0628\u064a\u0629": 5751, "\u064a\u0630\u0647\u0628\u0648\u0646": 5752, "\u0623\u0643\u062a": 5753, "\u0623\u0633\u062a\u0637\u0639": 5754, "\u0627\u0639\u0644\u0645": 5755, "\u062b\u0627\u0631\u0629": 5756, "\u0630\u0627\u0644\u0643": 5757, "\u0638\u0629": 5758, "\u0645\u064e": 5759, "\u0648\u0627\u0644\u0627\u0633\u062a": 5760, "\u0627\u0644\u0631\u064a": 5761, "\u0627\u0646\u062a\u0647": 5762, "\u0627\u0644\u0623\u062d\u062f\u0627\u062b": 5763, "\u0628\u0627\u064a": 5764, "\u0628\u062a\u0637\u0648\u064a\u0631": 5765, "\u0627\u0644\u062f\u0639\u0645": 5766, "\u0633\u0628\u062a\u0645\u0628\u0631": 5767, "\u0648\u0623\u062e\u064a\u0631": 5768, "\u062a\u0639\u0642\u064a": 5769, "\u0644\u0646\u062f\u0627": 5770, "\u064a\u0643\u0648\u0646\u0648\u0646": 5771, "\u0623\u0639\u062f\u0627\u062f": 5772, "\u0631\u0627\u0626\u0639\u0627\u064b": 5773, "\u0622\u062e\u0631\u0648\u0646": 5774, "\u062c\u0646\u0633": 5775, "\u0645\u0642\u064a\u0627\u0633": 5776, "\u0646\u0638\u0627\u0645\u0646\u0627": 5777, "\u0641\u0638\u064a\u0639": 5778, "\u0627\u0644\u0623\u0639\u0636\u0627\u0621": 5779, "amp": 5780, "ar": 5781, "\u0623\u062f\u0627\u0621": 5782, "\u0624\u0647\u0627": 5783, "\u062e\u0646": 5784, "\u0636\u0627\u0631": 5785, "\u0639\u064f": 5786, "\u064a\u0628\u0642\u0649": 5787, "\u0627\u0644\u0645\u0633\u0627\u0639\u062f": 5788, "\u0627\u062a\u062d\u062f\u062b": 5789, "\u0627\u0644\u062a\u0643\u0646\u0644\u0648\u062c\u064a\u0627": 5790, "\u064a\u0627\u0628": 5791, "\u0627\u0644\u0623\u0628": 5792, "\"\",": 5793, "\u0643\u0644\u064a\u0627\u064b": 5794, "\u0644\u0644\u062f": 5795, "\u0627\u0644\u0646\u0641\u0627": 5796, "\u0648\u0642\u0639\u0629": 5797, "\u0627\u0644\u0633\u0631\u064a\u0639": 5798, "\u0648\u062c\u0627\u062a": 5799, "\u0627\u0644\u0642\u0645\u0629": 5800, "\u0627\u0644\u0637\u0642\u0633": 5801, "\u0627\u0644\u0635\u0646\u062f\u0648\u0642": 5802, "\u0648\u064a\u0636": 5803, "\u0627\u0644\u062f\u0648\u0627\u0621": 5804, "\u0648\u0623\u062d\u062f": 5805, "\u0627\u0644\u0645\u0646\u062d": 5806, "\u0623\u062d\u0633": 5807, "\u0645\u0635\u0645\u0645": 5808, "\u0627\u0644\u0628\u064a\u0626\u064a": 5809, "\u0627\u0644\u0641\u064a\u0632\u064a\u0627": 5810, "\u0627\u0644\u062a\u062d\u0631\u0643": 5811, "\u0645\u0647\u0627\u0631\u0627\u062a": 5812, "\u0645\u0639\u0631\u0648\u0641\u0629": 5813, "\u0623\u0639\u0644": 5814, "\u062c\u0646\u064a": 5815, "\u062d\u0641\u0638": 5816, "\u0634\u0647\u0627": 5817, "\u0642\u0634\u0629": 5818, "\u0646\u0634\u0627\u0647\u062f": 5819, "\u0627\u0644\u0642\u062f\u0631": 5820, "\u0630\u0627\u0647": 5821, "\u0633\u062a\u062d\u0635\u0644": 5822, "\u0627\u0644\u0623\u0644\u0645": 5823, "\u0631\u0627\u0633": 5824, "\u0642\u062f\u0645\u0627\u064b": 5825, "\u0644\u0644\u0623\u0633\u0641": 5826, "\u064a\u062a\u0648\u0642\u0641": 5827, "\u0627\u0644\u0634\u0645\u0627\u0644": 5828, "\u0645\u062a\u0646": 5829, "\u0645\u062a\u0647": 5830, "\u0648\u064a\u0628": 5831, "\u0648\u0628\u0630\u0644\u0643": 5832, "\u0627\u0644\u0645\u062a\u0639\u0629": 5833, "\u0642\u0627\u062f\u0631\u0627": 5834, "\u0641\u0642\u062f\u0627\u0646": 5835, "\u0632\u0627\u0648\u064a\u0629": 5836, "\u062a\u0644\u0639\u0628": 5837, "\u0645\u0634\u062a\u0631\u0643": 5838, "\u0644\u0633\u0644\u0629": 5839, "\u0645\u0627\u0631\u064a\u0629": 5840, "\u062a\u0633\u062a\u0645\u0631": 5841, "\u0627\u0644\u062c\u0646\u0648\u0628": 5842, "\u0633\u0645\u0639\u0646\u0627": 5843, "\u0644\u0627\u062d\u0638\u062a": 5844, "\u0645\u0645\u062a\u0627\u0632": 5845, "\u0627\u0644\u0645\u0648\u0633\u064a\u0642\u064a\u0629": 5846, "\u0623\u063a\u0646\u064a\u0629": 5847, "\u0627\u0644\u062d\u0642\u0648\u0642": 5848, "\u0632\u0645\u0644\u0627\u0626\u064a": 5849, "600": 5850, "\u0623\u0628\u062f": 5851, "\u0627\u0639\u0646\u064a": 5852, "\u0627\u0633\u0645\u062d\u0648\u0627": 5853, "\u062a\u0631\u0627\u0647": 5854, "\u0635\u0641\u0629": 5855, "\u0645\u0627\u0632\u0627\u0644": 5856, "\u0627\u0644\u0633\u0645": 5857, "\u062d\u064a\u0632": 5858, "\u0628\u0631\u062a": 5859, "\u0643\u0648\u0646\u0646\u0627": 5860, "\u0645\u062a\u0648\u0627": 5861, "\u0628\u0639\u0636\u0643\u0645": 5862, "\u0648\u0633\u0629": 5863, "\u0623\u062a\u0639\u0644\u0645": 5864, "\u0627\u0644\u0645\u062a\u0627": 5865, "\u0627\u0633\u062a\u0631": 5866, "\u0623\u0645\u0631\u064c": 5867, "\u0643\u0631\u064a\u0627\u062a": 5868, "\u0643\u0627\u0645\u064a\u0631\u0627": 5869, "\u0627\u0644\u0645\u0634\u062a\u0631\u0643\u0629": 5870, "\u062e\u0627\u0637\u0626": 5871, "\u0627\u062c\u062a\u0645\u0627\u0639\u064a\u0629": 5872, "\u0627\u0644\u062e\u0645\u0633\u0629": 5873, "\u0625\u062d\u0633\u0627\u0633": 5874, "\u0627\ufef7": 5875, "\u062a\u062a\u062c": 5876, "\u062c\u0644\u0629": 5877, "\u0637\u0645": 5878, "\u0644\u0634\u064a\u0621": 5879, "\u0627\u0644\u0645\u0626\u0627\u062a": 5880, "\u0647\u0627\u0631\u0641": 5881, "\u0627\u0644\u062d\u064a\u062a\u0627\u0646": 5882, "\u0625\u0646\u062a": 5883, "\u0648\u064a\u0643\u064a": 5884, "\u062c\u0627\u0631\u064a": 5885, "\u0628\u0637\u064a": 5886, "\u0627\u0628\u0646\u064a": 5887, "\u0641\u0644\u0648\u0646": 5888, "\u0633\u064a\u0627\u0642": 5889, "196": 5890, "\u0623\u062f\u0631\u064a": 5891, "\u0646\u062f\u0642": 5892, "\u0633\u0627\u0628\u0642\u0627": 5893, "\u063a\u0648\u063a\u0644": 5894, "\u0627\u0644\u0647\u064a\u062f\u0631": 5895, "\u0627\u0644\u0627\u0639\u062a\u0628\u0627\u0631": 5896, "\u0645\u062a\u0627\u062d\u0629": 5897, "\u0641\u0631\u0627\u0646\u0633\u064a\u0633\u0643\u0648": 5898, "1000": 5899, "22": 5900, "\u0622\u062b\u0627\u0631": 5901, "\u0623\u0638\u0647\u0631": 5902, "\u0623\u063a\u0644": 5903, "\u0628\u0627\u0644\u0634": 5904, "\u062c\u0628\u0644": 5905, "\u062e\u0628\u064a\u0631": 5906, "\u0630\u0643\u0627\u0621": 5907, "\u0635\u064a\u0627": 5908, "\u0635\u0646\u0629": 5909, "\u0641\u0644\u0648": 5910, "\u0645\u062e\u0637\u0637": 5911, "\u0645\u0627\u0631\u062a": 5912, "\u064a\u0646\u062c\u062d": 5913, "\u0633\u062a\u064a\u0646": 5914, "\u0644\u064a\u0642": 5915, "\u0643\u0644\u0647\u0645": 5916, "\u0627\u0645\u064a": 5917, "\u064a\u0645\u064a\u0644": 5918, "\u0648\u0631\u064a\u0646": 5919, "\u0627\u0644\u062d\u0631\u0643\u0627\u062a": 5920, "\u0628\u0627\u0633\u0645": 5921, "\u0645\u062a\u0634\u0627\u0628\u0647": 5922, "\u0646\u062a\u0648\u0642\u0639": 5923, "\u0648\u0642\u062a\u0647\u0627": 5924, "\u062a\u062a\u0630\u0643\u0631": 5925, "\u062a\u0647\u062a\u0645": 5926, "\u0642\u062a\u0646\u0627": 5927, "\u062a\u062f\u0641\u0642": 5928, "\u064a\u0642\u0648\u0645\u0648\u0627": 5929, "\u0639\u0627\u0626\u0644\u062a": 5930, "\u0627\u0644\u0645\u062d\u0627\u0641\u0638": 5931, "\u062c\u0630\u0628": 5932, "\u064a\u062e\u0628\u0631\u0646\u0627": 5933, "\u064a\u0646\u0638\u0631\u0648\u0646": 5934, "\u0627\u0644\u0645\u0643\u0633\u064a\u0643": 5935, "\u062f\u0648\u0645\u0627\u064b": 5936, "\u0645\u0631\u062d\u0628\u0627": 5937, "\u0623\u0630\u0646": 5938, "\u062a\u0628\u0646\u064a": 5939, "\u062d\u0632": 5940, "\u062f\u062b": 5941, "\u0632\u0631\u0639": 5942, "\u0642\u064a\u0627\u062f\u0629": 5943, "\u0646\u0645\u062a\u0644\u0643": 5944, "\u0648\u062b\u0645": 5945, "\u064a\u0633\u0628\u0628": 5946, "\u0651\u062a": 5947, "\u0627\u0644\u0645\u0643\u062a\u0628": 5948, "\u0648\u0627\u0633\u0639\u0629": 5949, "\u064a\u0631\u064a\u0629": 5950, "\u0639\u0646\u0635\u0631": 5951, "\u0648\u0631\u0648\u0628\u0627": 5952, "\u0633\u064a\u0637\u0631": 5953, "....": 5954,
[...]
