{
  "version": "1.0",
  "truncation": null,
  "padding": null,
  "added_tokens": [
    {
      "id": 0,
      "content": "[UNK]",
      "single_word": false,
      "lstrip": false,
      "rstrip": false,
      "normalized": false,
      "special": true
    },
    {
      "id": 1,
      "content": "[CLS]",
      "single_word": false,
      "lstrip": false,
      "rstrip": false,
      "normalized": false,
      "special": true
    },
    {
      "id": 2,
      "content": "[SEP]",
      "single_word": false,
      "lstrip": false,
      "rstrip": false,
      "normalized": false,
      "special": true
    },
    {
      "id": 3,
      "content": "[PAD]",
      "single_word": false,
      "lstrip": false,
      "rstrip": false,
      "normalized": false,
      "special": true
    },
    {
      "id": 4,
      "content": "[MASK]",
      "single_word": false,
      "lstrip": false,
      "rstrip": false,
      "normalized": false,
      "special": true
    }
  ],
  "normalizer": null,
  "pre_tokenizer": {
    "type": "Whitespace"
  },
  "post_processor": null,
  "decoder": null,
  "model": {
    "type": "BPE",
    "dropout": null,
    "unk_token": "[UNK]",
    "continuing_subword_prefix": null,
    "end_of_word_suffix": null,
    "fuse_unk": false,
    "vocab": {
      "[UNK]": 0,
      "[CLS]": 1,
      "[SEP]": 2,
      "[PAD]": 3,
      "[MASK]": 4,
      "!": 5,
      "\"": 6,
      "#": 7,
      "$": 8,
      "%": 9,
      "&": 10,
      "'": 11,
      "(": 12,
      ")": 13,
      "+": 14,
      ",": 15,
      "-": 16,
      ".": 17,
      "/": 18,
      "0": 19,
      "1": 20,
      "2": 21,
      "3": 22,
      "4": 23,
      "5": 24,
      "6": 25,
      "7": 26,
      "8": 27,
      "9": 28,
      ":": 29,
      ";": 30,
      "=": 31,
      "?": 32,
      "@": 33,
      "A": 34,
      "B": 35,
      "C": 36,
      "D": 37,
      "E": 38,
      "F": 39,
      "G": 40,
      "H": 41,
      "I": 42,
      "J": 43,
      "K": 44,
      "L": 45,
      "M": 46,
      "N": 47,
      "O": 48,
      "P": 49,
      "Q": 50,
      "R": 51,
      "S": 52,
      "T": 53,
      "U": 54,
      "V": 55,
      "W": 56,
      "X": 57,
      "Y": 58,
      "Z": 59,
      "[": 60,
      "\\": 61,
      "]": 62,
      "^": 63,
      "_": 64,
      "`": 65,
      "a": 66,
      "b": 67,
      "c": 68,
      "d": 69,
      "e": 70,
      "f": 71,
      "g": 72,
      "h": 73,
      "i": 74,
      "j": 75,
      "k": 76,
      "l": 77,
      "m": 78,
      "n": 79,
      "o": 80,
      "p": 81,
      "q": 82,
      "r": 83,
      "s": 84,
      "t": 85,
      "u": 86,
      "v": 87,
      "w": 88,
      "x": 89,
      "y": 90,
      "z": 91,
      "{": 92,
      "|": 93,
      "}": 94,
      "£": 95,
      "¥": 96,
      "«": 97,
      "®": 98,
      "²": 99,
      "»": 100,
      "¼": 101,
      "½": 102,
      "¾": 103,
      "Á": 104,
      "×": 105,
      "à": 106,
      "á": 107,
      "ç": 108,
      "è": 109,
      "é": 110,
      "ê": 111,
      "í": 112,
      "ó": 113,
      "،": 114,
      "؛": 115,
      "؟": 116,
      "ء": 117,
      "آ": 118,
      "أ": 119,
      "ؤ": 120,
      "إ": 121,
      "ئ": 122,
      "ا": 123,
      "ب": 124,
      "ة": 125,
      "ت": 126,
      "ث": 127,
      "ج": 128,
      "ح": 129,
      "خ": 130,
      "د": 131,
      "ذ": 132,
      "ر": 133,
      "ز": 134,
      "س": 135,
      "ش": 136,
      "ص": 137,
      "ض": 138,
      "ط": 139,
      "ظ": 140,
      "ع": 141,
      "غ": 142,
      "ـ": 143,
      "ف": 144,
      "ق": 145,
      "ك": 146,
      "ل": 147,
      "م": 148,
      "ن": 149,
      "ه": 150,
      "و": 151,
      "ى": 152,
      "ي": 153,
      "ً": 154,
      "ٌ": 155,
      "ٍ": 156,
      "َ": 157,
      "ُ": 158,
      "ِ": 159,
      "ّ": 160,
      "ْ": 161,
      "٠": 162,
      "١": 163,
      "٢": 164,
      "٣": 165,
      "٤": 166,
      "٥": 167,
      "٦": 168,
      "٧": 169,
      "٨": 170,
      "٩": 171,
      "٪": 172,
      "٫": 173,
      "٬": 174,
      "ٰ": 175,
      "ٱ": 176,
      "پ": 177,
      "چ": 178,
      "ڤ": 179,
      "ڨ": 180,
      "ک": 181,
      "ڭ": 182,
      "گ": 183,
      "ڴ": 184,
      "ھ": 185,
      "ی": 186,
      "۲": 187,
      "۷": 188,
      "ย": 189,
      "ร": 190,
      "อ": 191,
      "่": 192,
      "‎": 193,
      "‏": 194,
      "–": 195,
      "—": 196,
      "‘": 197,
      "’": 198,
      "“": 199,
      "”": 200,
      "…": 201,
      "‪": 202,
      "‬": 203,
      "™": 204,
      "♪": 205,
      "♫": 206,
      "ﺀ": 207,
      "ﺁ": 208,
      "ﺃ": 209,
      "ﺄ": 210,
      "ﺅ": 211,
      "ﺆ": 212,
      "ﺇ": 213,
      "ﺈ": 214,
      "ﺉ": 215,
      "ﺊ": 216,
      "ﺋ": 217,
      "ﺌ": 218,
      "ﺍ": 219,
      "ﺎ": 220,
      "ﺏ": 221,
      "ﺐ": 222,
      "ﺑ": 223,
      "ﺒ": 224,
      "ﺓ": 225,
      "ﺔ": 226,
      "ﺕ": 227,
      "ﺖ": 228,
      "ﺗ": 229,
      "ﺘ": 230,
      "ﺙ": 231,
      "ﺚ": 232,
      "ﺛ": 233,
      "ﺜ": 234,
      "ﺝ": 235,
      "ﺟ": 236,
      "ﺠ": 237,
      "ﺢ": 238,
      "ﺣ": 239,
      "ﺤ": 240,
      "ﺦ": 241,
      "ﺧ": 242,
      "ﺨ": 243,
      "ﺩ": 244,
      "ﺪ": 245,
      "ﺫ": 246,
      "ﺬ": 247,
      "ﺭ": 248,
      "ﺮ": 249,
      "ﺯ": 250,
      "ﺰ": 251,
      "ﺱ": 252,
      "ﺲ": 253,
      "ﺳ": 254,
      "ﺴ": 255,
      "ﺶ": 256,
      "ﺷ": 257,
      "ﺸ": 258,
      "ﺹ": 259,
      "ﺺ": 260,
      "ﺻ": 261,
      "ﺼ": 262,
      "ﺽ": 263,
      "ﺾ": 264,
      "ﺿ": 265,
      "ﻀ": 266,
      "ﻂ": 267,
      "ﻃ": 268,
      "ﻄ": 269,
      "ﻇ": 270,
      "ﻈ": 271,
      "ﻉ": 272,
      "ﻊ": 273,
      "ﻋ": 274,
      "ﻌ": 275,
      "ﻎ": 276,
      "ﻏ": 277,
      "ﻐ": 278,
      "ﻑ": 279,
      "ﻒ": 280,
      "ﻓ": 281,
      "ﻔ": 282,
      "ﻕ": 283,
      "ﻖ": 284,
      "ﻗ": 285,
      "ﻘ": 286,
      "ﻙ": 287,
      "ﻚ": 288,
      "ﻛ": 289,
      "ﻜ": 290,
      "ﻝ": 291,
      "ﻞ": 292,
      "ﻟ": 293,
      "ﻠ": 294,
      "ﻡ": 295,
      "ﻢ": 296,
      "ﻣ": 297,
      "ﻤ": 298,
      "ﻥ": 299,
      "ﻦ": 300,
      "ﻧ": 301,
      "ﻨ": 302,
      "ﻩ": 303,
      "ﻪ": 304,
      "ﻫ": 305,
      "ﻬ": 306,
      "ﻭ": 307,
      "ﻮ": 308,
      "ﻱ": 309,
      "ﻲ": 310,
      "ﻳ": 311,
      "ﻴ": 312,
      "ﻵ": 313,
      "ﻶ": 314,
      "ﻷ": 315,
      "ﻸ": 316,
      "ﻹ": 317,
      "ﻻ": 318,
      "ﻼ": 319,
      "ال": 320,
      "نا": 321,
      "في": 322,
      "ما": 323,
      "من": 324,
      "ان": 325,
      "الم": 326,
      "عل": 327,
      "أن": 328,
      "ية": 329,
      "ها": 330,
      "لك": 331,
      "ات": 332,
      "ون": 333,
      "لا": 334,
      "ذا": 335,
      "ين": 336,
      "وا": 337,
      "الت": 338,
      "ير": 339,
      "يا": 340,
      "ول": 341,
      "ست": 342,
      "الأ": 343,
      "ري": 344,
      "را": 345,
      "\"\"": 346,
      "على": 347,
      "دي": 348,
      "هم": 349,
      "كن": 350,
      "هذا": 351,
      "قد": 352,
      "لي": 353,
      "عن": 354,
      "كان": 355,
      "ار": 356,
      "كل": 357,
      "ام": 358,
      "مع": 359,
      "ذه": 360,
      "يم": 361,
      "حد": 362,
      "ور": 363,
      "الع": 364,
      "بع": 365,
      "لل": 366,
      "الح": 367,
      "ذلك": 368,
      "دا": 369,
      "وم": 370,
      "هذه": 371,
      "يع": 372,
      "هو": 373,
      "سا": 374,
      "قا": 375,
      "لكن": 376,
      "رة": 377,
      "إن": 378,
      "دة": 379,
      "الب": 380,
      "الن": 381,
      "مل": 382,
      "سي": 383,
      "التي": 384,
      "الذ": 385,
      "قة": 386,
      "هنا": 387,
      "الك": 388,
      "يت": 389,
      "إل": 390,
      "الا": 391,
      "با": 392,
      "وق": 393,
      "الس": 394,
      "وج": 395,
      "الج": 396,
      "إلى": 397,
      "الق": 398,
      "لم": 399,
      "حت": 400,
      "حي": 401,
      "هي": 402,
      "مر": 403,
      "..": 404,
      "كم": 405,
      "بر": 406,
      "يمكن": 407,
      "كون": 408,
      "وع": 409,
      "بة": 410,
      "الش": 411,
      "وت": 412,
      "مت": 413,
      "بد": 414,
      "لة": 415,
      "خر": 416,
      "الط": 417,
      "الف": 418,
      "أو": 419,
      "يد": 420,
      "ني": 421,
      "تر": 422,
      "الص": 423,
      "بل": 424,
      "قي": 425,
      "الذي": 426,
      "وي": 427,
      "الي": 428,
      "لت": 429,
      "رف": 430,
      "بي": 431,
      "حا": 432,
      "الخ": 433,
      "كث": 434,
      "الر": 435,
      "عا": 436,
      "تم": 437,
      "يف": 438,
      "هناك": 439,
      "الآ": 440,
      "علي": 441,
      "أي": 442,
      "دما": 443,
      "خل": 444,
      "قط": 445,
      "وب": 446,
      "عت": 447,
      "الإ": 448,
      "عة": 449,
      "--": 450,
      "غير": 451,
      "جم": 452,
      "شر": 453,
      "ضا": 454,
      "بت": 455,
      "شي": 456,
      "جا": 457,
      "وف": 458,
      "ولكن": 459,
      "نف": 460,
      "در": 461,
      "كر": 462,
      "لدي": 463,
      "شا": 464,
      "مث": 465,
      "سن": 466,
      "ود": 467,
      "أنه": 468,
      "ناس": 469,
      "سم": 470,
      "فا": 471,
      "صل": 472,
      "خص": 473,
      "خت": 474,
      "علم": 475,
      "كت": 476,
      "حدث": 477,
      "عندما": 478,
      "كثر": 479,
      "تق": 480,
      "نح": 481,
      "تح": 482,
      "عد": 483,
      "ًا": 484,
      "مة": 485,
      "يل": 486,
      "كانت": 487,
      "بعض": 488,
      "الآن": 489,
      "رب": 490,
      "وس": 491,
      "إذا": 492,
      "أت": 493,
      "مج": 494,
      "الد": 495,
      "شكل": 496,
      "سب": 497,
      "وأ": 498,
      "نت": 499,
      "كنت": 500,
      "عم": 501,
      "يج": 502,
      "اص": 503,
      "بح": 504,
      "تلك": 505,
      "تص": 506,
      "ظر": 507,
      "تع": 508,
      "به": 509,
      "خد": 510,
      "ستط": 511,
      "بعد": 512,
      "ياء": 513,
      "فة": 514,
      "فعل": 515,
      "الناس": 516,
      "اج": 517,
      "رض": 518,
      "الث": 519,
      "00": 520,
      "وض": 521,
      "وك": 522,
      "اً": 523,
      "نات": 524,
      "يق": 525,
      "ولا": 526,
      "بين": 527,
      "جدا": 528,
      "العالم": 529,
      "الى": 530,
      "ليس": 531,
      "رك": 532,
      "ستخد": 533,
      "حة": 534,
      "أكثر": 535,
      "أنا": 536,
      "هر": 537,
      "ثير": 538,
      "ائ": 539,
      "قل": 540,
      "سنا": 541,
      "أخ": 542,
      "لأن": 543,
      "فقط": 544,
      "واحد": 545,
      "بير": 546,
      "لقد": 547,
      "بط": 548,
      "تما": 549,
      "قبل": 550,
      "نع": 551,
      "سة": 552,
      "نحن": 553,
      "مات": 554,
      "هل": 555,
      "شيء": 556,
      "مثل": 557,
      "تج": 558,
      "مي": 559,
      "نفس": 560,
      "كا": 561,
      "ورة": 562,
      "الغ": 563,
      "حيث": 564,
      "لن": 565,
      "جل": 566,
      "ماذا": 567,
      "عمل": 568,
      "فك": 569,
      "خرى": 570,
      "عام": 571,
      "لو": 572,
      "عتقد": 573,
      "اب": 574,
      "رد": 575,
      "واق": 576,
      "ريد": 577,
      "شياء": 578,
      "ستطيع": 579,
      "المت": 580,
      "وقت": 581,
      "مو": 582,
      "يات": 583,
      "طف": 584,
      "أس": 585,
      "فض": 586,
      "حتى": 587,
      "حول": 588,
      "كما": 589,
      "رق": 590,
      "شخص": 591,
      "تت": 592,
      "الما": 593,
      "ديد": 594,
      "طة": 595,
      "ريق": 596,
      "ئة": 597,
      "ريقة": 598,
      "هن": 599,
      "وات": 600,
      "كيف": 601,
      "اد": 602,
      "فت": 603,
      "رات": 604,
      "كي": 605,
      "هد": 606,
      "الل": 607,
      "يكون": 608,
      "ثم": 609,
      "يش": 610,
      "عب": 611,
      "حسنا": 612,
      "مس": 613,
      "لذا": 614,
      "الو": 615,
      "بها": 616,
      "قيقة": 617,
      "أع": 618,
      "الكثير": 619,
      "وجد": 620,
      "واقع": 621,
      "جز": 622,
      "أص": 623,
      "راء": 624,
      "رت": 625,
      "جميع": 626,
      "مكان": 627,
      "ئي": 628,
      "وال": 629,
      "قص": 630,
      "اليوم": 631,
      "منا": 632,
      "خاص": 633,
      "خلال": 634,
      "وهذا": 635,
      "طل": 636,
      "خط": 637,
      "وفي": 638,
      "مد": 639,
      "رائ": 640,
      "المن": 641,
      "نوع": 642,
      "الان": 643,
      "قوم": 644,
      "أك": 645,
      "سوف": 646,
      "مست": 647,
      "شك": 648,
      "قول": 649,
      "ختل": 650,
      "الذين": 651,
      "أيضا": 652,
      "سل": 653,
      "فر": 654,
      "أم": 655,
      "اني": 656,
      "تكون": 657,
      "سر": 658,
      "است": 659,
      "عر": 660,
      "يام": 661,
      "بيع": 662,
      "جد": 663,
      "بأن": 664,
      "كبير": 665,
      "انه": 666,
      "يجب": 667,
      "أحد": 668,
      "لدينا": 669,
      "الة": 670,
      "حاول": 671,
      "طا": 672,
      "جي": 673,
      "حل": 674,
      "بق": 675,
      "الواقع": 676,
      "فضل": 677,
      "ياة": 678,
      "بنا": 679,
      "الإن": 680,
      "الض": 681,
      "لذلك": 682,
      "كة": 683,
      "عني": 684,
      "تي": 685,
      "تن": 686,
      "ارة": 687,
      "بشكل": 688,
      "فية": 689,
      "جة": 690,
      "فع": 691,
      "سبة": 692,
      "ته": 693,
      "جداً": 694,
      "الأمر": 695,
      "أخرى": 696,
      "عي": 697,
      "وية": 698,
      "بدأ": 699,
      "أر": 700,
      "حظ": 701,
      "وص": 702,
      "العمل": 703,
      "آخر": 704,
      "نية": 705,
      "يرة": 706,
      "قر": 707,
      "غي": 708,
      "غا": 709,
      "لكم": 710,
      "بار": 711,
      "بإ": 712,
      "وة": 713,
      "الوقت": 714,
      "مرة": 715,
      "فإن": 716,
      "ياً": 717,
      "نظ": 718,
      "لاث": 719,
      "وقد": 720,
      "وان": 721,
      "أخذ": 722,
      "أل": 723,
      "بالت": 724,
      "تش": 725,
      "ئية": 726,
      "المد": 727,
      "لاً": 728,
      "حقا": 729,
      ".\"\"": 730,
      "وما": 731,
      "بدو": 732,
      "ستخدام": 733,
      "ومن": 734,
      "الأشياء": 735,
      "طي": 736,
      "يص": 737,
      "حين": 738,
      "أح": 739,
      "يمكنك": 740,
      "مختل": 741,
      "أنها": 742,
      "الأم": 743,
      "أش": 744,
      "المست": 745,
      "يمكننا": 746,
      "قلي": 747,
      "سية": 748,
      "تا": 749,
      "الز": 750,
      "بالن": 751,
      "بات": 752,
      "وهو": 753,
      "ستخدم": 754,
      "راً": 755,
      "طفال": 756,
      "سبب": 757,
      "المج": 758,
      "الية": 759,
      "حتاج": 760,
      "ضي": 761,
      "بن": 762,
      "مص": 763,
      "لنا": 764,
      "وه": 765,
      "ربما": 766,
      "تمع": 767,
      "وى": 768,
      "دع": 769,
      "يح": 770,
      "إنها": 771,
      "فى": 772,
      "بدا": 773,
      "وضع": 774,
      "له": 775,
      "فق": 776,
      "نة": 777,
      "مح": 778,
      "أعتقد": 779,
      "نظر": 780,
      "ماً": 781,
      "عليه": 782,
      "جموع": 783,
      "وز": 784,
      "انية": 785,
      "إنه": 786,
      "بية": 787,
      "ومات": 788,
      "فل": 789,
      "تعلم": 790,
      "اي": 791,
      "فكر": 792,
      "جه": 793,
      "صول": 794,
      "إلي": 795,
      "ضع": 796,
      "ديدة": 797,
      "عادة": 798,
      "وني": 799,
      "عدة": 800,
      "رفة": 801,
      "شيئ": 802,
      "قدم": 803,
      "كنا": 804,
      "ينة": 805,
      "بص": 806,
      "الات": 807,
      "قت": 808,
      "كثير": 809,
      "حر": 810,
      "والتي": 811,
      "حيات": 812,
      "جعل": 813,
      "صف": 814,
      "لأ": 815,
      "واحدة": 816,
      "جر": 817,
      "ولة": 818,
      "الحقيقة": 819,
      "والم": 820,
      "ولوج": 821,
      "سنة": 822,
      "ثلاث": 823,
      "ئل": 824,
      "فهم": 825,
      "لاء": 826,
      "انها": 827,
      "يز": 828,
      "يتم": 829,
      "الأس": 830,
      "أننا": 831,
      "طر": 832,
      "الأول": 833,
      "صة": 834,
      "ليست": 835,
      "بالم": 836,
      "وقع": 837,
      "لها": 838,
      "ذهب": 839,
      "الحياة": 840,
      "لكي": 841,
      "فيه": 842,
      "عند": 843,
      "عالم": 844,
      "قال": 845,
      "المر": 846,
      "تد": 847,
      "تخ": 848,
      "وهي": 849,
      "ساء": 850,
      "علينا": 851,
      "أفضل": 852,
      "العل": 853,
      "وح": 854,
      "يحدث": 855,
      "لد": 856,
      "ظم": 857,
      "قام": 858,
      "السيا": 859,
      "بم": 860,
      "يس": 861,
      "يوم": 862,
      "عية": 863,
      "اقة": 864,
      "غيرة": 865,
      "شكلة": 866,
      "بالنسبة": 867,
      "فيها": 868,
      "منذ": 869,
      "جن": 870,
      "...": 871,
      "ذكر": 872,
      "والت": 873,
      "حدة": 874,
      "سأ": 875,
      "قائ": 876,
      "او": 877,
      "حق": 878,
      "سيا": 879,
      "داخل": 880,
      "ذات": 881,
      "شار": 882,
      "أنت": 883,
      "ودة": 884,
      "قاد": 885,
      "البي": 886,
      "الام": 887,
      "لماذا": 888,
      "الجم": 889,
      "الشي": 890,
      "تها": 891,
      "اذا": 892,
      "تس": 893,
      "بك": 894,
      "حو": 895,
      "تنا": 896,
      "القيام": 897,
      "رؤ": 898,
      "ظهر": 899,
      "عات": 900,
      "حسناً": 901,
      "دائ": 902,
      "غل": 903,
      "وجود": 904,
      "شخاص": 905,
      "أول": 906,
      "كذلك": 907,
      "مق": 908,
      "رس": 909,
      "ضاء": 910,
      "فقد": 911,
      "السا": 912,
      "عبر": 913,
      "العام": 914,
      "زة": 915,
      "ملي": 916,
      "بعة": 917,
      "يك": 918,
      "الفي": 919,
      "وكان": 920,
      "علومات": 921,
      "تط": 922,
      "سنوات": 923,
      "قيق": 924,
      "المع": 925,
      "ذن": 926,
      "بما": 927,
      "يار": 928,
      "ديث": 929,
      "زل": 930,
      "وير": 931,
      "ضح": 932,
      "تك": 933,
      "رى": 934,
      "لام": 935,
      "بب": 936,
      "الخاص": 937,
      "مؤ": 938,
      "أريد": 939,
      "هند": 940,
      "كرة": 941,
      "بدأت": 942,
      "ليل": 943,
      "يكن": 944,
      "مان": 945,
      "اح": 946,
      "اق": 947,
      "بذلك": 948,
      "اله": 949,
      "ؤلاء": 950,
      "داً": 951,
      "النا": 952,
      "الاست": 953,
      "يوجد": 954,
      "الطريقة": 955,
      "وء": 956,
      "أة": 957,
      "كذا": 958,
      "جموعة": 959,
      "لأنه": 960,
      "ماء": 961,
      "سان": 962,
      "للت": 963,
      "ميم": 964,
      "وجه": 965,
      "غيير": 966,
      "صر": 967,
      "طريق": 968,
      "واء": 969,
      "فس": 970,
      "ناء": 971,
      "الحي": 972,
      "يقوم": 973,
      "صحي": 974,
      "الشخص": 975,
      "فكرة": 976,
      "أيضاً": 977,
      "لاق": 978,
      "بالف": 979,
      "فريق": 980,
      "كس": 981,
      "ساعد": 982,
      "نس": 983,
      "شئ": 984,
      "التح": 985,
      "\"\".": 986,
      "اع": 987,
      "هاية": 988,
      "الأرض": 989,
      "ترون": 990,
      "يانات": 991,
      "ضر": 992,
      "عليها": 993,
      "دل": 994,
      "مما": 995,
      "المنا": 996,
      "للم": 997,
      "أما": 998,
      "عدد": 999,
      "وسي": 1000,
      "دون": 1001,
      "طريقة": 1002,
      "مم": 1003,
      "درا": 1004,
      "ثر": 1005,
      "يبدو": 1006,
      "منها": 1007,
      "كانوا": 1008,
      "حن": 1009,
      "لاف": 1010,
      "شف": 1011,
      "تقوم": 1012,
      "والذي": 1013,
      "000": 1014,
      "عمال": 1015,
      "العديد": 1016,
      "يعني": 1017,
      "شاهد": 1018,
      "خا": 1019,
      "ضية": 1020,
      "غاية": 1021,
      "بس": 1022,
      "ريخ": 1023,
      "ونا": 1024,
      "ؤال": 1025,
      "مختلفة": 1026,
      "كنولوج": 1027,
      "تحت": 1028,
      "حية": 1029,
      "بناء": 1030,
      "اس": 1031,
      "لإ": 1032,
      "وط": 1033,
      "المح": 1034,
      "كبيرة": 1035,
      "زي": 1036,
      "بيل": 1037,
      "اث": 1038,
      "20": 1039,
      "يقول": 1040,
      "قاء": 1041,
      "المتحدة": 1042,
      "هات": 1043,
      "امل": 1044,
      "التص": 1045,
      "زا": 1046,
      "تل": 1047,
      "ثل": 1048,
      "هؤلاء": 1049,
      "جزء": 1050,
      "جار": 1051,
      "ارج": 1052,
      "فكير": 1053,
      "بال": 1054,
      "بوا": 1055,
      "تعرف": 1056,
      "19": 1057,
      "نين": 1058,
      "نعم": 1059,
      "باء": 1060,
      "أسا": 1061,
      "غة": 1062,
      "القر": 1063,
      "الأخ": 1064,
      "رار": 1065,
      "أكبر": 1066,
      "الشيء": 1067,
      "بسبب": 1068,
      "يست": 1069,
      "صنع": 1070,
      "البشر": 1071,
      "الآخر": 1072,
      "بحث": 1073,
      "مهم": 1074,
      "سيكون": 1075,
      "أتي": 1076,
      "الأطفال": 1077,
      "هما": 1078,
      "ويل": 1079,
      "هتما": 1080,
      "ركة": 1081,
      "ذج": 1082,
      "ترنت": 1083,
      "؟\"\"": 1084,
      "ريب": 1085,
      "الأن": 1086,
      "أد": 1087,
      "انت": 1088,
      "لهم": 1089,
      "شرة": 1090,
      "عليم": 1091,
      "حص": 1092,
      "ملا": 1093,
      "انا": 1094,
      "دماغ": 1095,
      "حلة": 1096,
      "حقاً": 1097,
      "راض": 1098,
      "دولا": 1099,
      "لان": 1100,
      "خرج": 1101,
      "جتما": 1102,
      "يعمل": 1103,
      "ظام": 1104,
      "البر": 1105,
      "وهذه": 1106,
      "أجل": 1107,
      "الطبيع": 1108,
      "تعلمون": 1109,
      "بالفعل": 1110,
      "وقف": 1111,
      "نظام": 1112,
      "نقوم": 1113,
      "جيد": 1114,
      "مض": 1115,
      "وار": 1116,
      "معظم": 1117,
      "أمر": 1118,
      "بهذا": 1119,
      "الولا": 1120,
      "يه": 1121,
      "أنني": 1122,
      "ريك": 1123,
      "المص": 1124,
      "مية": 1125,
      "سات": 1126,
      "الموا": 1127,
      "ومة": 1128,
      "حظة": 1129,
      "قتص": 1130,
      "يمة": 1131,
      "مجرد": 1132,
      "أنهم": 1133,
      "10": 1134,
      "فعله": 1135,
      "شروع": 1136,
      "وسط": 1137,
      "دية": 1138,
      "تستطيع": 1139,
      "جديدة": 1140,
      "أشياء": 1141,
      "باب": 1142,
      "طق": 1143,
      "قابل": 1144,
      "وظ": 1145,
      "لايا": 1146,
      "للح": 1147,
      "رج": 1148,
      "الأشخاص": 1149,
      "قمنا": 1150,
      "غم": 1151,
      "ئلة": 1152,
      "الطبع": 1153,
      "يين": 1154,
      "مش": 1155,
      "بش": 1156,
      "للا": 1157,
      "المعلومات": 1158,
      "واع": 1159,
      "استخدام": 1160,
      "لهذا": 1161,
      "المجتمع": 1162,
      "بطريقة": 1163,
      "إذن": 1164,
      "مسا": 1165,
      "داء": 1166,
      "المز": 1167,
      "لديهم": 1168,
      "نستطيع": 1169,
      "مجموعة": 1170,
      "ّة": 1171,
      "راق": 1172,
      "ريبا": 1173,
      "هور": 1174,
      "لق": 1175,
      "كنولوجيا": 1176,
      "كار": 1177,
      "حوالي": 1178,
      "إذاً": 1179,
      "لس": 1180,
      "مشا": 1181,
      "المث": 1182,
      "تماما": 1183,
      "الطاقة": 1184,
      "وأنا": 1185,
      "قمت": 1186,
      "شع": 1187,
      "مار": 1188,
      "التالي": 1189,
      "فه": 1190,
      "اء": 1191,
      "شكرا": 1192,
      "هنالك": 1193,
      "رأ": 1194,
      "للغاية": 1195,
      "موا": 1196,
      "داد": 1197,
      "حيط": 1198,
      "فات": 1199,
      "ونحن": 1200,
      "ثلاثة": 1201,
      "كو": 1202,
      "\"\"\"": 1203,
      "عليك": 1204,
      "ند": 1205,
      "عرض": 1206,
      "لات": 1207,
      "إي": 1208,
      "خبر": 1209,
      "ديو": 1210,
      "اخت": 1211,
      "الصورة": 1212,
      "صور": 1213,
      "فكار": 1214,
      "بإمكان": 1215,
      "نحو": 1216,
      "قاط": 1217,
      "فظ": 1218,
      "صورة": 1219,
      "انب": 1220,
      "حصل": 1221,
      "الخط": 1222,
      "دولار": 1223,
      "مز": 1224,
      "تحدث": 1225,
      "بحا": 1226,
      "تست": 1227,
      "الولايات": 1228,
      "جاه": 1229,
      "رؤية": 1230,
      "كري": 1231,
      "صد": 1232,
      "فين": 1233,
      "رائع": 1234,
      "أقل": 1235,
      "ساس": 1236,
      "خذ": 1237,
      "صغيرة": 1238,
      "بون": 1239,
      "حال": 1240,
      "يرا": 1241,
      "50": 1242,
      "طور": 1243,
      "هتمام": 1244,
      "كيفية": 1245,
      "مليون": 1246,
      "وبعد": 1247,
      "المسا": 1248,
      "أق": 1249,
      "صحيح": 1250,
      "مكن": 1251,
      "الحصول": 1252,
      "يُ": 1253,
      "ظمة": 1254,
      "ترك": 1255,
      "أخبر": 1256,
      "تقد": 1257,
      "عبة": 1258,
      "قطة": 1259,
      "المشا": 1260,
      "خم": 1261,
      "سين": 1262,
      "يستطيع": 1263,
      "هاز": 1264,
      "شة": 1265,
      "الحديث": 1266,
      "يفعل": 1267,
      "تُ": 1268,
      "النظر": 1269,
      "حث": 1270,
      "ديم": 1271,
      "طقة": 1272,
      "واصل": 1273,
      "ئات": 1274,
      "وكل": 1275,
      "بدون": 1276,
      "لديك": 1277,
      "ياه": 1278,
      "حقيقة": 1279,
      "الفكرة": 1280,
      "معرفة": 1281,
      "وث": 1282,
      "درسة": 1283,
      "درجة": 1284,
      "راد": 1285,
      "السؤال": 1286,
      "نفعل": 1287,
      "وأن": 1288,
      "عنا": 1289,
      "البيانات": 1290,
      "يمكنكم": 1291,
      "لب": 1292,
      "فريقيا": 1293,
      "200": 1294,
      "وتر": 1295,
      "ابة": 1296,
      "الوا": 1297,
      "كتب": 1298,
      "السبب": 1299,
      "أصبح": 1300,
      "وعندما": 1301,
      "الأخرى": 1302,
      "نعرف": 1303,
      "طلاق": 1304,
      "تأ": 1305,
      "ظن": 1306,
      "يادة": 1307,
      "يعرف": 1308,
      "بصورة": 1309,
      "الأولى": 1310,
      "جمع": 1311,
      "بسي": 1312,
      "الكل": 1313,
      "طان": 1314,
      "منه": 1315,
      "أرد": 1316,
      "سمى": 1317,
      "المس": 1318,
      "علق": 1319,
      "وانات": 1320,
      "أين": 1321,
      "اعت": 1322,
      "مال": 1323,
      "تز": 1324,
      "شري": 1325,
      "تكن": 1326,
      "وضوع": 1327,
      "الأح": 1328,
      "هاب": 1329,
      "التق": 1330,
      "الجميع": 1331,
      "لكل": 1332,
      "تين": 1333,
      "جديد": 1334,
      "السر": 1335,
      "أعرف": 1336,
      "الهند": 1337,
      "بحت": 1338,
      "ولم": 1339,
      "طلق": 1340,
      "بهذه": 1341,
      "عين": 1342,
      "النساء": 1343,
      "الدول": 1344,
      "النوع": 1345,
      "السل": 1346,
      "طلب": 1347,
      "أقول": 1348,
      "البعض": 1349,
      "الخاصة": 1350,
      "عرف": 1351,
      "قدر": 1352,
      "مجتمع": 1353,
      "السي": 1354,
      "الجن": 1355,
      "سمح": 1356,
      "سرعة": 1357,
      "نرى": 1358,
      "قصة": 1359,
      "الريا": 1360,
      "غط": 1361,
      "تمكن": 1362,
      "بان": 1363,
      "تعمل": 1364,
      "بني": 1365,
      "حات": 1366,
      "نحتاج": 1367,
      "وري": 1368,
      "يريد": 1369,
      "بالطبع": 1370,
      "أنّ": 1371,
      "قلت": 1372,
      "نفسي": 1373,
      "الجز": 1374,
      "لديه": 1375,
      "مشكلة": 1376,
      "ارت": 1377,
      "موذج": 1378,
      "قب": 1379,
      "منهم": 1380,
      "سائل": 1381,
      "الكبير": 1382,
      "ركات": 1383,
      "كام": 1384,
      "عشر": 1385,
      "هكذا": 1386,
      "بكة": 1387,
      "النظام": 1388,
      "وين": 1389,
      "اكثر": 1390,
      "الكت": 1391,
      "راه": 1392,
      "الحك": 1393,
      "الصين": 1394,
      "أث": 1395,
      "نهاية": 1396,
      "أنك": 1397,
      "ورك": 1398,
      "إست": 1399,
      "نفسه": 1400,
      "نش": 1401,
      "ويت": 1402,
      "يجعل": 1403,
      "ترى": 1404,
      "بكل": 1405,
      "لح": 1406,
      "القط": 1407,
      "المؤ": 1408,
      "مبا": 1409,
      "جال": 1410,
      "قات": 1411,
      "والأ": 1412,
      "المثال": 1413,
      "تقول": 1414,
      "رائعة": 1415,
      "المشكلة": 1416,
      "حاد": 1417,
      "جام": 1418,
      "تهم": 1419,
      "غر": 1420,
      "تريد": 1421,
      "الرا": 1422,
      "تقريبا": 1423,
      "وها": 1424,
      "الكون": 1425,
      "فاعل": 1426,
      "الوحي": 1427,
      "تغير": 1428,
      "قى": 1429,
      "الدماغ": 1430,
      "عنه": 1431,
      "صبح": 1432,
      "يفة": 1433,
      "كات": 1434,
      "يب": 1435,
      "ّر": 1436,
      "الماضي": 1437,
      "ارب": 1438,
      "اكت": 1439,
      "الفر": 1440,
      "شركة": 1441,
      "اعتقد": 1442,
      "بعي": 1443,
      "عملية": 1444,
      "دات": 1445,
      "بأ": 1446,
      "سبيل": 1447,
      "كز": 1448,
      "التفكير": 1449,
      "صنا": 1450,
      "سمع": 1451,
      "مه": 1452,
      "قيقي": 1453,
      "مط": 1454,
      "فيما": 1455,
      "الأمور": 1456,
      "شكراً": 1457,
      "شيئا": 1458,
      "مختلف": 1459,
      "كبر": 1460,
      "قدرة": 1461,
      "تبدو": 1462,
      "كب": 1463,
      "واجه": 1464,
      "طح": 1465,
      "راع": 1466,
      "صوت": 1467,
      "فوق": 1468,
      "المكان": 1469,
      "امة": 1470,
      "أج": 1471,
      "خارج": 1472,
      "أود": 1473,
      "أهم": 1474,
      "لاحظ": 1475,
      "جين": 1476,
      "لما": 1477,
      "العلم": 1478,
      "انون": 1479,
      "سع": 1480,
      "المال": 1481,
      "الصور": 1482,
      "خلق": 1483,
      "وكب": 1484,
      "وجودة": 1485,
      "نريد": 1486,
      "نامج": 1487,
      "جيدة": 1488,
      "والآن": 1489,
      "ناه": 1490,
      "قتصاد": 1491,
      "الطريق": 1492,
      "عامل": 1493,
      "وصل": 1494,
      "طبيع": 1495,
      "حالة": 1496,
      "جزي": 1497,
      "عمر": 1498,
      "ستكون": 1499,
      "شاف": 1500,
      "ادي": 1501,
      "وذلك": 1502,
      "راج": 1503,
      "أف": 1504,
      "منكم": 1505,
      "الماء": 1506,
      "المستقبل": 1507,
      "عنى": 1508,
      "المحيط": 1509,
      "البحث": 1510,
      "مرض": 1511,
      "تجر": 1512,
      "الخلايا": 1513,
      "المخ": 1514,
      "بواس": 1515,
      "لاب": 1516,
      "ميل": 1517,
      "بينما": 1518,
      "وهناك": 1519,
      "الصغيرة": 1520,
      "لف": 1521,
      "فترة": 1522,
      "تغيير": 1523,
      "اللا": 1524,
      "ريع": 1525,
      "ثة": 1526,
      "كين": 1527,
      "الرجل": 1528,
      "حياة": 1529,
      "شاء": 1530,
      "الإنترنت": 1531,
      "حب": 1532,
      "الكم": 1533,
      "طوي": 1534,
      "لاد": 1535,
      "ابات": 1536,
      "الشمس": 1537,
      "القا": 1538,
      "اش": 1539,
      "طول": 1540,
      "ظيم": 1541,
      "السن": 1542,
      "بواسطة": 1543,
      "سبوع": 1544,
      "ملك": 1545,
      "مدى": 1546,
      "جاء": 1547,
      "حاولة": 1548,
      "أستطيع": 1549,
      "للأ": 1550,
      "القص": 1551,
      "نق": 1552,
      "مرت": 1553,
      "رجل": 1554,
      "واج": 1555,
      "صغير": 1556,
      "فن": 1557,
      "المش": 1558,
      "30": 1559,
      "بغي": 1560,
      "از": 1561,
      "تاج": 1562,
      "الرجال": 1563,
      "الها": 1564,
      "ذهبت": 1565,
      "جاد": 1566,
      "درس": 1567,
      "لديها": 1568,
      "يجة": 1569,
      "احت": 1570,
      "عص": 1571,
      "الرئي": 1572,
      "قاً": 1573,
      "لهذه": 1574,
      "وبة": 1575,
      "أمري": 1576,
      "عدم": 1577,
      "وهم": 1578,
      "التكنولوجيا": 1579,
      "الامر": 1580,
      "اه": 1581,
      "بالض": 1582,
      "ممت": 1583,
      "هدف": 1584,
      "زوج": 1585,
      "حاء": 1586,
      "دت": 1587,
      "التا": 1588,
      "فز": 1589,
      "للإ": 1590,
      "خفض": 1591,
      "أشخاص": 1592,
      "بحيث": 1593,
      "الأد": 1594,
      "\"\"،": 1595,
      "للق": 1596,
      "أصبحت": 1597,
      "100": 1598,
      "الأكثر": 1599,
      "عى": 1600,
      "مستوى": 1601,
      "مدينة": 1602,
      "عق": 1603,
      "ساطة": 1604,
      "قطع": 1605,
      "عنها": 1606,
      "وإ": 1607,
      "بنفس": 1608,
      "ونه": 1609,
      "بحاجة": 1610,
      "احد": 1611,
      "جيل": 1612,
      "القرن": 1613,
      "مني": 1614,
      "اننا": 1615,
      "بلغ": 1616,
      "ّا": 1617,
      "وليس": 1618,
      "وبوت": 1619,
      "الممكن": 1620,
      "الاجتما": 1621,
      "مخ": 1622,
      "الحا": 1623,
      "الإست": 1624,
      "دد": 1625,
      "غب": 1626,
      "نج": 1627,
      "القاد": 1628,
      "ومع": 1629,
      "يمكنني": 1630,
      "الحيوانات": 1631,
      "العص": 1632,
      "جابة": 1633,
      "مجال": 1634,
      "زن": 1635,
      "التعليم": 1636,
      "روس": 1637,
      "ابت": 1638,
      "نكون": 1639,
      "وهكذا": 1640,
      "بالأ": 1641,
      "حدود": 1642,
      "ياس": 1643,
      "وبا": 1644,
      "تشار": 1645,
      "برا": 1646,
      "جهاز": 1647,
      "بهم": 1648,
      "طائ": 1649,
      "وكانت": 1650,
      "استط": 1651,
      "المزيد": 1652,
      "الرغم": 1653,
      "فور": 1654,
      "الأما": 1655,
      "وفر": 1656,
      "حسب": 1657,
      "فسنا": 1658,
      "الـ": 1659,
      "ترض": 1660,
      "حياتي": 1661,
      "بسرعة": 1662,
      "نب": 1663,
      "فعلا": 1664,
      "ائج": 1665,
      "قية": 1666,
      "والد": 1667,
      "الموسي": 1668,
      "تماماً": 1669,
      "رع": 1670,
      "دينا": 1671,
      "سمي": 1672,
      "أليس": 1673,
      "بيت": 1674,
      "الملا": 1675,
      "البحر": 1676,
      "جس": 1677,
      "ونة": 1678,
      "ينبغي": 1679,
      "النف": 1680,
      "يؤ": 1681,
      "لمدة": 1682,
      "ولي": 1683,
      "بعمل": 1684,
      "ساب": 1685,
      "حسن": 1686,
      "تحتاج": 1687,
      "أكيد": 1688,
      "المدينة": 1689,
      "الاس": 1690,
      "وقات": 1691,
      "وعلى": 1692,
      "الحرب": 1693,
      "بالإ": 1694,
      "بيوتر": 1695,
      "طفل": 1696,
      "يعيش": 1697,
      "الأسا": 1698,
      "تخيل": 1699,
      "قيقية": 1700,
      "حم": 1701,
      "ارات": 1702,
      "وائ": 1703,
      "طبي": 1704,
      "اليا": 1705,
      "بدأنا": 1706,
      "وبالتالي": 1707,
      "دين": 1708,
      "نان": 1709,
      "دعونا": 1710,
      "نعلم": 1711,
      "راط": 1712,
      "الجزء": 1713,
      "مُ": 1714,
      "عاية": 1715,
      "الدرا": 1716,
      "ايضا": 1717,
      "جو": 1718,
      "بكثير": 1719,
      "أحب": 1720,
      "المهم": 1721,
      "البدا": 1722,
      "تري": 1723,
      "المرض": 1724,
      "باح": 1725,
      "عملي": 1726,
      "تفعل": 1727,
      "وجب": 1728,
      "يارات": 1729,
      "15": 1730,
      "وسوف": 1731,
      "فاء": 1732,
      "جربة": 1733,
      "ئك": 1734,
      "النت": 1735,
      "ضمن": 1736,
      "فان": 1737,
      "بري": 1738,
      "ضة": 1739,
      "نصف": 1740,
      "كلما": 1741,
      "دائما": 1742,
      "القصة": 1743,
      "أنواع": 1744,
      "معدل": 1745,
      "تصميم": 1746,
      "نست": 1747,
      "ونها": 1748,
      "الشر": 1749,
      "شيئاً": 1750,
      "الثلاث": 1751,
      "يتها": 1752,
      "العن": 1753,
      "تصبح": 1754,
      "امر": 1755,
      "الصوت": 1756,
      "الثانية": 1757,
      "الماضية": 1758,
      "رية": 1759,
      "مشروع": 1760,
      "لأنها": 1761,
      "أفريقيا": 1762,
      "بو": 1763,
      "يستخدم": 1764,
      "بأنه": 1765,
      "بلا": 1766,
      "توجد": 1767,
      "معا": 1768,
      "إليه": 1769,
      "الثاني": 1770,
      "خاصة": 1771,
      "جميعا": 1772,
      "ذك": 1773,
      "يصبح": 1774,
      "دق": 1775,
      "ده": 1776,
      "الصحي": 1777,
      "تف": 1778,
      "ليلة": 1779,
      "بنى": 1780,
      "إلا": 1781,
      "البلد": 1782,
      "تحصل": 1783,
      "أعني": 1784,
      "هار": 1785,
      "قادر": 1786,
      "تمر": 1787,
      "ملة": 1788,
      "لأننا": 1789,
      "فاع": 1790,
      "اط": 1791,
      "المدرسة": 1792,
      "ارع": 1793,
      "الشم": 1794,
      "انهم": 1795,
      "باً": 1796,
      "علمت": 1797,
      "لكنه": 1798,
      "السنة": 1799,
      "لدى": 1800,
      "يط": 1801,
      "ستر": 1802,
      "نز": 1803,
      "ّل": 1804,
      "لكنها": 1805,
      "القوة": 1806,
      "أتحدث": 1807,
      "المائة": 1808,
      "الاخت": 1809,
      "باستخدام": 1810,
      "نى": 1811,
      "علام": 1812,
      "مثال": 1813,
      "أقوم": 1814,
      "ذي": 1815,
      "بالك": 1816,
      "زية": 1817,
      "اخ": 1818,
      "لية": 1819,
      "محا": 1820,
      "ورا": 1821,
      "أبدا": 1822,
      "وإذا": 1823,
      "النهاية": 1824,
      "ريا": 1825,
      "حينها": 1826,
      "بداية": 1827,
      "عليهم": 1828,
      "ختبر": 1829,
      "الضوء": 1830,
      "أردت": 1831,
      "أُ": 1832,
      "بقة": 1833,
      "تقل": 1834,
      "أدر": 1835,
      "ارس": 1836,
      "إعادة": 1837,
      "صدي": 1838,
      "أني": 1839,
      "يته": 1840,
      "جهزة": 1841,
      "تنت": 1842,
      "النو": 1843,
      "قائق": 1844,
      "جون": 1845,
      "لست": 1846,
      "دم": 1847,
      "الحل": 1848,
      "الجديدة": 1849,
      "وكنت": 1850,
      "الجي": 1851,
      "تمد": 1852,
      "تتح": 1853,
      "جات": 1854,
      "جدًا": 1855,
      "الطبيعة": 1856,
      "يران": 1857,
      "الأر": 1858,
      "قليلا": 1859,
      "تاريخ": 1860,
      "بخ": 1861,
      "حيان": 1862,
      "حف": 1863,
      "ويورك": 1864,
      "عاد": 1865,
      "الثالث": 1866,
      "أنحاء": 1867,
      "الصنا": 1868,
      "أمريكا": 1869,
      "الذهاب": 1870,
      "تجعل": 1871,
      "ريكية": 1872,
      "نص": 1873,
      "ولد": 1874,
      "موقع": 1875,
      "المشاكل": 1876,
      "الوصول": 1877,
      "مون": 1878,
      "تعرفون": 1879,
      "لين": 1880,
      "كلمة": 1881,
      "نوعا": 1882,
      "بض": 1883,
      "التصميم": 1884,
      "يانا": 1885,
      "الفضاء": 1886,
      "المحت": 1887,
      "المياه": 1888,
      "نفسها": 1889,
      "مباشرة": 1890,
      "دخ": 1891,
      "يحصل": 1892,
      "رارة": 1893,
      "الرق": 1894,
      "اللحظة": 1895,
      "ناها": 1896,
      "مركز": 1897,
      "برنامج": 1898,
      "تستخدم": 1899,
      "حدى": 1900,
      "ضد": 1901,
      "عبارة": 1902,
      "والع": 1903,
      "التجار": 1904,
      "بقى": 1905,
      "اسم": 1906,
      "طن": 1907,
      "طرق": 1908,
      "أنتم": 1909,
      "إنهم": 1910,
      "تصف": 1911,
      "اللغة": 1912,
      "ضافة": 1913,
      "وجدت": 1914,
      "مهمة": 1915,
      "ذة": 1916,
      "الشكل": 1917,
      "جانب": 1918,
      "التس": 1919,
      "طار": 1920,
      "جلي": 1921,
      "غرا": 1922,
      "ماع": 1923,
      "الطعام": 1924,
      "لأنني": 1925,
      "سواء": 1926,
      "فهي": 1927,
      "مك": 1928,
      "اتي": 1929,
      "لاك": 1930,
      "مرا": 1931,
      "الكهر": 1932,
      "فص": 1933,
      "بعاد": 1934,
      "ماك": 1935,
      "المنزل": 1936,
      "أعلى": 1937,
      "جب": 1938,
      "وأعتقد": 1939,
      "وحد": 1940,
      "عاب": 1941,
      "تأتي": 1942,
      "منطقة": 1943,
      "الموضوع": 1944,
      "تجد": 1945,
      "غالب": 1946,
      "كلا": 1947,
      "تجربة": 1948,
      "جان": 1949,
      "وبي": 1950,
      "بعضها": 1951,
      "فهوم": 1952,
      "منة": 1953,
      "طويلة": 1954,
      "أربعة": 1955,
      "المواد": 1956,
      "لتح": 1957,
      "الخارج": 1958,
      "حينما": 1959,
      "يأتي": 1960,
      "الآخرين": 1961,
      "قار": 1962,
      "العملية": 1963,
      "تبر": 1964,
      "فهو": 1965,
      "قوة": 1966,
      "فيد": 1967,
      "قليل": 1968,
      "البداية": 1969,
      "ناسبة": 1970,
      "ميز": 1971,
      "وكما": 1972,
      "خمسة": 1973,
      "زمة": 1974,
      "غرق": 1975,
      "جاح": 1976,
      "التاريخ": 1977,
      "تجاه": 1978,
      "دقيقة": 1979,
      "طرا": 1980,
      "الاشياء": 1981,
      "أمل": 1982,
      "متع": 1983,
      "دور": 1984,
      "َّ": 1985,
      "ريف": 1986,
      "البشرية": 1987,
      "الأص": 1988,
      "الإنسان": 1989,
      "الكبيرة": 1990,
      "الأف": 1991,
      "تيد": 1992,
      "الحكومة": 1993,
      "12": 1994,
      "أعلم": 1995,
      "مام": 1996,
      "كاف": 1997,
      "طاق": 1998,
      "نيويورك": 1999,
      "ظروا": 2000,
      "يتعلق": 2001,
      "الطائ": 2002,
      "الفيديو": 2003,
      "العمر": 2004,
      "الشركات": 2005,
      "جزاء": 2006,
      "التع": 2007,
      "القليل": 2008,
      "الزمن": 2009,
      "يقومون": 2010,
      "تأثير": 2011,
      "أكون": 2012,
      "حجم": 2013,
      "سك": 2014,
      "الار": 2015,
      "ستان": 2016,
      "كلفة": 2017,
      "الحال": 2018,
      "خيل": 2019,
      "نموذج": 2020,
      "والا": 2021,
      "وحتى": 2022,
      "علاج": 2023,
      "ريبة": 2024,
      "يعتقد": 2025,
      "باست": 2026,
      "قليلاً": 2027,
      "الأفكار": 2028,
      "عائ": 2029,
      "اقات": 2030,
      "الحالة": 2031,
      "ساعة": 2032,
      "الغذا": 2033,
      "السيارات": 2034,
      "كريس": 2035,
      "هة": 2036,
      "العالمية": 2037,
      "المي": 2038,
      "وعة": 2039,
      "الشع": 2040,
      "المرك": 2041,
      "ويات": 2042,
      "الوحيد": 2043,
      "جرا": 2044,
      "الور": 2045,
      "التعا": 2046,
      "نتحدث": 2047,
      "ائنات": 2048,
      "ريكم": 2049,
      "والدي": 2050,
      "أكد": 2051,
      "علمون": 2052,
      "إليها": 2053,
      "راءة": 2054,
      "المشروع": 2055,
      "التد": 2056,
      "جأة": 2057,
      "الأقل": 2058,
      "ديمة": 2059,
      "يدعى": 2060,
      "جاز": 2061,
      "البيئة": 2062,
      "خة": 2063,
      "يملك": 2064,
      "كاء": 2065,
      "تمت": 2066,
      "يحتاج": 2067,
      "القول": 2068,
      "تصل": 2069,
      "خي": 2070,
      "يني": 2071,
      "وإن": 2072,
      "جح": 2073,
      "سو": 2074,
      "الشئ": 2075,
      "أمام": 2076,
      "رأي": 2077,
      "ولقد": 2078,
      "قطعة": 2079,
      "شكال": 2080,
      "طاء": 2081,
      "راطية": 2082,
      "نقل": 2083,
      "وهنا": 2084,
      "هام": 2085,
      "اف": 2086,
      "كامل": 2087,
      "بتكار": 2088,
      "دعوني": 2089,
      "جرة": 2090,
      "رئي": 2091,
      "قاب": 2092,
      "مثير": 2093,
      "عليكم": 2094,
      "كثيرا": 2095,
      "غلب": 2096,
      "حك": 2097,
      "نستخدم": 2098,
      "يسمى": 2099,
      "المختل": 2100,
      "الحب": 2101,
      "البرا": 2102,
      "شاركة": 2103,
      "فسهم": 2104,
      "سه": 2105,
      "أست": 2106,
      "بيانات": 2107,
      "كتشف": 2108,
      "18": 2109,
      "خلي": 2110,
      "وست": 2111,
      "خاط": 2112,
      "جامعة": 2113,
      "تؤ": 2114,
      "شبكة": 2115,
      "للك": 2116,
      "عاً": 2117,
      "نفكر": 2118,
      "الأع": 2119,
      "ربون": 2120,
      "مغ": 2121,
      "نشر": 2122,
      "حدد": 2123,
      "مذه": 2124,
      "لاح": 2125,
      "الصف": 2126,
      "الجنس": 2127,
      "الطرق": 2128,
      "أصد": 2129,
      "صع": 2130,
      "الثقا": 2131,
      "حديث": 2132,
      "يمكنهم": 2133,
      "أهمية": 2134,
      "وام": 2135,
      "نيات": 2136,
      "فرصة": 2137,
      "قرر": 2138,
      "العامة": 2139,
      "خمس": 2140,
      "بسيط": 2141,
      "40": 2142,
      "ضخ": 2143,
      "الجانب": 2144,
      "مرات": 2145,
      "تطور": 2146,
      "سون": 2147,
      "ستة": 2148,
      "الفن": 2149,
      "شعر": 2150,
      "غض": 2151,
      "نجد": 2152,
      "الاحت": 2153,
      "شهر": 2154,
      "المنطقة": 2155,
      "زيا": 2156,
      "حصلت": 2157,
      "رسم": 2158,
      "قض": 2159,
      "الحقيقي": 2160,
      "السنوات": 2161,
      "،\"\"": 2162,
      "نقطة": 2163,
      "القدرة": 2164,
      "بالتأكيد": 2165,
      "محاولة": 2166,
      "المحا": 2167,
      "تبدأ": 2168,
      "يلة": 2169,
      "واب": 2170,
      "الروبوت": 2171,
      "جراء": 2172,
      "طوال": 2173,
      "ممكن": 2174,
      "أطفال": 2175,
      "جذ": 2176,
      "علاقة": 2177,
      "ريكي": 2178,
      "عتبر": 2179,
      "اخرى": 2180,
      "كلها": 2181,
      "خطر": 2182,
      "بالع": 2183,
      "ليون": 2184,
      "طاقة": 2185,
      "أغ": 2186,
      "الموسيقى": 2187,
      "أقص": 2188,
      "علماء": 2189,
      "دار": 2190,
      "والإ": 2191,
      "وراء": 2192,
      "ينا": 2193,
      "جميعاً": 2194,
      "ذاك": 2195,
      "الطفل": 2196,
      "ولكنه": 2197,
      "ولكنها": 2198,
      "المدن": 2199,
      "ترا": 2200,
      "زال": 2201,
      "واض": 2202,
      "إنتاج": 2203,
      "بالا": 2204,
      "ضًا": 2205,
      "ضيات": 2206,
      "التجربة": 2207,
      "الرس": 2208,
      "بلد": 2209,
      "موسي": 2210,
      "وانين": 2211,
      "ذية": 2212,
      "القصص": 2213,
      "الغير": 2214,
      "أرى": 2215,
      "التقنية": 2216,
      "الفت": 2217,
      "فرد": 2218,
      "صناعة": 2219,
      "نعيش": 2220,
      "بالغ": 2221,
      "دولة": 2222,
      "الأعمال": 2223,
      "إنشاء": 2224,
      "ننظر": 2225,
      "يتوجب": 2226,
      "حياتنا": 2227,
      "دول": 2228,
      "شاط": 2229,
      "عندها": 2230,
      "قائمة": 2231,
      "المناطق": 2232,
      "أكن": 2233,
      "نسبة": 2234,
      "كله": 2235,
      "مري": 2236,
      "ساد": 2237,
      "يتحدث": 2238,
      "يمكنه": 2239,
      "يكونوا": 2240,
      "فنحن": 2241,
      "التغيير": 2242,
      "العالمي": 2243,
      "ماذج": 2244,
      "الأل": 2245,
      "وقال": 2246,
      "وكيف": 2247,
      "للاهتمام": 2248,
      "أنفسنا": 2249,
      "بعضهم": 2250,
      "كثيراً": 2251,
      "سلة": 2252,
      "البشري": 2253,
      "قوا": 2254,
      "أخبركم": 2255,
      "الظ": 2256,
      "قدة": 2257,
      "الاول": 2258,
      "كتاب": 2259,
      "خطط": 2260,
      "يقولون": 2261,
      "يمكنها": 2262,
      "فون": 2263,
      "ماية": 2264,
      "النمو": 2265,
      "الصعب": 2266,
      "هاتف": 2267,
      "حركة": 2268,
      "صيل": 2269,
      "ريس": 2270,
      "السكان": 2271,
      "مكت": 2272,
      "الكوكب": 2273,
      "بدلاً": 2274,
      "سيارة": 2275,
      "رأيت": 2276,
      "السرطان": 2277,
      "قنا": 2278,
      "معه": 2279,
      "رأس": 2280,
      "منى": 2281,
      "مجد": 2282,
      "طرح": 2283,
      "أثناء": 2284,
      "المختلفة": 2285,
      "60": 2286,
      "خيص": 2287,
      "كور": 2288,
      "يدي": 2289,
      "منتج": 2290,
      "اتنا": 2291,
      "ينية": 2292,
      "خصوص": 2293,
      "قتصادي": 2294,
      "دارة": 2295,
      "سار": 2296,
      "فيا": 2297,
      "الهواء": 2298,
      "دراسة": 2299,
      "تذهب": 2300,
      "غرفة": 2301,
      "وش": 2302,
      "سيد": 2303,
      "فعلاً": 2304,
      "الانترنت": 2305,
      "نظرة": 2306,
      "المرأة": 2307,
      "ؤول": 2308,
      "تأخذ": 2309,
      "خلايا": 2310,
      "عما": 2311,
      "أفكر": 2312,
      "قين": 2313,
      "علا": 2314,
      "وربما": 2315,
      "لكننا": 2316,
      "الكمبيوتر": 2317,
      "كلم": 2318,
      "أماكن": 2319,
      "تذكر": 2320,
      "قالت": 2321,
      "الدي": 2322,
      "ألف": 2323,
      "سطح": 2324,
      "غو": 2325,
      "فكرت": 2326,
      "بالضبط": 2327,
      "تجا": 2328,
      "زم": 2329,
      "فحسب": 2330,
      "وانا": 2331,
      "ديل": 2332,
      "يتي": 2333,
      "موجودة": 2334,
      "يري": 2335,
      "الحوا": 2336,
      "فائ": 2337,
      "عش": 2338,
      "عالية": 2339,
      "الأحيان": 2340,
      "عاماً": 2341,
      "أيضًا": 2342,
      "شرين": 2343,
      "تحدي": 2344,
      "دو": 2345,
      "للن": 2346,
      "نفسك": 2347,
      "إحدى": 2348,
      "لون": 2349,
      "ّن": 2350,
      "الهي": 2351,
      "التى": 2352,
      "معي": 2353,
      "أه": 2354,
      "تظهر": 2355,
      "شغ": 2356,
      "شرح": 2357,
      "تحول": 2358,
      "يريدون": 2359,
      "الصحة": 2360,
      "نعمل": 2361,
      "ينت": 2362,
      "السيارة": 2363,
      "ادر": 2364,
      "ولن": 2365,
      "الاشخاص": 2366,
      "القادمة": 2367,
      "تغ": 2368,
      "يذهب": 2369,
      "الحر": 2370,
      "خلص": 2371,
      "وفة": 2372,
      "ببساطة": 2373,
      "ظيمة": 2374,
      "الفق": 2375,
      "تملك": 2376,
      "فإنه": 2377,
      "جئ": 2378,
      "ذر": 2379,
      "صال": 2380,
      "أور": 2381,
      "أشهر": 2382,
      "قاموا": 2383,
      "جري": 2384,
      "العم": 2385,
      "ساعات": 2386,
      "ملايين": 2387,
      "بالق": 2388,
      "داف": 2389,
      "الاعت": 2390,
      "مؤس": 2391,
      "قيمة": 2392,
      "تعيش": 2393,
      "بسيطة": 2394,
      "التن": 2395,
      "أض": 2396,
      "تبا": 2397,
      "تفكر": 2398,
      "جوم": 2399,
      "لط": 2400,
      "لكني": 2401,
      "الكتاب": 2402,
      "ثقا": 2403,
      "يصل": 2404,
      "للقيام": 2405,
      "اذ": 2406,
      "الاقتصاد": 2407,
      "أشعر": 2408,
      "دعى": 2409,
      "تطبي": 2410,
      "الأساسية": 2411,
      "المئة": 2412,
      "الكربون": 2413,
      "الأخيرة": 2414,
      "تعليم": 2415,
      "بدلا": 2416,
      "سير": 2417,
      "سؤال": 2418,
      "يحت": 2419,
      "مليار": 2420,
      "تحمل": 2421,
      "مجموع": 2422,
      "تنظر": 2423,
      "سام": 2424,
      "عيد": 2425,
      "يعتبر": 2426,
      "باني": 2427,
      "النقطة": 2428,
      "لاست": 2429,
      "يتنا": 2430,
      "ربية": 2431,
      "دن": 2432,
      "معلومات": 2433,
      "ريات": 2434,
      "واة": 2435,
      "وجهة": 2436,
      "رح": 2437,
      "طبق": 2438,
      "يحاول": 2439,
      "الأيام": 2440,
      "معها": 2441,
      "عاما": 2442,
      "دائماً": 2443,
      "الأماكن": 2444,
      "اريد": 2445,
      "الجام": 2446,
      "كمة": 2447,
      "مستقبل": 2448,
      "بـ": 2449,
      "عز": 2450,
      "نحاول": 2451,
      "النووي": 2452,
      "المطا": 2453,
      "الجديد": 2454,
      "حلية": 2455,
      "وصلت": 2456,
      "مول": 2457,
      "نيا": 2458,
      "هدة": 2459,
      "منز": 2460,
      "ناسب": 2461,
      "الشخصية": 2462,
      "لانه": 2463,
      "بعيد": 2464,
      "تحقيق": 2465,
      "شل": 2466,
      "مقد": 2467,
      "نه": 2468,
      "غان": 2469,
      "راعة": 2470,
      "لأنهم": 2471,
      "ثما": 2472,
      "الإجتما": 2473,
      "الإطلاق": 2474,
      "خار": 2475,
      "فتح": 2476,
      "مفت": 2477,
      "المغ": 2478,
      "الرعاية": 2479,
      "المنتج": 2480,
      "لحظة": 2481,
      "مقابل": 2482,
      "هى": 2483,
      "الموجودة": 2484,
      "بطة": 2485,
      "ثانية": 2486,
      "طرة": 2487,
      "حساس": 2488,
      "منظ": 2489,
      "لابد": 2490,
      "للع": 2491,
      "حاً": 2492,
      "يعملون": 2493,
      "أعمل": 2494,
      "سري": 2495,
      "دمات": 2496,
      "الصغير": 2497,
      "25": 2498,
      "أثير": 2499,
      "تعني": 2500,
      "ثنا": 2501,
      "سانية": 2502,
      "محت": 2503,
      "قرا": 2504,
      "ونات": 2505,
      "جائ": 2506,
      "بالمئة": 2507,
      "الجمهور": 2508,
      "انك": 2509,
      "روا": 2510,
      "منح": 2511,
      "يرات": 2512,
      "الحظ": 2513,
      "الصحية": 2514,
      "بول": 2515,
      "طباء": 2516,
      "كاملة": 2517,
      "حض": 2518,
      "ىء": 2519,
      "انة": 2520,
      "أربع": 2521,
      "الأش": 2522,
      "نعتقد": 2523,
      "معالج": 2524,
      "باط": 2525,
      "أسفل": 2526,
      "ذو": 2527,
      "شركات": 2528,
      "مقار": 2529,
      "تعلمت": 2530,
      "طالب": 2531,
      "الموت": 2532,
      "التطور": 2533,
      "للناس": 2534,
      "كمية": 2535,
      "مئات": 2536,
      "مرحلة": 2537,
      "الرسم": 2538,
      "يظهر": 2539,
      "منع": 2540,
      "راحة": 2541,
      "الجسم": 2542,
      "تركي": 2543,
      "بشدة": 2544,
      "11": 2545,
      "تفا": 2546,
      "الحركة": 2547,
      "وضح": 2548,
      "وضعت": 2549,
      "الله": 2550,
      "نها": 2551,
      "نسي": 2552,
      "معاً": 2553,
      "النتائج": 2554,
      "كية": 2555,
      "مين": 2556,
      "التفا": 2557,
      "يميا": 2558,
      "أوه": 2559,
      "جع": 2560,
      "صح": 2561,
      "يوما": 2562,
      "وجدنا": 2563,
      "قامت": 2564,
      "قادرين": 2565,
      "زياء": 2566,
      "السوق": 2567,
      "الأمريكية": 2568,
      "جنوب": 2569,
      "ضحك": 2570,
      "المل": 2571,
      "العقل": 2572,
      "فري": 2573,
      "موجود": 2574,
      "انني": 2575,
      "وبين": 2576,
      "أظن": 2577,
      "ثان": 2578,
      "ظل": 2579,
      "داة": 2580,
      "قررت": 2581,
      "الرياضيات": 2582,
      "قيد": 2583,
      "وقود": 2584,
      "الشبكة": 2585,
      "خلف": 2586,
      "معهم": 2587,
      "بز": 2588,
      "حقيقي": 2589,
      "مرار": 2590,
      "يريا": 2591,
      "وعي": 2592,
      "بعدها": 2593,
      "ائف": 2594,
      "جزيلا": 2595,
      "قابلة": 2596,
      "إث": 2597,
      "إذ": 2598,
      "والب": 2599,
      "بيض": 2600,
      "سلسلة": 2601,
      "تعتقد": 2602,
      "مالذي": 2603,
      "كثيرة": 2604,
      "يشعر": 2605,
      "الحض": 2606,
      "جميل": 2607,
      "الغرفة": 2608,
      "آلاف": 2609,
      "عظيم": 2610,
      "هلك": 2611,
      "وحة": 2612,
      "أنكم": 2613,
      "الطلاب": 2614,
      "ترت": 2615,
      "قصص": 2616,
      "أيام": 2617,
      "موضوع": 2618,
      "والن": 2619,
      "التحدي": 2620,
      "ولكني": 2621,
      "جليزية": 2622,
      "نمو": 2623,
      "التحكم": 2624,
      "يخبر": 2625,
      "تمثل": 2626,
      "لوحة": 2627,
      "رقم": 2628,
      "دفع": 2629,
      "سلوك": 2630,
      "العلاج": 2631,
      "لج": 2632,
      "رقام": 2633,
      "ابع": 2634,
      "لكنني": 2635,
      "الشا": 2636,
      "شرات": 2637,
      "تقريباً": 2638,
      "وحي": 2639,
      "ولذلك": 2640,
      "سائ": 2641,
      "العصبية": 2642,
      "أحاول": 2643,
      "ؤمن": 2644,
      "المط": 2645,
      "للس": 2646,
      "مثيرة": 2647,
      "اللون": 2648,
      "نظرت": 2649,
      "الطبيعي": 2650,
      "اة": 2651,
      "بام": 2652,
      "دخل": 2653,
      "يبدأ": 2654,
      "التقلي": 2655,
      "لتي": 2656,
      "جهة": 2657,
      "الطبيعية": 2658,
      "اخر": 2659,
      "التواصل": 2660,
      "العلماء": 2661,
      "فار": 2662,
      "اتهم": 2663,
      "العلوم": 2664,
      "وائية": 2665,
      "إيجاد": 2666,
      "أمي": 2667,
      "تقدم": 2668,
      "رغ": 2669,
      "المثير": 2670,
      "باد": 2671,
      "الخص": 2672,
      "تشعر": 2673,
      "قليلة": 2674,
      "عوا": 2675,
      "كنتم": 2676,
      "ختار": 2677,
      "أعطي": 2678,
      "يكفي": 2679,
      "80": 2680,
      "مها": 2681,
      "ألا": 2682,
      "فصل": 2683,
      "معنى": 2684,
      "الشباب": 2685,
      "أناس": 2686,
      "قق": 2687,
      "فيديو": 2688,
      "السعادة": 2689,
      "محد": 2690,
      "يعلم": 2691,
      "التر": 2692,
      "راضي": 2693,
      "نتيجة": 2694,
      "ويمكن": 2695,
      "الداخل": 2696,
      "واضح": 2697,
      "شارك": 2698,
      "بشر": 2699,
      "طوير": 2700,
      "سيس": 2701,
      "برمج": 2702,
      "بيب": 2703,
      "حقوق": 2704,
      "إخ": 2705,
      "يأخذ": 2706,
      "تقال": 2707,
      "نحصل": 2708,
      "أعط": 2709,
      "يزال": 2710,
      "عشرة": 2711,
      "المعا": 2712,
      "الذى": 2713,
      "الأمريكي": 2714,
      "ضاع": 2715,
      "المؤس": 2716,
      "حسنًا": 2717,
      "درك": 2718,
      "تصاد": 2719,
      "حقيقية": 2720,
      "عض": 2721,
      "نبدأ": 2722,
      "المتح": 2723,
      "يمثل": 2724,
      "القلب": 2725,
      "بور": 2726,
      "حداث": 2727,
      "جميلة": 2728,
      "ندوق": 2729,
      "منظمة": 2730,
      "الترك": 2731,
      "جاج": 2732,
      "قتل": 2733,
      "المجتمعات": 2734,
      "الكتب": 2735,
      "يعيشون": 2736,
      "كالي": 2737,
      "ماد": 2738,
      "ريطة": 2739,
      "تض": 2740,
      "تني": 2741,
      "وغير": 2742,
      "وبات": 2743,
      "خصص": 2744,
      "إمكان": 2745,
      "هش": 2746,
      "المستوى": 2747,
      "بداع": 2748,
      "الاجتماعية": 2749,
      "إخت": 2750,
      "بالح": 2751,
      "عداد": 2752,
      "المسر": 2753,
      "ليد": 2754,
      "الكائنات": 2755,
      "نوعاً": 2756,
      "المحلي": 2757,
      "نملك": 2758,
      "واجد": 2759,
      "يمين": 2760,
      "الذات": 2761,
      "بتح": 2762,
      "آلة": 2763,
      "معر": 2764,
      "العائ": 2765,
      "الكا": 2766,
      "لمة": 2767,
      "للحصول": 2768,
      "بذ": 2769,
      "غار": 2770,
      "فير": 2771,
      "الاً": 2772,
      "الشعور": 2773,
      "طويل": 2774,
      "شعرت": 2775,
      "ضوء": 2776,
      "يعود": 2777,
      "لتلك": 2778,
      "فاز": 2779,
      "حياتهم": 2780,
      "تطوير": 2781,
      "النفط": 2782,
      "حوا": 2783,
      "نو": 2784,
      "ماي": 2785,
      "المرة": 2786,
      "تعرض": 2787,
      "ولاية": 2788,
      "يشبه": 2789,
      "مؤخ": 2790,
      "تبع": 2791,
      "تعا": 2792,
      "والق": 2793,
      "وبية": 2794,
      "بشيء": 2795,
      "رحلة": 2796,
      "منتصف": 2797,
      "بعين": 2798,
      "ومي": 2799,
      "اللعب": 2800,
      "الأسئلة": 2801,
      "المرحلة": 2802,
      "ذين": 2803,
      "لعبة": 2804,
      "موج": 2805,
      "خروج": 2806,
      "حادث": 2807,
      "زر": 2808,
      "العرض": 2809,
      "بقية": 2810,
      "دقائق": 2811,
      "وخ": 2812,
      "الأهم": 2813,
      "النموذج": 2814,
      "عامة": 2815,
      "بأي": 2816,
      "فهذا": 2817,
      "وسائل": 2818,
      "ينظر": 2819,
      "التل": 2820,
      "أولا": 2821,
      "مضت": 2822,
      "مشاكل": 2823,
      "مهتم": 2824,
      "أفكار": 2825,
      "رر": 2826,
      "كد": 2827,
      "امت": 2828,
      "موال": 2829,
      "الفرصة": 2830,
      "برة": 2831,
      "قائي": 2832,
      "ظروف": 2833,
      "المجال": 2834,
      "زيادة": 2835,
      "التحدث": 2836,
      "معينة": 2837,
      "النس": 2838,
      "ضايا": 2839,
      "سبق": 2840,
      "199": 2841,
      "أكل": 2842,
      "زمن": 2843,
      "بتلك": 2844,
      "رجال": 2845,
      "لأي": 2846,
      "فاظ": 2847,
      "حسا": 2848,
      "كلمات": 2849,
      "الكلمات": 2850,
      "ولذا": 2851,
      "باتات": 2852,
      "حرك": 2853,
      "والح": 2854,
      "المعد": 2855,
      "وافق": 2856,
      "قدام": 2857,
      "الجهاز": 2858,
      "الامور": 2859,
      "الأحياء": 2860,
      "ED": 2861,
      "تسمى": 2862,
      "صار": 2863,
      "جمة": 2864,
      "المدارس": 2865,
      "أخر": 2866,
      "مفهوم": 2867,
      "حيل": 2868,
      "رفع": 2869,
      "كتابة": 2870,
      "اض": 2871,
      "ّم": 2872,
      "الوضع": 2873,
      "ماز": 2874,
      "ريض": 2875,
      "أحدهم": 2876,
      "تدعى": 2877,
      "ظا": 2878,
      "الأفضل": 2879,
      "الحقيقية": 2880,
      "الجما": 2881,
      "يجري": 2882,
      "أكمل": 2883,
      "ريت": 2884,
      "مثلة": 2885,
      "المناخ": 2886,
      "الوحيدة": 2887,
      "ويد": 2888,
      "تطبيق": 2889,
      "خير": 2890,
      "شابه": 2891,
      "رسالة": 2892,
      "ثناء": 2893,
      "حكم": 2894,
      "فنا": 2895,
      "التغير": 2896,
      "الاطفال": 2897,
      "ضاً": 2898,
      "يور": 2899,
      "الأعلى": 2900,
      "الأساس": 2901,
      "القديمة": 2902,
      "يفكر": 2903,
      "تعطي": 2904,
      "مصدر": 2905,
      "آن": 2906,
      "تضع": 2907,
      "نقول": 2908,
      "المُ": 2909,
      "لأول": 2910,
      "أفعل": 2911,
      "يعطي": 2912,
      "الواضح": 2913,
      "الحاس": 2914,
      "الإعلام": 2915,
      "تصور": 2916,
      "جيدا": 2917,
      "شارة": 2918,
      "يعد": 2919,
      "ستطع": 2920,
      "يقارب": 2921,
      "سرطان": 2922,
      "المطاف": 2923,
      "ؤل": 2924,
      "نطاق": 2925,
      "الحد": 2926,
      "المق": 2927,
      "الحمض": 2928,
      "الرؤ": 2929,
      "الوظ": 2930,
      "البلدان": 2931,
      "التجارب": 2932,
      "ّه": 2933,
      "تروني": 2934,
      "وفير": 2935,
      "نفعله": 2936,
      "مفا": 2937,
      "ولدي": 2938,
      "العنا": 2939,
      "النص": 2940,
      "الدم": 2941,
      "أعمال": 2942,
      "ثار": 2943,
      "كوكب": 2944,
      "لوس": 2945,
      "يخ": 2946,
      "واح": 2947,
      "السياسي": 2948,
      "صديق": 2949,
      "TED": 2950,
      "قاذ": 2951,
      "ولكننا": 2952,
      "درات": 2953,
      "إس": 2954,
      "يض": 2955,
      "ستي": 2956,
      "وتي": 2957,
      "الإس": 2958,
      "الوط": 2959,
      "بضع": 2960,
      "سعي": 2961,
      "صن": 2962,
      "اند": 2963,
      "للعمل": 2964,
      "الحق": 2965,
      "تحديد": 2966,
      "عون": 2967,
      "والخ": 2968,
      "ِّ": 2969,
      "الدولة": 2970,
      "أخذت": 2971,
      "جسم": 2972,
      "صلة": 2973,
      "عار": 2974,
      "مقا": 2975,
      "مناطق": 2976,
      "أحيانا": 2977,
      "ظهرت": 2978,
      "يهم": 2979,
      "أنفسهم": 2980,
      "ونصف": 2981,
      "ورية": 2982,
      "ميزة": 2983,
      "نظرية": 2984,
      "زين": 2985,
      "لغة": 2986,
      "سميه": 2987,
      "اجتما": 2988,
      "أسرع": 2989,
      "أثر": 2990,
      "ــ": 2991,
      "قوية": 2992,
      "وقلت": 2993,
      "متا": 2994,
      "قالوا": 2995,
      "بحاث": 2996,
      "السلوك": 2997,
      "أسبوع": 2998,
      "ارك": 2999,
      "كتشاف": 3000,
      "إص": 3001,
      "صعب": 3002,
      "عقل": 3003,
      "نك": 3004,
      "الكام": 3005,
      "جاب": 3006,
      "المرضى": 3007,
      "صميم": 3008,
      "مًا": 3009,
      "والف": 3010,
      "بكات": 3011,
      "ضخمة": 3012,
      "الحرارة": 3013,
      "السجن": 3014,
      "القانون": 3015,
      "بيئة": 3016,
      "حادثة": 3017,
      "واست": 3018,
      "نفهم": 3019,
      "تصنع": 3020,
      "المنظ": 3021,
      "يعرفون": 3022,
      "مقارنة": 3023,
      "أجزاء": 3024,
      "شراء": 3025,
      "ماط": 3026,
      "الحديثة": 3027,
      "أجهزة": 3028,
      "بيد": 3029,
      "لغ": 3030,
      "محل": 3031,
      "الهدف": 3032,
      "متر": 3033,
      "وصول": 3034,
      "دراك": 3035,
      "بنية": 3036,
      "سيحدث": 3037,
      "بدء": 3038,
      "غادر": 3039,
      "بإمكاننا": 3040,
      "إستخدام": 3041,
      "عصر": 3042,
      "الأبعاد": 3043,
      "عملت": 3044,
      "الساعة": 3045,
      "افضل": 3046,
      "شفت": 3047,
      "الحالات": 3048,
      "الصح": 3049,
      "اهرة": 3050,
      "العنف": 3051,
      "قيم": 3052,
      "قانون": 3053,
      "لص": 3054,
      "منزل": 3055,
      "التالية": 3056,
      "توقع": 3057,
      "حمل": 3058,
      "دف": 3059,
      "طلا": 3060,
      "نر": 3061,
      "الحيوية": 3062,
      "جور": 3063,
      "لوج": 3064,
      "فيروس": 3065,
      "الاص": 3066,
      "المادة": 3067,
      "يصنع": 3068,
      "وصلنا": 3069,
      "أنظر": 3070,
      "العا": 3071,
      "أولاً": 3072,
      "بث": 3073,
      "دنا": 3074,
      "شفى": 3075,
      "هولة": 3076,
      "ماري": 3077,
      "كلّ": 3078,
      "السنين": 3079,
      "عمق": 3080,
      "لوان": 3081,
      "500": 3082,
      "تحاول": 3083,
      "ثمار": 3084,
      "لـ": 3085,
      "الهو": 3086,
      "ناً": 3087,
      "ساعدة": 3088,
      "تابة": 3089,
      "طرف": 3090,
      "غريب": 3091,
      "قف": 3092,
      "لدرجة": 3093,
      "المها": 3094,
      "المجموعة": 3095,
      "مرور": 3096,
      "فاً": 3097,
      "الأسفل": 3098,
      "تبين": 3099,
      "جدي": 3100,
      "ولو": 3101,
      "البلاد": 3102,
      "نتائج": 3103,
      "يستطيعون": 3104,
      "أدركت": 3105,
      "طعام": 3106,
      "ذاكرة": 3107,
      "الأز": 3108,
      "باع": 3109,
      "وأكثر": 3110,
      "الأمراض": 3111,
      "راقبة": 3112,
      "أز": 3113,
      "شكر": 3114,
      "الإلك": 3115,
      "أساسا": 3116,
      "الاف": 3117,
      "اليسار": 3118,
      "آخرين": 3119,
      "زف": 3120,
      "لجعل": 3121,
      "مهما": 3122,
      "٠٠": 3123,
      "المفت": 3124,
      "تقنية": 3125,
      "تتحدث": 3126,
      "المعرفة": 3127,
      "خاطر": 3128,
      "تشاهد": 3129,
      "المف": 3130,
      "المك": 3131,
      "ومية": 3132,
      "بائية": 3133,
      "راتيج": 3134,
      "سأقوم": 3135,
      "ثاني": 3136,
      "فأنت": 3137,
      "فجأة": 3138,
      "لعب": 3139,
      "والج": 3140,
      "وكذلك": 3141,
      "أصغر": 3142,
      "تهى": 3143,
      "سكر": 3144,
      "شن": 3145,
      "كهر": 3146,
      "هير": 3147,
      "الليل": 3148,
      "إنسان": 3149,
      "الطب": 3150,
      "اما": 3151,
      "سأل": 3152,
      "كشف": 3153,
      "يون": 3154,
      "الخار": 3155,
      "فاق": 3156,
      "جيداً": 3157,
      "مقراطية": 3158,
      "أقصد": 3159,
      "مدر": 3160,
      "يساعد": 3161,
      "الخي": 3162,
      "وبالطبع": 3163,
      "كوب": 3164,
      "بته": 3165,
      "طبيعة": 3166,
      "اليمين": 3167,
      "التش": 3168,
      "سنقوم": 3169,
      "تقديم": 3170,
      "خطأ": 3171,
      "للتو": 3172,
      "أرض": 3173,
      "اول": 3174,
      "سكان": 3175,
      "نُ": 3176,
      "وغ": 3177,
      "علقة": 3178,
      "ياد": 3179,
      "معين": 3180,
      "السابق": 3181,
      "الشرطة": 3182,
      "حاس": 3183,
      "الخل": 3184,
      "الخوف": 3185,
      "تصرف": 3186,
      "أولئك": 3187,
      "ارتفاع": 3188,
      "بعيدا": 3189,
      "الصحيح": 3190,
      "بضعة": 3191,
      "نأخذ": 3192,
      "فيلم": 3193,
      "التعامل": 3194,
      "الفرق": 3195,
      "ذاته": 3196,
      "أوروبا": 3197,
      "بالر": 3198,
      "رام": 3199,
      "الاجتماعي": 3200,
      "الغذاء": 3201,
      "بامكان": 3202,
      "ببعض": 3203,
      "مدرسة": 3204,
      "هلاك": 3205,
      "الحجم": 3206,
      "أعرض": 3207,
      "توقف": 3208,
      "المحلية": 3209,
      "البد": 3210,
      "الجزي": 3211,
      "اليه": 3212,
      "شعور": 3213,
      "الرئيسي": 3214,
      "الحاسوب": 3215,
      "أراد": 3216,
      "فأنا": 3217,
      "وسع": 3218,
      "المحتمل": 3219,
      "تساعد": 3220,
      "سيم": 3221,
      "العد": 3222,
      "عددة": 3223,
      "عود": 3224,
      "التأثير": 3225,
      "الأغ": 3226,
      "بائ": 3227,
      "حيال": 3228,
      "تحكم": 3229,
      "مساحة": 3230,
      "يفعلون": 3231,
      "المسرح": 3232,
      "طنا": 3233,
      "عج": 3234,
      "يغ": 3235,
      "معنا": 3236,
      "العض": 3237,
      "متنا": 3238,
      "خلية": 3239,
      "الغابات": 3240,
      "يكية": 3241,
      "قديم": 3242,
      "نقص": 3243,
      "وبر": 3244,
      "مارس": 3245,
      "واكب": 3246,
      "سيئة": 3247,
      "عدت": 3248,
      "نتج": 3249,
      "معالجة": 3250,
      "تعتبر": 3251,
      "مسب": 3252,
      "باك": 3253,
      "ترح": 3254,
      "مثلا": 3255,
      "ركز": 3256,
      "قلب": 3257,
      "فعال": 3258,
      "الأخير": 3259,
      "دوما": 3260,
      "حدوث": 3261,
      "وعية": 3262,
      "يقود": 3263,
      "وزيع": 3264,
      "بالكامل": 3265,
      "المخل": 3266,
      "الموقع": 3267,
      "ديقة": 3268,
      "ليكون": 3269,
      "النّ": 3270,
      "نوعة": 3271,
      "المدى": 3272,
      "أبداً": 3273,
      "لز": 3274,
      "الفعل": 3275,
      "الخام": 3276,
      "البرنامج": 3277,
      "الطائرة": 3278,
      "بالمائة": 3279,
      "بأكمل": 3280,
      "الحدود": 3281,
      "اللعبة": 3282,
      "البيولوج": 3283,
      "14": 3284,
      "ثور": 3285,
      "كشاف": 3286,
      "ولهذا": 3287,
      "حاليا": 3288,
      "16": 3289,
      "تسمح": 3290,
      "قش": 3291,
      "نن": 3292,
      "الوسط": 3293,
      "براء": 3294,
      "قرار": 3295,
      "الأسبوع": 3296,
      "بمقد": 3297,
      "التج": 3298,
      "راف": 3299,
      "الحيوان": 3300,
      "70": 3301,
      "عظيمة": 3302,
      "ميت": 3303,
      "انظروا": 3304,
      "الملك": 3305,
      "جزيلاً": 3306,
      "والك": 3307,
      "راغ": 3308,
      "النسبة": 3309,
      "الفقر": 3310,
      "الإجابة": 3311,
      "كره": 3312,
      "عمله": 3313,
      "الرائعة": 3314,
      "يرون": 3315,
      "ريط": 3316,
      "القوا": 3317,
      "الشعب": 3318,
      "حاب": 3319,
      "حاجة": 3320,
      "تصوير": 3321,
      "بأننا": 3322,
      "أسابيع": 3323,
      "المهمة": 3324,
      "جما": 3325,
      "صرف": 3326,
      "مور": 3327,
      "يضع": 3328,
      "منت": 3329,
      "المبنى": 3330,
      "سيارات": 3331,
      "قادرة": 3332,
      "بقي": 3333,
      "بالرغم": 3334,
      "تكم": 3335,
      "سد": 3336,
      "ستيف": 3337,
      "كلنا": 3338,
      "داع": 3339,
      "وتلك": 3340,
      "سألت": 3341,
      "الرئيسية": 3342,
      "تشكل": 3343,
      "شب": 3344,
      "البناء": 3345,
      "الإص": 3346,
      "الثان": 3347,
      "اكتشف": 3348,
      "ايضاً": 3349,
      "أوا": 3350,
      "خول": 3351,
      "ضغط": 3352,
      "هائلة": 3353,
      "باق": 3354,
      "حيوانات": 3355,
      "فعلت": 3356,
      "شارات": 3357,
      "اثنين": 3358,
      "الأخبار": 3359,
      "الشمسية": 3360,
      "الثلاثة": 3361,
      "تخرج": 3362,
      "كيل": 3363,
      "والس": 3364,
      "فيات": 3365,
      "العشرين": 3366,
      "هود": 3367,
      "سنت": 3368,
      "شخصية": 3369,
      "أساس": 3370,
      "إع": 3371,
      "ثق": 3372,
      "ثي": 3373,
      "دوا": 3374,
      "الهاتف": 3375,
      "النظ": 3376,
      "باس": 3377,
      "ربط": 3378,
      "وسيلة": 3379,
      "الكهرباء": 3380,
      "تكنولوجيا": 3381,
      "ذب": 3382,
      "ظار": 3383,
      "كهذه": 3384,
      "يخص": 3385,
      "الأرج": 3386,
      "لكنهم": 3387,
      "البيت": 3388,
      "برون": 3389,
      "حولنا": 3390,
      "يصدق": 3391,
      "ثمر": 3392,
      "نضع": 3393,
      "العودة": 3394,
      "قاعدة": 3395,
      "القيادة": 3396,
      "شاب": 3397,
      "وارع": 3398,
      "الأدوات": 3399,
      "قياس": 3400,
      "كلي": 3401,
      "يسمح": 3402,
      "الشرق": 3403,
      "وضوح": 3404,
      "نظرنا": 3405,
      "وظيف": 3406,
      "السلطة": 3407,
      "امرأة": 3408,
      "فلن": 3409,
      "هج": 3410,
      "هشة": 3411,
      "الإخت": 3412,
      "مثلي": 3413,
      "تعامل": 3414,
      "أريكم": 3415,
      "تعد": 3416,
      "زيل": 3417,
      "وشك": 3418,
      "الدر": 3419,
      "الإي": 3420,
      "لديكم": 3421,
      "الأنواع": 3422,
      "الموارد": 3423,
      "بعيداً": 3424,
      "نجعل": 3425,
      "المرا": 3426,
      "ارية": 3427,
      "الثقة": 3428,
      "حاولت": 3429,
      "حياتك": 3430,
      "اكتشاف": 3431,
      "بمجرد": 3432,
      "سخ": 3433,
      "هية": 3434,
      "للعالم": 3435,
      "السماء": 3436,
      "الجيد": 3437,
      "بعضنا": 3438,
      "مدن": 3439,
      "ختلف": 3440,
      "استخد": 3441,
      "استطيع": 3442,
      "سوى": 3443,
      "ضخم": 3444,
      "المعر": 3445,
      "متى": 3446,
      "حافة": 3447,
      "شكيل": 3448,
      "وصف": 3449,
      "احب": 3450,
      "تتحرك": 3451,
      "زون": 3452,
      "اللي": 3453,
      "انع": 3454,
      "التفاعل": 3455,
      "النفس": 3456,
      "الذكاء": 3457,
      "ترونية": 3458,
      "أردنا": 3459,
      "تفعله": 3460,
      "جيم": 3461,
      "سوق": 3462,
      "فلا": 3463,
      "لمعرفة": 3464,
      "حافظ": 3465,
      "اجل": 3466,
      "فما": 3467,
      "كهذا": 3468,
      "هرة": 3469,
      "ناطي": 3470,
      "فيذ": 3471,
      "متح": 3472,
      "يدز": 3473,
      "حظات": 3474,
      "دائرة": 3475,
      "الكلمة": 3476,
      "القادم": 3477,
      "سط": 3478,
      "والكثير": 3479,
      "ويمكنك": 3480,
      "انظر": 3481,
      "العيش": 3482,
      "الاخر": 3483,
      "الآلاف": 3484,
      "تعود": 3485,
      "الانسان": 3486,
      "فران": 3487,
      "بأنها": 3488,
      "الفيروس": 3489,
      "تفكير": 3490,
      "ناحية": 3491,
      "الأكبر": 3492,
      "الشارع": 3493,
      "الطيور": 3494,
      "حقًا": 3495,
      "إحت": 3496,
      "بوب": 3497,
      "شديد": 3498,
      "اليد": 3499,
      "الوقود": 3500,
      "ديق": 3501,
      "الحالي": 3502,
      "السهل": 3503,
      "القبيل": 3504,
      "السياسة": 3505,
      "13": 3506,
      "الآلة": 3507,
      "الغاز": 3508,
      "ابق": 3509,
      "جيب": 3510,
      "رسال": 3511,
      "أساسي": 3512,
      "شكرًا": 3513,
      "سيئ": 3514,
      "الغرب": 3515,
      "الدراسة": 3516,
      "بأس": 3517,
      "تتم": 3518,
      "لع": 3519,
      "التّ": 3520,
      "العملي": 3521,
      "الاخ": 3522,
      "أتذكر": 3523,
      "فرص": 3524,
      "الرقم": 3525,
      "غانستان": 3526,
      "ثمانية": 3527,
      "وتح": 3528,
      "والان": 3529,
      "النتيجة": 3530,
      "الجيدة": 3531,
      "يعتقدون": 3532,
      "قذ": 3533,
      "كلف": 3534,
      "العوا": 3535,
      "فاية": 3536,
      "حدثت": 3537,
      "أمور": 3538,
      "الرياح": 3539,
      "الجينات": 3540,
      "ربي": 3541,
      "غام": 3542,
      "الحم": 3543,
      "السلام": 3544,
      "السطح": 3545,
      "يدفع": 3546,
      "الثدي": 3547,
      "جميعنا": 3548,
      "حياته": 3549,
      "الشاشة": 3550,
      "شعب": 3551,
      "صحة": 3552,
      "ضراء": 3553,
      "ويا": 3554,
      "الواحد": 3555,
      "المقد": 3556,
      "سلسل": 3557,
      "تحتوي": 3558,
      "زيون": 3559,
      "التعبير": 3560,
      "رئيس": 3561,
      "استخدم": 3562,
      "قدرت": 3563,
      "يموت": 3564,
      "الفرد": 3565,
      "كتيريا": 3566,
      "لأنك": 3567,
      "بنسبة": 3568,
      "مشاهدة": 3569,
      "رون": 3570,
      "روبوت": 3571,
      "المظ": 3572,
      "لاقي": 3573,
      "النوم": 3574,
      "تركة": 3575,
      "ملكة": 3576,
      "الإجتماعية": 3577,
      "أية": 3578,
      "اخبر": 3579,
      "صعبة": 3580,
      "طات": 3581,
      "عديدة": 3582,
      "موت": 3583,
      "لاع": 3584,
      "تحرك": 3585,
      "يحمل": 3586,
      "الثالثة": 3587,
      "التجارية": 3588,
      "اك": 3589,
      "قود": 3590,
      "ّد": 3591,
      "النات": 3592,
      "الليلة": 3593,
      "الصد": 3594,
      "الإنسانية": 3595,
      "بشأن": 3596,
      "اختبار": 3597,
      "وبعدها": 3598,
      "استطعنا": 3599,
      "بخصوص": 3600,
      "المكت": 3601,
      "يرت": 3602,
      "العظيم": 3603,
      "ليسوا": 3604,
      "اقتصاد": 3605,
      "بوضع": 3606,
      "شد": 3607,
      "قلة": 3608,
      "لول": 3609,
      "والي": 3610,
      "التنا": 3611,
      "بتي": 3612,
      "شائ": 3613,
      "جلس": 3614,
      "فإنها": 3615,
      "افة": 3616,
      "بالج": 3617,
      "جية": 3618,
      "دامة": 3619,
      "رغم": 3620,
      "نصل": 3621,
      "بيه": 3622,
      "ائن": 3623,
      "موز": 3624,
      "تشبه": 3625,
      "فقلت": 3626,
      "فسير": 3627,
      "عكس": 3628,
      "تروا": 3629,
      "الإر": 3630,
      "شخصا": 3631,
      "خطوة": 3632,
      "زايد": 3633,
      "طائرة": 3634,
      "17": 3635,
      "أداة": 3636,
      "سيب": 3637,
      "الاقتصادي": 3638,
      "لمس": 3639,
      "كتا": 3640,
      "أسوأ": 3641,
      "حظوظ": 3642,
      "البرمج": 3643,
      "حصلنا": 3644,
      "دعم": 3645,
      "كوك": 3646,
      "عاف": 3647,
      "الثورة": 3648,
      "فتاة": 3649,
      "التصوير": 3650,
      "بج": 3651,
      "سبعة": 3652,
      "ضرب": 3653,
      "عو": 3654,
      "وبدأت": 3655,
      "أنش": 3656,
      "واط": 3657,
      "البار": 3658,
      "النباتات": 3659,
      "مرك": 3660,
      "سمة": 3661,
      "الدين": 3662,
      "فاءة": 3663,
      "التركيز": 3664,
      "توق": 3665,
      "نكن": 3666,
      "الفائ": 3667,
      "يقظ": 3668,
      "الروبوتات": 3669,
      "300": 3670,
      "اكبر": 3671,
      "مختبر": 3672,
      "هول": 3673,
      "وازن": 3674,
      "لأني": 3675,
      "أمراض": 3676,
      "يزيد": 3677,
      "بإمكانك": 3678,
      "فورنيا": 3679,
      "الرائع": 3680,
      "الكبر": 3681,
      "عاش": 3682,
      "تخبر": 3683,
      "تبقى": 3684,
      "سريع": 3685,
      "الحاج": 3686,
      "متوسط": 3687,
      "قييم": 3688,
      "عمري": 3689,
      "بالتالي": 3690,
      "الفيلم": 3691,
      "يفعله": 3692,
      "الأشجار": 3693,
      "ظاهر": 3694,
      "إدارة": 3695,
      "نون": 3696,
      "كني": 3697,
      "معقدة": 3698,
      "تجمع": 3699,
      "المحيطات": 3700,
      "لعمل": 3701,
      "الهر": 3702,
      "قدرات": 3703,
      "المساعدة": 3704,
      "الرؤية": 3705,
      "er": 3706,
      "أصل": 3707,
      "صاد": 3708,
      "كرا": 3709,
      "لسنا": 3710,
      "وأنت": 3711,
      "البح": 3712,
      "الاح": 3713,
      "ويقول": 3714,
      "الرحلة": 3715,
      "أدوات": 3716,
      "تزال": 3717,
      "عمره": 3718,
      "غالبا": 3719,
      "90": 3720,
      "أسم": 3721,
      "حرب": 3722,
      "دان": 3723,
      "ضم": 3724,
      "هيا": 3725,
      "وحدة": 3726,
      "المدر": 3727,
      "علوم": 3728,
      "هائل": 3729,
      "واي": 3730,
      "التقدم": 3731,
      "مرأة": 3732,
      "إليكم": 3733,
      "عقيد": 3734,
      "أشكال": 3735,
      "إعت": 3736,
      "اقول": 3737,
      "جير": 3738,
      "نصنع": 3739,
      "منخفض": 3740,
      "قاش": 3741,
      "البسي": 3742,
      "سيت": 3743,
      "مرح": 3744,
      "الإقتصاد": 3745,
      "خطيط": 3746,
      "الضغط": 3747,
      "تدخل": 3748,
      "وظيفة": 3749,
      "مساعدة": 3750,
      "مشابه": 3751,
      "الثقافة": 3752,
      "واضحة": 3753,
      "ببناء": 3754,
      "مخل": 3755,
      "نذهب": 3756,
      "ووضع": 3757,
      "الإنجليزية": 3758,
      "الألعاب": 3759,
      "مؤسسة": 3760,
      "شهد": 3761,
      "غيل": 3762,
      "مطل": 3763,
      "نماذج": 3764,
      "لاعب": 3765,
      "النجوم": 3766,
      "القوانين": 3767,
      "متلك": 3768,
      "الطبية": 3769,
      "يلعب": 3770,
      "فكروا": 3771,
      "تنتج": 3772,
      "أبعد": 3773,
      "تسا": 3774,
      "فقة": 3775,
      "والر": 3776,
      "وبعض": 3777,
      "الجين": 3778,
      "قرأ": 3779,
      "غاز": 3780,
      "بالمناسبة": 3781,
      "الفيزياء": 3782,
      "المساواة": 3783,
      "عمليات": 3784,
      "صري": 3785,
      "لقي": 3786,
      "المرت": 3787,
      "اتف": 3788,
      "راك": 3789,
      "يتهم": 3790,
      "الطا": 3791,
      "يفهم": 3792,
      "مجلة": 3793,
      "بالتح": 3794,
      "حرية": 3795,
      "لفترة": 3796,
      "المفا": 3797,
      "وقالت": 3798,
      "بدل": 3799,
      "لندن": 3800,
      "عملنا": 3801,
      "الحكومات": 3802,
      "سمعت": 3803,
      "يميائية": 3804,
      "التقليدية": 3805,
      "الثانوية": 3806,
      "تفهم": 3807,
      "قريبا": 3808,
      "يرى": 3809,
      "النجاح": 3810,
      "الجذ": 3811,
      "قصيرة": 3812,
      "للحياة": 3813,
      "كاليفورنيا": 3814,
      "مجا": 3815,
      "الذه": 3816,
      "ماس": 3817,
      "الأطباء": 3818,
      "الأرقام": 3819,
      "راسة": 3820,
      "كتبت": 3821,
      "المشاريع": 3822,
      "سعيد": 3823,
      "الخصوص": 3824,
      "حماية": 3825,
      "فجار": 3826,
      "مياه": 3827,
      "راح": 3828,
      "يعتمد": 3829,
      "ميات": 3830,
      "رائط": 3831,
      "الأسباب": 3832,
      "عالمي": 3833,
      "العلاقات": 3834,
      "2000": 3835,
      "أغلب": 3836,
      "نمط": 3837,
      "هب": 3838,
      "ّي": 3839,
      "وتين": 3840,
      "ولكنني": 3841,
      "وكي": 3842,
      "شعار": 3843,
      "الخطأ": 3844,
      "الرئيس": 3845,
      "أجد": 3846,
      "اقت": 3847,
      "تحد": 3848,
      "قوي": 3849,
      "هاد": 3850,
      "راب": 3851,
      "دافع": 3852,
      "البقاء": 3853,
      "الجو": 3854,
      "حلول": 3855,
      "أرغب": 3856,
      "السياسية": 3857,
      "الأساسي": 3858,
      "مجددا": 3859,
      "ثقافة": 3860,
      "أطول": 3861,
      "خفا": 3862,
      "ران": 3863,
      "قسم": 3864,
      "ودي": 3865,
      "يلت": 3866,
      "مادة": 3867,
      "الابتكار": 3868,
      "الدخول": 3869,
      "اللقا": 3870,
      "تب": 3871,
      "ثلة": 3872,
      "حالات": 3873,
      "صندوق": 3874,
      "موس": 3875,
      "المريخ": 3876,
      "المريض": 3877,
      "علامة": 3878,
      "وقراطية": 3879,
      "متعددة": 3880,
      "أتمنى": 3881,
      "الغالب": 3882,
      "ترونه": 3883,
      "السرعة": 3884,
      "الفترة": 3885,
      "وجيه": 3886,
      "الطيران": 3887,
      "الخمس": 3888,
      "الدخل": 3889,
      "فورد": 3890,
      "24": 3891,
      "تام": 3892,
      "زيد": 3893,
      "عط": 3894,
      "ففي": 3895,
      "الإل": 3896,
      "المباني": 3897,
      "أنظمة": 3898,
      "يمر": 3899,
      "باه": 3900,
      "ويس": 3901,
      "سنين": 3902,
      "أخير": 3903,
      "أسباب": 3904,
      "الأحمر": 3905,
      "نسا": 3906,
      "يخرج": 3907,
      "فينة": 3908,
      "منك": 3909,
      "يتان": 3910,
      "وجين": 3911,
      "وتم": 3912,
      "خصائ": 3913,
      "مسؤول": 3914,
      "ويتر": 3915,
      "المخدرات": 3916,
      "جسد": 3917,
      "الكبرى": 3918,
      "أقدم": 3919,
      "اين": 3920,
      "نراه": 3921,
      "ماهو": 3922,
      "لامي": 3923,
      "إننا": 3924,
      "البنية": 3925,
      "الاطلاق": 3926,
      "نتعلم": 3927,
      "خدمة": 3928,
      "نظيم": 3929,
      "مضى": 3930,
      "الاولى": 3931,
      "روة": 3932,
      "طبع": 3933,
      "لبعض": 3934,
      "ويمكننا": 3935,
      "المقا": 3936,
      "المجموع": 3937,
      "الشركة": 3938,
      "أعوام": 3939,
      "أصوات": 3940,
      "مؤتمر": 3941,
      "مواد": 3942,
      "طراف": 3943,
      "اذن": 3944,
      "بكم": 3945,
      "روح": 3946,
      "عقد": 3947,
      "لشخص": 3948,
      "ليين": 3949,
      "الفور": 3950,
      "تمي": 3951,
      "تاة": 3952,
      "الملايين": 3953,
      "الارض": 3954,
      "موسيقى": 3955,
      "مجموعات": 3956,
      "الأرجح": 3957,
      "أبي": 3958,
      "ودا": 3959,
      "معكم": 3960,
      "النحل": 3961,
      "الإحت": 3962,
      "وفرة": 3963,
      "خريطة": 3964,
      "غريبة": 3965,
      "مير": 3966,
      "الموجود": 3967,
      "الباب": 3968,
      "الخلية": 3969,
      "أسئلة": 3970,
      "فإننا": 3971,
      "النار": 3972,
      "قاطع": 3973,
      "الصناعية": 3974,
      "بالس": 3975,
      "زد": 3976,
      "قضية": 3977,
      "مساعد": 3978,
      "وعن": 3979,
      "يأت": 3980,
      "الأموال": 3981,
      "يمتلك": 3982,
      "تعتمد": 3983,
      "العلاقة": 3984,
      "طبيعي": 3985,
      "للإهتمام": 3986,
      "المناسبة": 3987,
      "المشاركة": 3988,
      "راها": 3989,
      "تجري": 3990,
      "سرع": 3991,
      "حصائ": 3992,
      "التعاطف": 3993,
      "بقدر": 3994,
      "وّ": 3995,
      "العاد": 3996,
      "إنقاذ": 3997,
      "سلحة": 3998,
      "تدفع": 3999,
      "الجمال": 4000,
      "الأنظمة": 4001,
      "استخدامها": 4002,
      "مذهلة": 4003,
      "ئاب": 4004,
      "فرق": 4005,
      "مفي": 4006,
      "المالية": 4007,
      "قاع": 4008,
      "قاف": 4009,
      "البالغ": 4010,
      "ساءل": 4011,
      "اسمه": 4012,
      "ئه": 4013,
      "شمال": 4014,
      "فلم": 4015,
      "محظوظ": 4016,
      "نيع": 4017,
      "علاقات": 4018,
      "سيمات": 4019,
      "الصباح": 4020,
      "تمث": 4021,
      "تحويل": 4022,
      "بطرق": 4023,
      "بداخل": 4024,
      "الاتصال": 4025,
      "العلمية": 4026,
      "جائزة": 4027,
      "ألة": 4028,
      "تلت": 4029,
      "سعة": 4030,
      "فياً": 4031,
      "سيك": 4032,
      "وكنا": 4033,
      "لافات": 4034,
      "السيطرة": 4035,
      "نشعر": 4036,
      "البرازيل": 4037,
      "بارة": 4038,
      "توفير": 4039,
      "فمن": 4040,
      "لاحقاً": 4041,
      "يتطلب": 4042,
      "ترف": 4043,
      "عاون": 4044,
      "ألعاب": 4045,
      "شيئًا": 4046,
      "لأجل": 4047,
      "حقق": 4048,
      "شغيل": 4049,
      "قمة": 4050,
      "فيف": 4051,
      "ذاء": 4052,
      "واص": 4053,
      "ولين": 4054,
      "النها": 4055,
      "الكر": 4056,
      "كمبيوتر": 4057,
      "الشهر": 4058,
      "ترب": 4059,
      "بطبيع": 4060,
      "العليا": 4061,
      "الجامعة": 4062,
      "اخذ": 4063,
      "رورة": 4064,
      "ظهور": 4065,
      "قس": 4066,
      "الجري": 4067,
      "عاط": 4068,
      "عائلة": 4069,
      "حالياً": 4070,
      "طبيب": 4071,
      "المؤسسات": 4072,
      "لوجيا": 4073,
      "يسا": 4074,
      "التحول": 4075,
      "الأي": 4076,
      "ريو": 4077,
      "همة": 4078,
      "العدد": 4079,
      "ضائية": 4080,
      "لوث": 4081,
      "تنمو": 4082,
      "الأسماك": 4083,
      "تحدثت": 4084,
      "الشمالية": 4085,
      "اسا": 4086,
      "شى": 4087,
      "فعة": 4088,
      "يبلغ": 4089,
      "المفض": 4090,
      "المناسب": 4091,
      "ذهبنا": 4092,
      "القمر": 4093,
      "ويق": 4094,
      "تتخيل": 4095,
      "أمكن": 4096,
      "الشيئ": 4097,
      "عصاب": 4098,
      "بغ": 4099,
      "ثورة": 4100,
      "شتا": 4101,
      "ليب": 4102,
      "معرف": 4103,
      "العادي": 4104,
      "مليارات": 4105,
      "كتور": 4106,
      "جميعها": 4107,
      "نظرتم": 4108,
      "صنعت": 4109,
      "صالات": 4110,
      "صباح": 4111,
      "قم": 4112,
      "قراءة": 4113,
      "لمن": 4114,
      "وماذا": 4115,
      "الأق": 4116,
      "كلية": 4117,
      "للجميع": 4118,
      "الحسا": 4119,
      "الحشرات": 4120,
      "القليلة": 4121,
      "حيوان": 4122,
      "الفتاة": 4123,
      "الدولا": 4124,
      "الثا": 4125,
      "ميلة": 4126,
      "بارات": 4127,
      "ضعف": 4128,
      "يؤدي": 4129,
      "الدراسات": 4130,
      "محددة": 4131,
      "حرارة": 4132,
      "قون": 4133,
      "والش": 4134,
      "المختبر": 4135,
      "ينتج": 4136,
      "وجل": 4137,
      "القطا": 4138,
      "بحق": 4139,
      "بدأوا": 4140,
      "جاءت": 4141,
      "صعوبة": 4142,
      "إذًا": 4143,
      "العمليات": 4144,
      "آمل": 4145,
      "تون": 4146,
      "ظاهرة": 4147,
      "ّها": 4148,
      "واعتقد": 4149,
      "التعلم": 4150,
      "الفصل": 4151,
      "جابية": 4152,
      "جلات": 4153,
      "تشغيل": 4154,
      "التقنيات": 4155,
      "الأدوية": 4156,
      "التعاون": 4157,
      "التلفاز": 4158,
      "أذهب": 4159,
      "بالعمل": 4160,
      "فذ": 4161,
      "اللو": 4162,
      "ولدينا": 4163,
      "حتي": 4164,
      "عادي": 4165,
      "تعريف": 4166,
      "أسف": 4167,
      "مسألة": 4168,
      "نسخة": 4169,
      "تخيلوا": 4170,
      "أؤمن": 4171,
      "حام": 4172,
      "سور": 4173,
      "فحص": 4174,
      "الدينا": 4175,
      "ياجات": 4176,
      "النقاط": 4177,
      "يتغير": 4178,
      "جاوز": 4179,
      "عالمية": 4180,
      "جنب": 4181,
      "مجدداً": 4182,
      "صاص": 4183,
      "طقي": 4184,
      "النماذج": 4185,
      "سيل": 4186,
      "ولكنهم": 4187,
      "اللغ": 4188,
      "أمرا": 4189,
      "صفحة": 4190,
      "بعيدة": 4191,
      "المشهد": 4192,
      "طبيق": 4193,
      "يملكون": 4194,
      "الفتيات": 4195,
      "الحمراء": 4196,
      "المفضلة": 4197,
      "مبنى": 4198,
      "الأمن": 4199,
      "معك": 4200,
      "الكلام": 4201,
      "الجليد": 4202,
      "بيوت": 4203,
      "الإعت": 4204,
      "بالنظر": 4205,
      "قائد": 4206,
      "تسير": 4207,
      "مذهل": 4208,
      "الحضور": 4209,
      "تكلفة": 4210,
      "رير": 4211,
      "نسب": 4212,
      "هيم": 4213,
      "يقدم": 4214,
      "الست": 4215,
      "واد": 4216,
      "رفض": 4217,
      "بأنني": 4218,
      "المرور": 4219,
      "هندسة": 4220,
      "اختر": 4221,
      "تسم": 4222,
      "خمة": 4223,
      "سوء": 4224,
      "يبحث": 4225,
      "لاس": 4226,
      "التكنولوج": 4227,
      "العقد": 4228,
      "داخلي": 4229,
      "قاعة": 4230,
      "الجواب": 4231,
      "القرا": 4232,
      "تحوي": 4233,
      "نتين": 4234,
      "خطوط": 4235,
      "غيّر": 4236,
      "أدرك": 4237,
      "المفترض": 4238,
      "ّى": 4239,
      "وجم": 4240,
      "متأك": 4241,
      "قطاع": 4242,
      "بتها": 4243,
      "درجات": 4244,
      "الإنتاج": 4245,
      "أنّه": 4246,
      "القطع": 4247,
      "أعطيكم": 4248,
      "زلت": 4249,
      "ممن": 4250,
      "نخ": 4251,
      "عملها": 4252,
      "خاذ": 4253,
      "كونات": 4254,
      "بالإضافة": 4255,
      "زام": 4256,
      "زملا": 4257,
      "لفعل": 4258,
      "مخت": 4259,
      "ولات": 4260,
      "الكرة": 4261,
      "وضة": 4262,
      "جلب": 4263,
      "أخذنا": 4264,
      "سمحوا": 4265,
      "القطب": 4266,
      "طبيعية": 4267,
      "أفغانستان": 4268,
      "الحاضر": 4269,
      "قضيت": 4270,
      "أب": 4271,
      "أمن": 4272,
      "أطلق": 4273,
      "إر": 4274,
      "ضرة": 4275,
      "عدا": 4276,
      "لوب": 4277,
      "واسع": 4278,
      "بعاث": 4279,
      "البلاست": 4280,
      "وارز": 4281,
      "الهندسة": 4282,
      "الورق": 4283,
      "يحتوي": 4284,
      "تفاعل": 4285,
      "دعا": 4286,
      "صي": 4287,
      "طب": 4288,
      "غبة": 4289,
      "فلة": 4290,
      "لبناء": 4291,
      "والسبب": 4292,
      "مارك": 4293,
      "ورات": 4294,
      "مربع": 4295,
      "الشعر": 4296,
      "الخم": 4297,
      "كاة": 4298,
      "السابقة": 4299,
      "قررنا": 4300,
      "ألت": 4301,
      "خلا": 4302,
      "سؤ": 4303,
      "شجرة": 4304,
      "منطق": 4305,
      "التلف": 4306,
      "الاخرى": 4307,
      "القضايا": 4308,
      "كوني": 4309,
      "متط": 4310,
      "عمي": 4311,
      "يستحق": 4312,
      "الخطوة": 4313,
      "النظرية": 4314,
      "درسون": 4315,
      "أصدقائي": 4316,
      "آل": 4317,
      "عقول": 4318,
      "ماني": 4319,
      "المملكة": 4320,
      "الأور": 4321,
      "ليف": 4322,
      "كانا": 4323,
      "رتي": 4324,
      "صرية": 4325,
      "خور": 4326,
      "رعاية": 4327,
      "قوانين": 4328,
      "المجا": 4329,
      "الأجهزة": 4330,
      "للذ": 4331,
      "سيء": 4332,
      "عليّ": 4333,
      "كافية": 4334,
      "تتغير": 4335,
      "يحبون": 4336,
      "ذاتها": 4337,
      "غلق": 4338,
      "العلمي": 4339,
      "رأينا": 4340,
      "بقاء": 4341,
      "بليون": 4342,
      "جتمع": 4343,
      "صا": 4344,
      "لفهم": 4345,
      "مدة": 4346,
      "نواجه": 4347,
      "هداف": 4348,
      "ماهي": 4349,
      "التعقيد": 4350,
      "القرار": 4351,
      "الشوارع": 4352,
      "جمالي": 4353,
      "ولاً": 4354,
      "فتراض": 4355,
      "البيئية": 4356,
      "احث": 4357,
      "صحيحة": 4358,
      "راجع": 4359,
      "الفقراء": 4360,
      "إمكانية": 4361,
      "or": 4362,
      "بريد": 4363,
      "طلاب": 4364,
      "نوا": 4365,
      "وكم": 4366,
      "الوعي": 4367,
      "ناج": 4368,
      "لائ": 4369,
      "معد": 4370,
      "تنظيم": 4371,
      "بمعنى": 4372,
      "بسهولة": 4373,
      "غالباً": 4374,
      "غضون": 4375,
      "الديمقراطية": 4376,
      "ضيع": 4377,
      "الأمل": 4378,
      "للوصول": 4379,
      "بدور": 4380,
      "ويجب": 4381,
      "الخير": 4382,
      "نظري": 4383,
      "الزراعة": 4384,
      "المناعة": 4385,
      "للأطفال": 4386,
      "بالضرورة": 4387,
      "الخارجي": 4388,
      "البدء": 4389,
      "أيا": 4390,
      "سارة": 4391,
      "فرض": 4392,
      "والذين": 4393,
      "بحجم": 4394,
      "ستطاعت": 4395,
      "استعمال": 4396,
      "الضو": 4397,
      "المصا": 4398,
      "القاعدة": 4399,
      "الناتج": 4400,
      "أبدأ": 4401,
      "إما": 4402,
      "سلي": 4403,
      "لصنع": 4404,
      "وخلال": 4405,
      "انتق": 4406,
      "التحت": 4407,
      "يمز": 4408,
      "الآلات": 4409,
      "أيدي": 4410,
      "شرق": 4411,
      "شاشة": 4412,
      "واقف": 4413,
      "جعلني": 4414,
      "الأسود": 4415,
      "المسؤول": 4416,
      "برامج": 4417,
      "يستخدمون": 4418,
      "النووية": 4419,
      "الرسالة": 4420,
      "يحاولون": 4421,
      "المنتجات": 4422,
      "اشياء": 4423,
      "خراج": 4424,
      "شديدة": 4425,
      "ضل": 4426,
      "المه": 4427,
      "علان": 4428,
      "لاحقا": 4429,
      "الأو": 4430,
      "معة": 4431,
      "الطرف": 4432,
      "كرر": 4433,
      "مثلاً": 4434,
      "نتاج": 4435,
      "عالمنا": 4436,
      "198": 4437,
      "صدقاء": 4438,
      "الطائرات": 4439,
      "حاسوب": 4440,
      "دير": 4441,
      "ذوي": 4442,
      "قرب": 4443,
      "مميز": 4444,
      "يغير": 4445,
      "راث": 4446,
      "البكتيريا": 4447,
      "متأكد": 4448,
      "عدام": 4449,
      "أعظم": 4450,
      "تدريب": 4451,
      "الرابعة": 4452,
      "الرقمية": 4453,
      "الأفلام": 4454,
      "شتاين": 4455,
      "دورة": 4456,
      "نساء": 4457,
      "القديم": 4458,
      "حولها": 4459,
      "خلالها": 4460,
      "تخابات": 4461,
      "رؤيتها": 4462,
      "لاقية": 4463,
      "تستطيعون": 4464,
      "التحديات": 4465,
      "بالتحديد": 4466,
      "أط": 4467,
      "ثبت": 4468,
      "شعا": 4469,
      "قريب": 4470,
      "المذه": 4471,
      "المشكل": 4472,
      "الأمثلة": 4473,
      "معهد": 4474,
      "البطا": 4475,
      "باعة": 4476,
      "الطبقة": 4477,
      "وبشكل": 4478,
      "ضافية": 4479,
      "وكس": 4480,
      "مسار": 4481,
      "مستويات": 4482,
      "قوله": 4483,
      "القاعة": 4484,
      "نبؤ": 4485,
      "المنظمات": 4486,
      "جورج": 4487,
      "الحاجة": 4488,
      "ot": 4489,
      "إجتما": 4490,
      "اقوم": 4491,
      "خطة": 4492,
      "زاد": 4493,
      "مشكل": 4494,
      "مضي": 4495,
      "يشكل": 4496,
      "الظروف": 4497,
      "عنف": 4498,
      "ارض": 4499,
      "إنجاز": 4500,
      "باخت": 4501,
      "تقع": 4502,
      "الثروة": 4503,
      "أخبار": 4504,
      "طلع": 4505,
      "مستعد": 4506,
      "قولة": 4507,
      "ضاءة": 4508,
      "خرجت": 4509,
      "وجميع": 4510,
      "آه": 4511,
      "ثنين": 4512,
      "سهل": 4513,
      "شم": 4514,
      "نبحث": 4515,
      "وراً": 4516,
      "واذا": 4517,
      "التقط": 4518,
      "الأصل": 4519,
      "ورقة": 4520,
      "جمهور": 4521,
      "ختفي": 4522,
      "طيلة": 4523,
      "المستشفى": 4524,
      "وضعنا": 4525,
      "الفرص": 4526,
      "الصناعي": 4527,
      "in": 4528,
      "أى": 4529,
      "أعم": 4530,
      "تان": 4531,
      "نقاط": 4532,
      "الذاكرة": 4533,
      "الحاد": 4534,
      "الذكور": 4535,
      "باري": 4536,
      "الجميلة": 4537,
      "القضية": 4538,
      "يدور": 4539,
      "الخلف": 4540,
      "وضى": 4541,
      "قرية": 4542,
      "أقرب": 4543,
      "مرتبط": 4544,
      "افريقيا": 4545,
      "تنف": 4546,
      "ردة": 4547,
      "شط": 4548,
      "صمم": 4549,
      "الخروج": 4550,
      "فيل": 4551,
      "التاس": 4552,
      "ريح": 4553,
      "همية": 4554,
      "ليات": 4555,
      "عنوان": 4556,
      "يجلس": 4557,
      "المتوسط": 4558,
      "موظ": 4559,
      "الضخمة": 4560,
      "تدري": 4561,
      "الجميل": 4562,
      "تسمع": 4563,
      "للتفكير": 4564,
      "أساسية": 4565,
      "والدتي": 4566,
      "الحلول": 4567,
      "الأفراد": 4568,
      "تباه": 4569,
      "التحتية": 4570,
      "400": 4571,
      "بجد": 4572,
      "دمج": 4573,
      "عال": 4574,
      "نجاح": 4575,
      "المثل": 4576,
      "التقاط": 4577,
      "الحية": 4578,
      "الباحث": 4579,
      "الكفاية": 4580,
      "وجة": 4581,
      "تقود": 4582,
      "تعبير": 4583,
      "المتعلقة": 4584,
      "كبيرا": 4585,
      "تناول": 4586,
      "انتاج": 4587,
      "ديموقراطية": 4588,
      "أفراد": 4589,
      "الكهربائية": 4590,
      "القواعد": 4591,
      "رم": 4592,
      "شه": 4593,
      "القدم": 4594,
      "ناث": 4595,
      "ناف": 4596,
      "الكتابة": 4597,
      "رائحة": 4598,
      "مليئة": 4599,
      "المساحة": 4600,
      "تشارد": 4601,
      "الرسوم": 4602,
      "اغ": 4603,
      "وياً": 4604,
      "المشي": 4605,
      "العراق": 4606,
      "العثور": 4607,
      "يعاد": 4608,
      "وجعل": 4609,
      "لتكون": 4610,
      "دمان": 4611,
      "بحلول": 4612,
      "أشكر": 4613,
      "الزر": 4614,
      "شاركت": 4615,
      "الخطوط": 4616,
      "زوجتي": 4617,
      "مقدار": 4618,
      "سريعة": 4619,
      "توفر": 4620,
      "نشاط": 4621,
      "يجاد": 4622,
      "ﺍﻟ": 4623,
      "القائمة": 4624,
      "انس": 4625,
      "ستجد": 4626,
      "راري": 4627,
      "النمط": 4628,
      "تقلي": 4629,
      "اصبح": 4630,
      "وكالة": 4631,
      "يتمكن": 4632,
      "اثنان": 4633,
      "اختيار": 4634,
      "أقوى": 4635,
      "الدولي": 4636,
      "الدولية": 4637,
      "غطية": 4638,
      "الصحيحة": 4639,
      "am": 4640,
      "إلك": 4641,
      "إرت": 4642,
      "المبا": 4643,
      "يعانون": 4644,
      "النمل": 4645,
      "النشاط": 4646,
      "سيقوم": 4647,
      "الجيش": 4648,
      "القيمة": 4649,
      "لته": 4650,
      "بأنهم": 4651,
      "اكتشفت": 4652,
      "البحرية": 4653,
      "مؤخرا": 4654,
      "45": 4655,
      "ئا": 4656,
      "ريتشارد": 4657,
      "الحرية": 4658,
      "إلهي": 4659,
      "بادل": 4660,
      "الرسائل": 4661,
      "مجلس": 4662,
      "مصادر": 4663,
      "القرش": 4664,
      ":\"\"": 4665,
      "ثال": 4666,
      "عيش": 4667,
      "كوم": 4668,
      "مواقع": 4669,
      "هذين": 4670,
      "المعت": 4671,
      "العظيمة": 4672,
      "يتس": 4673,
      "نيك": 4674,
      "جاً": 4675,
      "سنتين": 4676,
      "تمامًا": 4677,
      "الانت": 4678,
      "يعنيه": 4679,
      "يؤمن": 4680,
      "سترون": 4681,
      "قارنة": 4682,
      "الغذائية": 4683,
      "الميكر": 4684,
      "أصدقائ": 4685,
      "\"(": 4686,
      "أخت": 4687,
      "صدر": 4688,
      "مالات": 4689,
      "المضا": 4690,
      "ونت": 4691,
      "السير": 4692,
      "الجيل": 4693,
      "القوى": 4694,
      "الطبيب": 4695,
      "وفكر": 4696,
      "وأح": 4697,
      "تقدير": 4698,
      "واجهة": 4699,
      "بدي": 4700,
      "بوجود": 4701,
      "محيط": 4702,
      "التنوع": 4703,
      "رابط": 4704,
      "معرض": 4705,
      "العصر": 4706,
      "السو": 4707,
      "الجوي": 4708,
      "هيكل": 4709,
      "متحف": 4710,
      "ترات": 4711,
      "الصيد": 4712,
      "الغلاف": 4713,
      "عامين": 4714,
      "الأمم": 4715,
      "الأسواق": 4716,
      "يهتم": 4717,
      "اختراع": 4718,
      "تؤثر": 4719,
      "الاقتصادية": 4720,
      "خفاض": 4721,
      "أعد": 4722,
      "تواجه": 4723,
      "جنا": 4724,
      "حلم": 4725,
      "غن": 4726,
      "فلي": 4727,
      "مبد": 4728,
      "مكتب": 4729,
      "المراه": 4730,
      "الته": 4731,
      "ستقوم": 4732,
      "مثيل": 4733,
      "أمين": 4734,
      "عينات": 4735,
      "يسأل": 4736,
      "تسجيل": 4737,
      "نعرفه": 4738,
      "الشمالي": 4739,
      "الخارجية": 4740,
      "الحواسيب": 4741,
      "بطبيعة": 4742,
      "بفعل": 4743,
      "شية": 4744,
      "الالك": 4745,
      "قدمت": 4746,
      "العين": 4747,
      "بعث": 4748,
      "بائي": 4749,
      "الشبكات": 4750,
      "علمين": 4751,
      "كتئاب": 4752,
      "تصدق": 4753,
      "بإستخدام": 4754,
      "قواعد": 4755,
      "تبحث": 4756,
      "جلت": 4757,
      "عف": 4758,
      "انو": 4759,
      "المقب": 4760,
      "ياز": 4761,
      "ورد": 4762,
      "ومت": 4763,
      "سابق": 4764,
      "بدوا": 4765,
      "الصغار": 4766,
      "الخيار": 4767,
      "جابات": 4768,
      "بقوة": 4769,
      "التصرف": 4770,
      "طانيا": 4771,
      "إجراء": 4772,
      "ثابت": 4773,
      "ذان": 4774,
      "نغ": 4775,
      "اتجاه": 4776,
      "للمرة": 4777,
      "يدخل": 4778,
      "قيل": 4779,
      "فادة": 4780,
      "بحر": 4781,
      "تتبع": 4782,
      "أعيش": 4783,
      "جزيرة": 4784,
      "الشخصي": 4785,
      "المصدر": 4786,
      "للاست": 4787,
      "تعل": 4788,
      "دى": 4789,
      "قن": 4790,
      "لرؤية": 4791,
      "نسميه": 4792,
      "يلي": 4793,
      "التم": 4794,
      "راعات": 4795,
      "معقد": 4796,
      "للف": 4797,
      "يتك": 4798,
      "تحسين": 4799,
      "نتي": 4800,
      "قلق": 4801,
      "نعود": 4802,
      "تجارب": 4803,
      "الغربية": 4804,
      "لنرى": 4805,
      "محطة": 4806,
      "رؤيته": 4807,
      "البرية": 4808,
      "النفسية": 4809,
      "بيا": 4810,
      "بكر": 4811,
      "غرف": 4812,
      "يطلق": 4813,
      "اتصال": 4814,
      "وائي": 4815,
      "ريحة": 4816,
      "وقبل": 4817,
      "الخيارات": 4818,
      "تحب": 4819,
      "وضعها": 4820,
      "فقال": 4821,
      "حرفيا": 4822,
      "فريقية": 4823,
      "جوهر": 4824,
      "زيارة": 4825,
      "منتجات": 4826,
      "الوطنية": 4827,
      "راتيجية": 4828,
      "سماع": 4829,
      "صلت": 4830,
      "غرب": 4831,
      "قان": 4832,
      "لانها": 4833,
      "مهند": 4834,
      "المواقع": 4835,
      "الحين": 4836,
      "هوة": 4837,
      "ساً": 4838,
      "الاي": 4839,
      "الخطر": 4840,
      "الإقتصادي": 4841,
      "واحدا": 4842,
      "الوزن": 4843,
      "أكسيد": 4844,
      "أملك": 4845,
      "تدور": 4846,
      "وائد": 4847,
      "الأصوات": 4848,
      "الطاولة": 4849,
      "!\"\"": 4850,
      "an": 4851,
      "إضافة": 4852,
      "مبت": 4853,
      "ولكي": 4854,
      "المهند": 4855,
      "كنلوجيا": 4856,
      "قاسم": 4857,
      "النصف": 4858,
      "وجوه": 4859,
      "الجد": 4860,
      "ترغب": 4861,
      "الصيف": 4862,
      "الخضراء": 4863,
      "وضيح": 4864,
      "الغابة": 4865,
      "فإنك": 4866,
      "تمتلك": 4867,
      "البرامج": 4868,
      "آسيا": 4869,
      "أحدث": 4870,
      "أفهم": 4871,
      "ببط": 4872,
      "بجانب": 4873,
      "خيار": 4874,
      "صق": 4875,
      "يتين": 4876,
      "الاهتمام": 4877,
      "الإبداع": 4878,
      "سنان": 4879,
      "كادي": 4880,
      "اليومية": 4881,
      "استغرق": 4882,
      "قرأت": 4883,
      "المدنية": 4884,
      "بصدد": 4885,
      "وظائف": 4886,
      "الجنسي": 4887,
      "خاطئة": 4888,
      "ثنائي": 4889,
      "العادة": 4890,
      "الجزيئات": 4891,
      "إم": 4892,
      "بالب": 4893,
      "واني": 4894,
      "ولف": 4895,
      "للص": 4896,
      "للإن": 4897,
      "باعت": 4898,
      "أتى": 4899,
      "وأريد": 4900,
      "فعلها": 4901,
      "ولايات": 4902,
      "سألة": 4903,
      "دائم": 4904,
      "بانزي": 4905,
      "عشرات": 4906,
      "بالقرب": 4907,
      "تركيز": 4908,
      "حادثات": 4909,
      "الأهمية": 4910,
      "الوظائف": 4911,
      "سعيدة": 4912,
      "الأزرق": 4913,
      "المجموعات": 4914,
      "اهتما": 4915,
      "رين": 4916,
      "زع": 4917,
      "ظهار": 4918,
      "فعندما": 4919,
      "قديمة": 4920,
      "ّع": 4921,
      "لكية": 4922,
      "واشن": 4923,
      "الخدمات": 4924,
      "قلنا": 4925,
      "رائعا": 4926,
      "إلينا": 4927,
      "ثلاثية": 4928,
      "الأولية": 4929,
      "البيض": 4930,
      "جزءا": 4931,
      "عمرها": 4932,
      "لتحقيق": 4933,
      "ينتهي": 4934,
      "إثارة": 4935,
      "المخلوقات": 4936,
      "اقل": 4937,
      "بتر": 4938,
      "بالطريقة": 4939,
      "تعلي": 4940,
      "حان": 4941,
      "دام": 4942,
      "زراعة": 4943,
      "سف": 4944,
      "لحل": 4945,
      "لنفسي": 4946,
      "مالية": 4947,
      "مشاهد": 4948,
      "هاي": 4949,
      "قدمة": 4950,
      "كونها": 4951,
      "وأخ": 4952,
      "مدهش": 4953,
      "أمريكي": 4954,
      "يؤثر": 4955,
      "إطلاق": 4956,
      "دليل": 4957,
      "سح": 4958,
      "طري": 4959,
      "فإذا": 4960,
      "كه": 4961,
      "وو": 4962,
      "ويمكنكم": 4963,
      "يدة": 4964,
      "انيا": 4965,
      "معت": 4966,
      "العر": 4967,
      "سيتم": 4968,
      "القراءة": 4969,
      "الإحساس": 4970,
      "أخيرا": 4971,
      "لنقل": 4972,
      "استطعت": 4973,
      "يوماً": 4974,
      "البسيطة": 4975,
      "تشكيل": 4976,
      "سلا": 4977,
      "طبقة": 4978,
      "وليد": 4979,
      "للش": 4980,
      "البساطة": 4981,
      "وقوف": 4982,
      "السمك": 4983,
      "الخبز": 4984,
      "فعلته": 4985,
      "حوله": 4986,
      "حلات": 4987,
      "فعالية": 4988,
      "وانب": 4989,
      "وكانوا": 4990,
      "نجح": 4991,
      "اليابان": 4992,
      "150": 4993,
      "بمث": 4994,
      "سما": 4995,
      "سبع": 4996,
      "موقف": 4997,
      "وسن": 4998,
      "ستمر": 4999,
      "ديفيد": 5000,
      "العاط": 5001,
      "الحفاظ": 5002,
      "حايا": 5003,
      "أتعلمون": 5004,
      "رته": 5005,
      "محور": 5006,
      "سوياً": 5007,
      "تجاوز": 5008,
      "إمرأة": 5009,
      "تغل": 5010,
      "جوجل": 5011,
      "سلم": 5012,
      "فرا": 5013,
      "يما": 5014,
      "يفترض": 5015,
      "شرب": 5016,
      "نتعامل": 5017,
      "أعين": 5018,
      "أعضاء": 5019,
      "رائيل": 5020,
      "جيال": 5021,
      "سميها": 5022,
      "التفاصيل": 5023,
      ",\"\"": 5024,
      "خائ": 5025,
      "صان": 5026,
      "ضب": 5027,
      "ناة": 5028,
      "ماكن": 5029,
      "التعرف": 5030,
      "الأشكال": 5031,
      "النهر": 5032,
      "الكواكب": 5033,
      "وقمنا": 5034,
      "وتا": 5035,
      "دران": 5036,
      "فعلنا": 5037,
      "الرياضية": 5038,
      "مرتبطة": 5039,
      "استطاع": 5040,
      "99": 5041,
      "إسم": 5042,
      "بساطة": 5043,
      "تويتر": 5044,
      "عطي": 5045,
      "فهذه": 5046,
      "مضا": 5047,
      "نتمكن": 5048,
      "راعي": 5049,
      "ارد": 5050,
      "وقام": 5051,
      "نيف": 5052,
      "الرب": 5053,
      "محرك": 5054,
      "جعلها": 5055,
      "مانيا": 5056,
      "يحتاجون": 5057,
      "الصحراء": 5058,
      "اللقاح": 5059,
      "السوداء": 5060,
      ".:": 5061,
      "75": 5062,
      "آر": 5063,
      "ألم": 5064,
      "أحتاج": 5065,
      "تذ": 5066,
      "صب": 5067,
      "فسة": 5068,
      "قراض": 5069,
      "مظ": 5070,
      "وذ": 5071,
      "المستخدم": 5072,
      "ولدت": 5073,
      "الأراضي": 5074,
      "الخبر": 5075,
      "الرغبة": 5076,
      "ولوجية": 5077,
      "السيد": 5078,
      "العائلة": 5079,
      "استخدمت": 5080,
      "فش": 5081,
      "قوق": 5082,
      "مئ": 5083,
      "وّر": 5084,
      "الوجه": 5085,
      "مائة": 5086,
      "المفهوم": 5087,
      "اتها": 5088,
      "قادة": 5089,
      "باحة": 5090,
      "ابون": 5091,
      "أعود": 5092,
      "سلوب": 5093,
      "تسأل": 5094,
      "لإعادة": 5095,
      "قاطعة": 5096,
      "الجنسية": 5097,
      "التدريب": 5098,
      "يتحدثون": 5099,
      "يشعرون": 5100,
      "سكرية": 5101,
      "on": 5102,
      "بأخذ": 5103,
      "بوضوح": 5104,
      "تسبب": 5105,
      "تبلغ": 5106,
      "حساب": 5107,
      "سوا": 5108,
      "صبا": 5109,
      "ناد": 5110,
      "فيز": 5111,
      "التكلفة": 5112,
      "التنبؤ": 5113,
      "العش": 5114,
      "للبحث": 5115,
      "يتر": 5116,
      "لتغيير": 5117,
      "نحب": 5118,
      "مثلما": 5119,
      "موية": 5120,
      "مدار": 5121,
      "نوعية": 5122,
      "الأرضية": 5123,
      "الأخضر": 5124,
      "المشاعر": 5125,
      "المسار": 5126,
      "اعتقدت": 5127,
      "عقود": 5128,
      "بريطانيا": 5129,
      "فائدة": 5130,
      "الوطني": 5131,
      "المهارات": 5132,
      "الدولارات": 5133,
      "بمثابة": 5134,
      "35": 5135,
      "ثى": 5136,
      "ساني": 5137,
      "يّة": 5138,
      "المعاد": 5139,
      "اتضح": 5140,
      "املة": 5141,
      "ملت": 5142,
      "ضائ": 5143,
      "وأص": 5144,
      "بيننا": 5145,
      "ائق": 5146,
      "الوراء": 5147,
      "بإست": 5148,
      "البياني": 5149,
      "تسعة": 5150,
      "الناحية": 5151,
      "المؤتمر": 5152,
      "امرٌ": 5153,
      "عائلتي": 5154,
      "القطاع": 5155,
      "التلفزيون": 5156,
      "آمن": 5157,
      "أقدام": 5158,
      "ؤس": 5159,
      "انتهى": 5160,
      "التخلص": 5161,
      "الحقائق": 5162,
      "إنني": 5163,
      "باحث": 5164,
      "فاف": 5165,
      "علمي": 5166,
      "أشعة": 5167,
      "المستحيل": 5168,
      "اعرف": 5169,
      "سمعتم": 5170,
      "أضعاف": 5171,
      "التجارة": 5172,
      "منخفضة": 5173,
      "دئ": 5174,
      "سوية": 5175,
      "ضطرا": 5176,
      "يظن": 5177,
      "ُل": 5178,
      "العظم": 5179,
      "البن": 5180,
      "البريط": 5181,
      "الجبل": 5182,
      "وعد": 5183,
      "الدقيقة": 5184,
      "الغريب": 5185,
      "خطاء": 5186,
      "اذاً": 5187,
      "مسافة": 5188,
      "الصينية": 5189,
      "سعداء": 5190,
      "المغناطي": 5191,
      "الكاميرا": 5192,
      "21": 5193,
      "أوقات": 5194,
      "بالان": 5195,
      "جول": 5196,
      "زالة": 5197,
      "صوير": 5198,
      "قيا": 5199,
      "وأنه": 5200,
      "وأيضا": 5201,
      "اللوحة": 5202,
      "هابي": 5203,
      "الأجزاء": 5204,
      "ليوم": 5205,
      "قاق": 5206,
      "الجلد": 5207,
      "بتنا": 5208,
      "ودع": 5209,
      "ولاد": 5210,
      "قصد": 5211,
      "بسط": 5212,
      "مفيدة": 5213,
      "طع": 5214,
      "فهناك": 5215,
      "ّب": 5216,
      "المسي": 5217,
      "الأعصاب": 5218,
      "القيا": 5219,
      "الفريق": 5220,
      "اليها": 5221,
      "بينها": 5222,
      "الغربي": 5223,
      "أرسل": 5224,
      "أحصل": 5225,
      "فلات": 5226,
      "المرج": 5227,
      "تهاء": 5228,
      "الاستماع": 5229,
      "الأربعة": 5230,
      "،...": 5231,
      "آخذ": 5232,
      "أطف": 5233,
      "تظن": 5234,
      "ره": 5235,
      "روي": 5236,
      "سى": 5237,
      "وقة": 5238,
      "ّق": 5239,
      "الحدث": 5240,
      "الأبيض": 5241,
      "العشر": 5242,
      "الجاذ": 5243,
      "تقنيات": 5244,
      "يقع": 5245,
      "رؤوس": 5246,
      "ذكية": 5247,
      "دخلت": 5248,
      "منظور": 5249,
      "مؤخراً": 5250,
      "متحمس": 5251,
      "أضع": 5252,
      "زير": 5253,
      "فرة": 5254,
      "مميزة": 5255,
      "والص": 5256,
      "ونظر": 5257,
      "الأوقات": 5258,
      "هيئة": 5259,
      "الفص": 5260,
      "الروا": 5261,
      "الرأس": 5262,
      "تمبر": 5263,
      "خصصة": 5264,
      "تصاب": 5265,
      "بطال": 5266,
      "طلبت": 5267,
      "بقليل": 5268,
      "تكوين": 5269,
      "النامية": 5270,
      "ممار": 5271,
      "ملائ": 5272,
      "ثنائية": 5273,
      "وبينما": 5274,
      "فرانسيس": 5275,
      "بغض": 5276,
      "تواصل": 5277,
      "زالت": 5278,
      "سحب": 5279,
      "قيت": 5280,
      "مكاف": 5281,
      "وعند": 5282,
      "نائ": 5283,
      "ريكا": 5284,
      "العكس": 5285,
      "يعط": 5286,
      "السين": 5287,
      "بدقة": 5288,
      "الفكر": 5289,
      "وفجأة": 5290,
      "درب": 5291,
      "الاتجاه": 5292,
      "الحيوي": 5293,
      "ملابس": 5294,
      "أخبرني": 5295,
      "شريط": 5296,
      "القطعة": 5297,
      "دخول": 5298,
      "العناصر": 5299,
      "الخامسة": 5300,
      "اعادة": 5301,
      "صفر": 5302,
      "غذية": 5303,
      "لأكثر": 5304,
      "مولة": 5305,
      "وود": 5306,
      "يّ": 5307,
      "يثير": 5308,
      "يفية": 5309,
      "المض": 5310,
      "الألوان": 5311,
      "بعرض": 5312,
      "قادي": 5313,
      "باقي": 5314,
      "السري": 5315,
      "الجلي": 5316,
      "متعة": 5317,
      "سمك": 5318,
      "أصحاب": 5319,
      "رائح": 5320,
      "يحب": 5321,
      "سياسة": 5322,
      "الساد": 5323,
      "الجنوبية": 5324,
      "الرابع": 5325,
      "نستخدمها": 5326,
      "ضاعف": 5327,
      "معروف": 5328,
      "بمعدل": 5329,
      "زلنا": 5330,
      "شات": 5331,
      "يعلمون": 5332,
      "المرات": 5333,
      "ولماذا": 5334,
      "ارعين": 5335,
      "يمياء": 5336,
      "البا": 5337,
      "وقالوا": 5338,
      "القيم": 5339,
      "الخد": 5340,
      "الخريطة": 5341,
      "تعبر": 5342,
      "بينهم": 5343,
      "المتط": 5344,
      "مسح": 5345,
      "المنطق": 5346,
      "المعقدة": 5347,
      "تكمن": 5348,
      "نسأل": 5349,
      "المصمم": 5350,
      "مشاريع": 5351,
      "طائر": 5352,
      "جسدي": 5353,
      "سهلة": 5354,
      "مريض": 5355,
      "الداخلية": 5356,
      "تلاحظ": 5357,
      "ضو": 5358,
      "قري": 5359,
      "المفضل": 5360,
      "المطر": 5361,
      "المقابل": 5362,
      "المسألة": 5363,
      "ينيات": 5364,
      "ورق": 5365,
      "قاعد": 5366,
      "خرية": 5367,
      "الفراغ": 5368,
      "شافات": 5369,
      "سبوك": 5370,
      "جلوس": 5371,
      "مسر": 5372,
      "رائب": 5373,
      "وصيل": 5374,
      "ومان": 5375,
      "ممكنا": 5376,
      "الأمام": 5377,
      "جسام": 5378,
      "بأكملها": 5379,
      "أذكر": 5380,
      "إطار": 5381,
      "بالد": 5382,
      "حبي": 5383,
      "رخ": 5384,
      "رمز": 5385,
      "والشيء": 5386,
      "يوضح": 5387,
      "الميز": 5388,
      "عنهم": 5389,
      "الذاتي": 5390,
      "إلقاء": 5391,
      "الاكثر": 5392,
      "مره": 5393,
      "بتة": 5394,
      "تحليل": 5395,
      "قصير": 5396,
      "بنائ": 5397,
      "الضر": 5398,
      "الزواج": 5399,
      "مصر": 5400,
      "قابلت": 5401,
      "مواجهة": 5402,
      "فاتيح": 5403,
      "صديقي": 5404,
      "قناع": 5405,
      "أبحث": 5406,
      "إفريقيا": 5407,
      "تَ": 5408,
      "عظ": 5409,
      "قضي": 5410,
      "مكون": 5411,
      "فيين": 5412,
      "الأخر": 5413,
      "ساحة": 5414,
      "سيج": 5415,
      "لمست": 5416,
      "عائل": 5417,
      "بتصميم": 5418,
      "جاعة": 5419,
      "الثلج": 5420,
      "نعطي": 5421,
      "مستمر": 5422,
      "فإنهم": 5423,
      "نسخ": 5424,
      "صدق": 5425,
      "السيئة": 5426,
      "يجعلنا": 5427,
      "كاتب": 5428,
      "مرضى": 5429,
      "النفسي": 5430,
      "تحديداً": 5431,
      "مفتوحة": 5432,
      "آي": 5433,
      "أفعله": 5434,
      "أزمة": 5435,
      "توزيع": 5436,
      "تفسير": 5437,
      "ثالث": 5438,
      "جوا": 5439,
      "حقي": 5440,
      "خوف": 5441,
      "لأحد": 5442,
      "مف": 5443,
      "وإلى": 5444,
      "ناول": 5445,
      "عادية": 5446,
      "وبالنسبة": 5447,
      "كتلة": 5448,
      "مدير": 5449,
      "سلق": 5450,
      "أشبه": 5451,
      "أدنى": 5452,
      "ملاحظة": 5453,
      "رأسي": 5454,
      "صورات": 5455,
      "أصدقاء": 5456,
      "التغيرات": 5457,
      "الخلفية": 5458,
      "المظلمة": 5459,
      "القرارات": 5460,
      "بود": 5461,
      "قُ": 5462,
      "كائنات": 5463,
      "نبني": 5464,
      "نراها": 5465,
      "هون": 5466,
      "ولك": 5467,
      "أندرسون": 5468,
      "مرتين": 5469,
      "الطويل": 5470,
      "جابي": 5471,
      "شاهدة": 5472,
      "وسين": 5473,
      "ثمّ": 5474,
      "بالتفكير": 5475,
      "تشير": 5476,
      "دعنا": 5477,
      "الامريكية": 5478,
      "صحيفة": 5479,
      "وائر": 5480,
      "علانات": 5481,
      "عضو": 5482,
      "بأكمله": 5483,
      "كنيسة": 5484,
      "بعاثات": 5485,
      "ئران": 5486,
      "شطة": 5487,
      "فسوف": 5488,
      "مشاركة": 5489,
      "يكا": 5490,
      "ماح": 5491,
      "اميم": 5492,
      "الحراري": 5493,
      "السود": 5494,
      "الجهة": 5495,
      "هيل": 5496,
      "الصع": 5497,
      "الإتص": 5498,
      "مختلفين": 5499,
      "أشارك": 5500,
      "نشأت": 5501,
      "احتمال": 5502,
      "ذكياء": 5503,
      "الفنون": 5504,
      "إخبار": 5505,
      "الهواتف": 5506,
      "كيلوم": 5507,
      "واشنطن": 5508,
      "آلات": 5509,
      "تلو": 5510,
      "ننت": 5511,
      "ندرك": 5512,
      "المخاطر": 5513,
      "وارد": 5514,
      "الحكم": 5515,
      "لكنك": 5516,
      "البريد": 5517,
      "سيقول": 5518,
      "الكيميائية": 5519,
      "يتحرك": 5520,
      "نيج": 5521,
      "ترتي": 5522,
      "ويه": 5523,
      "تحقق": 5524,
      "تتعلم": 5525,
      "فترا": 5526,
      "بأنك": 5527,
      "المحمول": 5528,
      "ثلث": 5529,
      "لاننا": 5530,
      "حقيقةً": 5531,
      "الجينوم": 5532,
      "الجاذبية": 5533,
      "جت": 5534,
      "حديقة": 5535,
      "شبه": 5536,
      "عان": 5537,
      "يشاهد": 5538,
      "الدرجة": 5539,
      "المطل": 5540,
      "الاد": 5541,
      "باما": 5542,
      "السفر": 5543,
      "تقريب": 5544,
      "يجد": 5545,
      "فعالة": 5546,
      "مصم": 5547,
      "إليك": 5548,
      "يومياً": 5549,
      "استخدامه": 5550,
      "تستحق": 5551,
      "الكلية": 5552,
      "علامات": 5553,
      "يعادل": 5554,
      "ئول": 5555,
      "جودة": 5556,
      "صحية": 5557,
      "لى": 5558,
      "محاول": 5559,
      "هذة": 5560,
      "يبة": 5561,
      "يواجه": 5562,
      "الحائ": 5563,
      "الحالية": 5564,
      "الكث": 5565,
      "أوضح": 5566,
      "الإيدز": 5567,
      "تحريك": 5568,
      "وسيع": 5569,
      "السياق": 5570,
      "كوين": 5571,
      "أجسام": 5572,
      "المركز": 5573,
      "يميائي": 5574,
      "المثيرة": 5575,
      "الخيال": 5576,
      "بمقدور": 5577,
      "الزرقاء": 5578,
      "إشارة": 5579,
      "بوس": 5580,
      "جوع": 5581,
      "طنين": 5582,
      "عالي": 5583,
      "مخط": 5584,
      "مراقبة": 5585,
      "ندع": 5586,
      "يال": 5587,
      "القد": 5588,
      "ناهم": 5589,
      "المهن": 5590,
      "ينمو": 5591,
      "يرام": 5592,
      "قدمي": 5593,
      "الذكر": 5594,
      "إلت": 5595,
      "تركت": 5596,
      "ويقوم": 5597,
      "الخاط": 5598,
      "بتغيير": 5599,
      "مصا": 5600,
      "سأريكم": 5601,
      "دراسات": 5602,
      "كبوت": 5603,
      "مراكز": 5604,
      "حديثي": 5605,
      "الفقيرة": 5606,
      "\".": 5607,
      "ئيا": 5608,
      "ادة": 5609,
      "بوط": 5610,
      "حرف": 5611,
      "حقيق": 5612,
      "خدمات": 5613,
      "رعة": 5614,
      "سجة": 5615,
      "قوى": 5616,
      "مأل": 5617,
      "مامة": 5618,
      "المباد": 5619,
      "المحادثة": 5620,
      "معاد": 5621,
      "حدّ": 5622,
      "الاسا": 5623,
      "نيو": 5624,
      "الروح": 5625,
      "تمكنت": 5626,
      "وبيا": 5627,
      "أتكلم": 5628,
      "وجدوا": 5629,
      "تكونوا": 5630,
      "القرية": 5631,
      "الرقمي": 5632,
      "منزلي": 5633,
      "بشرية": 5634,
      "يأتون": 5635,
      "للذهاب": 5636,
      "أستخدم": 5637,
      "ئذ": 5638,
      "بالأمر": 5639,
      "بأشياء": 5640,
      "حضر": 5641,
      "دفق": 5642,
      "شح": 5643,
      "طالما": 5644,
      "غبون": 5645,
      "فأ": 5646,
      "فضاء": 5647,
      "لعدة": 5648,
      "محدد": 5649,
      "وغرا": 5650,
      "كندا": 5651,
      "قدما": 5652,
      "الشريحة": 5653,
      "متها": 5654,
      "متعلق": 5655,
      "وكأنه": 5656,
      "أسلوب": 5657,
      "خطي": 5658,
      "المجرات": 5659,
      "فكرنا": 5660,
      "إليهم": 5661,
      "جنون": 5662,
      "شارع": 5663,
      "عرفت": 5664,
      "كينيا": 5665,
      "الحروب": 5666,
      "الذاتية": 5667,
      "الوسطى": 5668,
      "إرسال": 5669,
      "ئياً": 5670,
      "بالكثير": 5671,
      "رسائل": 5672,
      "لنت": 5673,
      "نأمل": 5674,
      "هان": 5675,
      "والناس": 5676,
      "فيض": 5677,
      "فيق": 5678,
      "وننا": 5679,
      "ريين": 5680,
      "يعرض": 5681,
      "الرقص": 5682,
      "بتس": 5683,
      "وسطة": 5684,
      "ائد": 5685,
      "بطاقة": 5686,
      "أسماك": 5687,
      "شخصاً": 5688,
      "طلح": 5689,
      "الجنوبي": 5690,
      "برمجة": 5691,
      "المقبلة": 5692,
      "qu": 5693,
      "المخطط": 5694,
      "للان": 5695,
      "أيّ": 5696,
      "غيرت": 5697,
      "مسك": 5698,
      "رائم": 5699,
      "المستهلك": 5700,
      "رأيتم": 5701,
      "باللغة": 5702,
      "تتمكن": 5703,
      "جها": 5704,
      "سعر": 5705,
      "شير": 5706,
      "مقط": 5707,
      "نغير": 5708,
      "ويتم": 5709,
      "ّف": 5710,
      "اتل": 5711,
      "اته": 5712,
      "لاحق": 5713,
      "العالية": 5714,
      "يعاني": 5715,
      "النقل": 5716,
      "يتعلم": 5717,
      "الفنا": 5718,
      "عميق": 5719,
      "لوحد": 5720,
      "وقتا": 5721,
      "فتراضي": 5722,
      "سرى": 5723,
      "مصنع": 5724,
      "غلال": 5725,
      "يستمر": 5726,
      "باستمرار": 5727,
      "قرارات": 5728,
      "تعتقدون": 5729,
      "يفكرون": 5730,
      "أحياناً": 5731,
      "\"[": 5732,
      "إدراك": 5733,
      "اشخاص": 5734,
      "ثقة": 5735,
      "شفيات": 5736,
      "صيد": 5737,
      "فج": 5738,
      "يود": 5739,
      "منطقي": 5740,
      "الأبحاث": 5741,
      "راة": 5742,
      "لله": 5743,
      "ومرة": 5744,
      "الجبال": 5745,
      "يدان": 5746,
      "علمية": 5747,
      "وأخذ": 5748,
      "كاثر": 5749,
      "مشاعر": 5750,
      "عصبية": 5751,
      "يذهبون": 5752,
      "أكت": 5753,
      "أستطع": 5754,
      "اعلم": 5755,
      "ثارة": 5756,
      "ذالك": 5757,
      "ظة": 5758,
      "مَ": 5759,
      "والاست": 5760,
      "الري": 5761,
      "انته": 5762,
      "الأحداث": 5763,
      "باي": 5764,
      "بتطوير": 5765,
      "الدعم": 5766,
      "سبتمبر": 5767,
      "وأخير": 5768,
      "تعقي": 5769,
      "لندا": 5770,
      "يكونون": 5771,
      "أعداد": 5772,
      "رائعاً": 5773,
      "آخرون": 5774,
      "جنس": 5775,
      "مقياس": 5776,
      "نظامنا": 5777,
      "فظيع": 5778,
      "الأعضاء": 5779,
      "amp": 5780,
      "ar": 5781,
      "أداء": 5782,
      "ؤها": 5783,
      "خن": 5784,
      "ضار": 5785,
      "عُ": 5786,
      "يبقى": 5787,
      "المساعد": 5788,
      "اتحدث": 5789,
      "التكنلوجيا": 5790,
      "ياب": 5791,
      "الأب": 5792,
      "\"\",": 5793,
      "كلياً": 5794,
      "للد": 5795,
      "النفا": 5796,
      "وقعة": 5797,
      "السريع": 5798,
      "وجات": 5799,
      "القمة": 5800,
      "الطقس": 5801,
      "الصندوق": 5802,
      "ويض": 5803,
      "الدواء": 5804,
      "وأحد": 5805,
      "المنح": 5806,
      "أحس": 5807,
      "مصمم": 5808,
      "البيئي": 5809,
      "الفيزيا": 5810,
      "التحرك": 5811,
      "مهارات": 5812,
      "معروفة": 5813,
      "أعل": 5814,
      "جني": 5815,
      "حفظ": 5816,
      "شها": 5817,
      "قشة": 5818,
      "نشاهد": 5819,
      "القدر": 5820,
      "ذاه": 5821,
      "ستحصل": 5822,
      "الألم": 5823,
      "راس": 5824,
      "قدماً": 5825,
      "للأسف": 5826,
      "يتوقف": 5827,
      "الشمال": 5828,
      "متن": 5829,
      "مته": 5830,
      "ويب": 5831,
      "وبذلك": 5832,
      "المتعة": 5833,
      "قادرا": 5834,
      "فقدان": 5835,
      "زاوية": 5836,
      "تلعب": 5837,
      "مشترك": 5838,
      "لسلة": 5839,
      "مارية": 5840,
      "تستمر": 5841,
      "الجنوب": 5842,
      "سمعنا": 5843,
      "لاحظت": 5844,
      "ممتاز": 5845,
      "الموسيقية": 5846,
      "أغنية": 5847,
      "الحقوق": 5848,
      "زملائي": 5849,
      "600": 5850,
      "أبد": 5851,
      "اعني": 5852,
      "اسمحوا": 5853,
      "تراه": 5854,
      "صفة": 5855,
      "مازال": 5856,
      "السم": 5857,
      "حيز": 5858,
      "برت": 5859,
      "كوننا": 5860,
      "متوا": 5861,
      "بعضكم": 5862,
      "وسة": 5863,
      "أتعلم": 5864,
      "المتا": 5865,
      "استر": 5866,
      "أمرٌ": 5867,
      "كريات": 5868,
      "كاميرا": 5869,
      "المشتركة": 5870,
      "خاطئ": 5871,
      "اجتماعية": 5872,
      "الخمسة": 5873,
      "إحساس": 5874,
      "اﻷ": 5875,
      "تتج": 5876,
      "جلة": 5877,
      "طم": 5878,
      "لشيء": 5879,
      "المئات": 5880,
      "هارف": 5881,
      "الحيتان": 5882,
      "إنت": 5883,
      "ويكي": 5884,
      "جاري": 5885,
      "بطي": 5886,
      "ابني": 5887,
      "فلون": 5888,
      "سياق": 5889,
      "196": 5890,
      "أدري": 5891,
      "ندق": 5892,
      "سابقا": 5893,
      "غوغل": 5894,
      "الهيدر": 5895,
      "الاعتبار": 5896,
      "متاحة": 5897,
      "فرانسيسكو": 5898,
      "1000": 5899,
      "22": 5900,
      "آثار": 5901,
      "أظهر": 5902,
      "أغل": 5903,
      "بالش": 5904,
      "جبل": 5905,
      "خبير": 5906,
      "ذكاء": 5907,
      "صيا": 5908,
      "صنة": 5909,
      "فلو": 5910,
      "مخطط": 5911,
      "مارت": 5912,
      "ينجح": 5913,
      "ستين": 5914,
      "ليق": 5915,
      "كلهم": 5916,
      "امي": 5917,
      "يميل": 5918,
      "ورين": 5919,
      "الحركات": 5920,
      "باسم": 5921,
      "متشابه": 5922,
      "نتوقع": 5923,
      "وقتها": 5924,
      "تتذكر": 5925,
      "تهتم": 5926,
      "قتنا": 5927,
      "تدفق": 5928,
      "يقوموا": 5929,
      "عائلت": 5930,
      "المحافظ": 5931,
      "جذب": 5932,
      "يخبرنا": 5933,
      "ينظرون": 5934,
      "المكسيك": 5935,
      "دوماً": 5936,
      "مرحبا": 5937,
      "أذن": 5938,
      "تبني": 5939,
      "حز": 5940,
      "دث": 5941,
      "زرع": 5942,
      "قيادة": 5943,
      "نمتلك": 5944,
      "وثم": 5945,
      "يسبب": 5946,
      "ّت": 5947,
      "المكتب": 5948,
      "واسعة": 5949,
      "يرية": 5950,
      "عنصر": 5951,
      "وروبا": 5952,
      "سيطر": 5953,
      "....": 5954,
      "نيين": 5955,
      "الآلي": 5956,
      "تصنيع": 5957,
      "المتوقع": 5958,
      "أسهل": 5959,
      "تتوقع": 5960,
      "منازل": 5961,
      "مدين": 5962,
      "مدهشة": 5963,
      "جينات": 5964,
      "يصعب": 5965,
      "ايجاد": 5966,
      "ذكرت": 5967,
      "بكرة": 5968,
      "حوث": 5969,
      "لحسن": 5970,
      "القادة": 5971,
      "خصائص": 5972,
      "ممارسة": 5973,
      "خرة": 5974,
      "رنا": 5975,
      "رفين": 5976,
      "ضى": 5977,
      "فلت": 5978,
      "قريبة": 5979,
      "وهل": 5980,
      "وعندها": 5981,
      "يكر": 5982,
      "ُّ": 5983,
      "ماهية": 5984,
      "للنظر": 5985,
      "القلق": 5986,
      "وتن": 5987,
      "وتقوم": 5988,
      "اليس": 5989,
      "تموت": 5990,
      "تعاني": 5991,
      "قرن": 5992,
      "أحسن": 5993,
      "مصنوعة": 5994,
      "المعماري": 5995,
      "ترونها": 5996,
      "زاء": 5997,
      "رارية": 5998,
      "مشهد": 5999,
      "راقب": 6000,
      "بإمكانكم": 6001,
      "تؤدي": 6002,
      "الهيكل": 6003,
      "كهربائية": 6004,
      "الفيروسات": 6005,
      "كوكبنا": 6006,
      "مشابهة": 6007,
      "أستر": 6008,
      "بفضل": 6009,
      "توفي": 6010,
      "تقييم": 6011,
      "ثمة": 6012,
      "جيع": 6013,
      "كسر": 6014,
      "كومة": 6015,
      "وحين": 6016,
      "والعديد": 6017,
      "الهن": 6018,
      "المعنى": 6019,
      "اتخاذ": 6020,
      "لايين": 6021,
      "سيصبح": 6022,
      "الفحم": 6023,
      "اليسرى": 6024,
      "بتكر": 6025,
      "تقبل": 6026,
      "تجار": 6027,
      "رتنا": 6028,
      "كبيراً": 6029,
      "بإعادة": 6030,
      "لانني": 6031,
      "الجنود": 6032,
      "الصناعة": 6033,
      "عزيز": 6034,
      "الإجتماعي": 6035,
      "ؤلئك": 6036,
      "الإلكتروني": 6037,
      "العدالة": 6038,
      "نيجيريا": 6039,
      "توم": 6040,
      "سلام": 6041,
      "عه": 6042,
      "فال": 6043,
      "فها": 6044,
      "لخلق": 6045,
      "نجا": 6046,
      "نصبح": 6047,
      "علومة": 6048,
      "التنفس": 6049,
      "يادي": 6050,
      "الأوسط": 6051,
      "الحديد": 6052,
      "الني": 6053,
      "الجان": 6054,
      "الجسيمات": 6055,
      "حيطة": 6056,
      "ويلة": 6057,
      "الخلي": 6058,
      "شاكل": 6059,
      "خصيص": 6060,
      "مستحيل": 6061,
      "بأني": 6062,
      "تنقل": 6063,
      "الزجاج": 6064,
      "وهلم": 6065,
      "يوميا": 6066,
      "مجتمعنا": 6067,
      "الشمبانزي": 6068,
      "بالكاد": 6069,
      "وحدها": 6070,
      "بلدان": 6071,
      "لطيف": 6072,
      "رواية": 6073,
      "إصلاح": 6074,
      "المفتوحة": 6075,
      "العوامل": 6076,
      "العادية": 6077,
      "آلية": 6078,
      "إقتصاد": 6079,
      "بالص": 6080,
      "جرب": 6081,
      "حما": 6082,
      "رجة": 6083,
      "شو": 6084,
      "طير": 6085,
      "غري": 6086,
      "كأنه": 6087,
      "مبر": 6088,
      "منش": 6089,
      "التوازن": 6090,
      "الأصدقاء": 6091,
      "معون": 6092,
      "للطاقة": 6093,
      "هوية": 6094,
      "الاش": 6095,
      "الاع": 6096,
      "الاساس": 6097,
      "الفساد": 6098,
      "لتصبح": 6099,
      "شاعر": 6100,
      "اصبحت": 6101,
      "ميكان": 6102,
      "استهلاك": 6103,
      "المجالات": 6104,
      "لهؤلاء": 6105,
      "جعله": 6106,
      "جعلنا": 6107,
      "دائمًا": 6108,
      "السائ": 6109,
      "اثناء": 6110,
      "مشتركة": 6111,
      "تحدثنا": 6112,
      "سابقاً": 6113,
      "أخيراً": 6114,
      "شين": 6115,
      "ضيف": 6116,
      "مى": 6117,
      "وأيضاً": 6118,
      "المشار": 6119,
      "الأغلب": 6120,
      "للغ": 6121,
      "الجدار": 6122,
      "قيس": 6123,
      "الثمن": 6124,
      "ابدا": 6125,
      "تتوقف": 6126,
      "تعلمنا": 6127,
      "تلف": 6128,
      "نحتاجه": 6129,
      "الملاريا": 6130,
      "الأمريكيين": 6131,
      "ؤه": 6132,
      "روز": 6133,
      "ضول": 6134,
      "فوا": 6135,
      "فشل": 6136,
      "كول": 6137,
      "لقا": 6138,
      "مفر": 6139,
      "الواحدة": 6140,
      "أنماط": 6141,
      "الأداء": 6142,
      "سيدات": 6143,
      "الطلب": 6144,
      "يدر": 6145,
      "ويست": 6146,
      "كثافة": 6147,
      "شيكا": 6148,
      "وفاة": 6149,
      "نحل": 6150,
      "الدموية": 6151,
      "فعلوا": 6152,
      "نعيد": 6153,
      "أحياء": 6154,
      "الاتصالات": 6155,
      "المنازل": 6156,
      "لقى": 6157,
      "جئين": 6158,
      "التنمية": 6159,
      "الكافي": 6160,
      "فتراضية": 6161,
      "آت": 6162,
      "تجميع": 6163,
      "دها": 6164,
      "قبي": 6165,
      "مهو": 6166,
      "محادثة": 6167,
      "نسمة": 6168,
      "واليوم": 6169,
      "يان": 6170,
      "يسم": 6171,
      "يكت": 6172,
      "انتم": 6173,
      "ياها": 6174,
      "ليصبح": 6175,
      "البحوث": 6176,
      "كمثال": 6177,
      "حاق": 6178,
      "تمويل": 6179,
      "تقرير": 6180,
      "عدنا": 6181,
      "الدور": 6182,
      "فعليا": 6183,
      "أسأل": 6184,
      "ألمانيا": 6185,
      "تشخيص": 6186,
      "تايمز": 6187,
      "مصاب": 6188,
      "بصنع": 6189,
      "المصادر": 6190,
      "بإمكاني": 6191,
      "الإلكترونية": 6192,
      "طناعية": 6193,
      "البرمجيات": 6194,
      "quot": 6195,
      "إير": 6196,
      "اذهب": 6197,
      "بإنشاء": 6198,
      "ذى": 6199,
      "سق": 6200,
      "عقب": 6201,
      "فأن": 6202,
      "مذ": 6203,
      "مئة": 6204,
      "الداخلي": 6205,
      "المفر": 6206,
      "الموقف": 6207,
      "واحي": 6208,
      "التعلي": 6209,
      "راطي": 6210,
      "حدا": 6211,
      "الحمل": 6212,
      "النز": 6213,
      "النطاق": 6214,
      "حتما": 6215,
      "حيوية": 6216,
      "الطبي": 6217,
      "الطويلة": 6218,
      "الفار": 6219,
      "تمكنا": 6220,
      "أيها": 6221,
      "دماغي": 6222,
      "شرطة": 6223,
      "شاح": 6224,
      "تتطلب": 6225,
      "ولوجيا": 6226,
      "لاند": 6227,
      "عناصر": 6228,
      "عرفون": 6229,
      "الكتلة": 6230,
      "الملابس": 6231,
      "ببطء": 6232,
      "en": 6233,
      "بوص": 6234,
      "حمة": 6235,
      "ربع": 6236,
      "ياف": 6237,
      "يعبر": 6238,
      "يعيد": 6239,
      "حتماً": 6240,
      "كونه": 6241,
      "وته": 6242,
      "الخشب": 6243,
      "عتها": 6244,
      "درج": 6245,
      "فعلياً": 6246,
      "مستشفى": 6247,
      "حاولنا": 6248,
      "الأسرة": 6249,
      "أدى": 6250,
      "مزيد": 6251,
      "2008": 6252,
      "شريحة": 6253,
      "مباشر": 6254,
      "تغيرت": 6255,
      "الميلاد": 6256,
      "للنساء": 6257,
      "وارزميات": 6258,
      "تقريبًا": 6259,
      "شيكاغو": 6260,
      "om": 6261,
      "أظهرت": 6262,
      "بُ": 6263,
      "تود": 6264,
      "تحدد": 6265,
      "خبار": 6266,
      "دقيق": 6267,
      "سعادة": 6268,
      "شرا": 6269,
      "شبكات": 6270,
      "ضلة": 6271,
      "عقلي": 6272,
      "موق": 6273,
      "نور": 6274,
      "نهر": 6275,
      "ويم": 6276,
      "يأكل": 6277,
      "لاستخدام": 6278,
      "التخطيط": 6279,
      "يعاب": 6280,
      "هوف": 6281,
      "السّ": 6282,
      "السحر": 6283,
      "ترع": 6284,
      "حاض": 6285,
      "الإمكان": 6286,
      "فافية": 6287,
      "لأنّ": 6288,
      "فكّر": 6289,
      "سلطة": 6290,
      "تنفيذ": 6291,
      "وانت": 6292,
      "كسجين": 6293,
      "197": 6294,
      "أدمغ": 6295,
      "الحاسب": 6296,
      "تنتشر": 6297,
      "المحتوى": 6298,
      "الصفحة": 6299,
      "يموتون": 6300,
      "الجذعية": 6301,
      "وفكرت": 6302,
      "قاقير": 6303,
      "السريعة": 6304,
      "باللون": 6305,
      "تكل": 6306,
      "كبار": 6307,
      "لوضع": 6308,
      "ّات": 6309,
      "المحيطة": 6310,
      "سترا": 6311,
      "الأزمة": 6312,
      "راحم": 6313,
      "العربية": 6314,
      "للمجتمع": 6315,
      "الفئران": 6316,
      "غيرها": 6317,
      "نفق": 6318,
      "مثالي": 6319,
      "ستطاع": 6320,
      "الغريبة": 6321,
      "تتعلق": 6322,
      "جميعًا": 6323,
      "قامة": 6324,
      "فسكم": 6325,
      "2010": 6326,
      "وكلما": 6327,
      "ممتع": 6328,
      "يحصلون": 6329,
      "ممكنة": 6330,
      "تجاهل": 6331,
      "وغيرها": 6332,
      "حصائيات": 6333,
      "جلترا": 6334,
      "إيران": 6335,
      "بمرض": 6336,
      "زلي": 6337,
      "سأتحدث": 6338,
      "سفينة": 6339,
      "شرف": 6340,
      "شىء": 6341,
      "ننا": 6342,
      "نطلق": 6343,
      "منصة": 6344,
      "وايا": 6345,
      "وليست": 6346,
      "ديان": 6347,
      "امين": 6348,
      "العظام": 6349,
      "ومست": 6350,
      "ملحو": 6351,
      "وقمت": 6352,
      "الشاط": 6353,
      "وتقول": 6354,
      "متي": 6355,
      "الفنية": 6356,
      "تريا": 6357,
      "الصفر": 6358,
      "جمي": 6359,
      "صلحة": 6360,
      "عملا": 6361,
      "ميلا": 6362,
      "فرقة": 6363,
      "تنجح": 6364,
      "يسير": 6365,
      "العاملين": 6366,
      "الورقة": 6367,
      "التقليدي": 6368,
      "المتحركة": 6369,
      "إعطاء": 6370,
      "اعمل": 6371,
      "تور": 6372,
      "حملة": 6373,
      "رخيص": 6374,
      "لحظات": 6375,
      "الخر": 6376,
      "ناسا": 6377,
      "ماق": 6378,
      "مادية": 6379,
      "انواع": 6380,
      "ذار": 6381,
      "كنوع": 6382,
      "ليت": 6383,
      "بعبارة": 6384,
      "للتعامل": 6385,
      "السلسلة": 6386,
      "الجسد": 6387,
      "القومي": 6388,
      "يده": 6389,
      "ترق": 6390,
      "الدلا": 6391,
      "الدفع": 6392,
      "قلوب": 6393,
      "شخصيات": 6394,
      "ادرة": 6395,
      "فتها": 6396,
      "الوحدة": 6397,
      "رتك": 6398,
      "مدارس": 6399,
      "جرين": 6400,
      "دولارات": 6401,
      "موارد": 6402,
      "عرضة": 6403,
      "حصلوا": 6404,
      "راجات": 6405,
      "الهائل": 6406,
      "معدلات": 6407,
      "حكومة": 6408,
      "كاليف": 6409,
      "الجماعية": 6410,
      "at": 6411,
      "أدع": 6412,
      "أعمق": 6413,
      "اعد": 6414,
      "بالذات": 6415,
      "توضح": 6416,
      "دقة": 6417,
      "رمي": 6418,
      "روعة": 6419,
      "شهور": 6420,
      "كّن": 6421,
      "ينات": 6422,
      "يسبق": 6423,
      "ونني": 6424,
      "ذاكر": 6425,
      "النقاش": 6426,
      "سيطرة": 6427,
      "باستطاعت": 6428,
      "السكر": 6429,
      "كميات": 6430,
      "متسا": 6431,
      "الفرا": 6432,
      "الفضائية": 6433,
      "تميز": 6434,
      "الإبتكار": 6435,
      "فاد": 6436,
      "حولي": 6437,
      "يشة": 6438,
      "رتها": 6439,
      "طاولة": 6440,
      "حلقة": 6441,
      "قتها": 6442,
      "كثيرًا": 6443,
      "حياتها": 6444,
      "فقدت": 6445,
      "المعرض": 6446,
      "منظمات": 6447,
      "طناعي": 6448,
      "المصابين": 6449,
      "أشكركم": 6450,
      "أترك": 6451,
      "ؤوا": 6452,
      "اطفال": 6453,
      "بوك": 6454,
      "بنفسي": 6455,
      "حركات": 6456,
      "ضون": 6457,
      "ضبط": 6458,
      "قضايا": 6459,
      "لتر": 6460,
      "لوك": 6461,
      "نحت": 6462,
      "الموظ": 6463,
      "ونك": 6464,
      "التك": 6465,
      "التما": 6466,
      "ستصبح": 6467,
      "راعية": 6468,
      "عندي": 6469,
      "امرة": 6470,
      "قاعات": 6471,
      "يتبع": 6472,
      "يتحول": 6473,
      "الصعبة": 6474,
      "سمكة": 6475,
      "أسمع": 6476,
      "هدية": 6477,
      "المنخفض": 6478,
      "المدهش": 6479,
      "الأمير": 6480,
      "جعلت": 6481,
      "يكمن": 6482,
      "انتباه": 6483,
      "تمكننا": 6484,
      "تفتح": 6485,
      "حضار": 6486,
      "البحار": 6487,
      "الحائط": 6488,
      "أرت": 6489,
      "اكون": 6490,
      "اهتمام": 6491,
      "بالبحث": 6492,
      "توا": 6493,
      "تزا": 6494,
      "تدرك": 6495,
      "حبة": 6496,
      "زمان": 6497,
      "سجل": 6498,
      "شت": 6499,
      "كأن": 6500,
      "لربما": 6501,
      "يذكر": 6502,
      "يخلق": 6503,
      "فيفة": 6504,
      "فيمكن": 6505,
      "مادي": 6506,
      "ولل": 6507,
      "الأض": 6508,
      "الأنا": 6509,
      "ارقة": 6510,
      "اردت": 6511,
      "العسكرية": 6512,
      "لمحاولة": 6513,
      "مرئي": 6514,
      "اليمنى": 6515,
      "فكيف": 6516,
      "اللاتي": 6517,
      "خطوات": 6518,
      "صفات": 6519,
      "قاله": 6520,
      "كارثة": 6521,
      "المسلم": 6522,
      "احدى": 6523,
      "الظلام": 6524,
      "مؤسسات": 6525,
      "الأشعة": 6526,
      "وتيوب": 6527,
      "اخبركم": 6528,
      "التاسع": 6529,
      "ec": 6530,
      "أرقام": 6531,
      "ئين": 6532,
      "بوسط": 6533,
      "لال": 6534,
      "نيت": 6535,
      "والطريقة": 6536,
      "َل": 6537,
      "انتشار": 6538,
      "أنظروا": 6539,
      "ذهني": 6540,
      "ساهم": 6541,
      "الاعلام": 6542,
      "الجرا": 6543,
      "القارة": 6544,
      "بتجربة": 6545,
      "الثماني": 6546,
      "قلبي": 6547,
      "استمر": 6548,
      "وماس": 6549,
      "ومنذ": 6550,
      "العاملة": 6551,
      "تكالي": 6552,
      "نسمع": 6553,
      "مماثلة": 6554,
      "المناخي": 6555,
      "حنى": 6556,
      "يستغرق": 6557,
      "أقلم": 6558,
      "عيني": 6559,
      "أفلام": 6560,
      "موسيقية": 6561,
      "نهتم": 6562,
      "وحيد": 6563,
      "اضطرا": 6564,
      "الجريمة": 6565,
      "عقولنا": 6566,
      "التمويل": 6567,
      "المرجانية": 6568,
      "23": 6569,
      "تطلب": 6570,
      "شئة": 6571,
      "فخ": 6572,
      "محدود": 6573,
      "وخاصة": 6574,
      "المسب": 6575,
      "التشري": 6576,
      "الأهداف": 6577,
      "البنك": 6578,
      "برع": 6579,
      "الشجرة": 6580,
      "متجر": 6581,
      "الطل": 6582,
      "الصحافة": 6583,
      "بتك": 6584,
      "وفا": 6585,
      "علمنا": 6586,
      "وأصبح": 6587,
      "كافة": 6588,
      "يشير": 6589,
      "جزة": 6590,
      "أصعب": 6591,
      "بقيت": 6592,
      "وهؤلاء": 6593,
      "سياسي": 6594,
      "قادراً": 6595,
      "رسوم": 6596,
      "أريدكم": 6597,
      "لإست": 6598,
      "رأى": 6599,
      "نجحت": 6600,
      "العصبي": 6601,
      "تنتهي": 6602,
      "رئيسي": 6603,
      "مفتوح": 6604,
      "المؤسسة": 6605,
      "مايكل": 6606,
      "البيولوجي": 6607,
      "الملكية": 6608,
      "البلاستيك": 6609,
      "دعاء": 6610,
      "فلونزا": 6611,
      "it": 6612,
      "تختلف": 6613,
      "حس": 6614,
      "خو": 6615,
      "خيارات": 6616,
      "سقط": 6617,
      "شأ": 6618,
      "فكان": 6619,
      "قرض": 6620,
      "قبال": 6621,
      "وباء": 6622,
      "وأود": 6623,
      "يفي": 6624,
      "الديموقراطية": 6625,
      "مانية": 6626,
      "المالي": 6627,
      "المهام": 6628,
      "متوقع": 6629,
      "الفا": 6630,
      "أوراق": 6631,
      "يدك": 6632,
      "الصراع": 6633,
      "عتين": 6634,
      "بتسم": 6635,
      "خدم": 6636,
      "ردود": 6637,
      "طفلا": 6638,
      "فتنا": 6639,
      "المنتصف": 6640,
      "أرجو": 6641,
      "نظيف": 6642,
      "وزارة": 6643,
      "عادةً": 6644,
      "انتظر": 6645,
      "عشرين": 6646,
      "ابتكار": 6647,
      "الشمسي": 6648,
      "تتحول": 6649,
      "والعشرين": 6650,
      "مرارا": 6651,
      "الثقافية": 6652,
      "موجات": 6653,
      "متابعة": 6654,
      "أموال": 6655,
      "أمثلة": 6656,
      "تترك": 6657,
      "خش": 6658,
      "خرائط": 6659,
      "ذكي": 6660,
      "شق": 6661,
      "طاد": 6662,
      "غنية": 6663,
      "فط": 6664,
      "كوا": 6665,
      "كفاءة": 6666,
      "لجميع": 6667,
      "هلا": 6668,
      "وعلينا": 6669,
      "الهم": 6670,
      "الرف": 6671,
      "الأج": 6672,
      "العق": 6673,
      "بعضا": 6674,
      "الحديقة": 6675,
      "وقر": 6676,
      "لمي": 6677,
      "وعب": 6678,
      "متفا": 6679,
      "بتد": 6680,
      "ولكنك": 6681,
      "تقليل": 6682,
      "عمرة": 6683,
      "تجلس": 6684,
      "ميلي": 6685,
      "الغضب": 6686,
      "فتاح": 6687,
      "أصنع": 6688,
      "وفيات": 6689,
      "المنظمة": 6690,
      "فرنسا": 6691,
      "حاولوا": 6692,
      "طيور": 6693,
      "المعالج": 6694,
      "وارث": 6695,
      "لسوء": 6696,
      "بإمكانهم": 6697,
      "أقوله": 6698,
      "يجعلك": 6699,
      "اشعر": 6700,
      "أقصى": 6701,
      "آنذاك": 6702,
      "برونو": 6703,
      "شعاع": 6704,
      "آة": 6705,
      "آمنة": 6706,
      "ؤدي": 6707,
      "خبراء": 6708,
      "ضيت": 6709,
      "وحا": 6710,
      "وأنها": 6711,
      "ينشتاين": 6712,
      "وادي": 6713,
      "التنظيم": 6714,
      "رابطة": 6715,
      "كانو": 6716,
      "العمال": 6717,
      "الكائن": 6718,
      "وتة": 6719,
      "أولاد": 6720,
      "الرأسم": 6721,
      "الآثار": 6722,
      "ضائي": 6723,
      "أتت": 6724,
      "الدكت": 6725,
      "وكأنها": 6726,
      "المدير": 6727,
      "وسيكون": 6728,
      "المواطنين": 6729,
      "اعتبار": 6730,
      "الحكومية": 6731,
      "الاختلافات": 6732,
      "تنظرون": 6733,
      "قرابة": 6734,
      "المتحف": 6735,
      "وتينات": 6736,
      "مقاومة": 6737,
      "البيولوجية": 6738,
      "تمثيل": 6739,
      "بالقيام": 6740,
      "بلاد": 6741,
      "طيات": 6742,
      "عينة": 6743,
      "غرس": 6744,
      "كسب": 6745,
      "كجزء": 6746,
      "مقر": 6747,
      "مقت": 6748,
      "هز": 6749,
      "والنساء": 6750,
      "المحد": 6751,
      "المشاهد": 6752,
      "الأوعية": 6753,
      "امريكا": 6754,
      "النبي": 6755,
      "وقوع": 6756,
      "وقعت": 6757,
      "وتش": 6758,
      "الطف": 6759,
      "اليب": 6760,
      "نفترض": 6761,
      "تقف": 6762,
      "كاري": 6763,
      "المائية": 6764,
      "اللحظات": 6765,
      "أعراض": 6766,
      "أعمار": 6767,
      "الانتقال": 6768,
      "بشكلٍ": 6769,
      "قابلية": 6770,
      "يجعلني": 6771,
      "الاختيار": 6772,
      "حديثة": 6773,
      "تذكروا": 6774,
      "مفتاح": 6775,
      "مازالت": 6776,
      "الصعوبة": 6777,
      "27": 6778,
      "سُ": 6779,
      "غني": 6780,
      "مكا": 6781,
      "وعليه": 6782,
      "يو": 6783,
      "يحل": 6784,
      "يقدر": 6785,
      "ناية": 6786,
      "فيهم": 6787,
      "معوا": 6788,
      "للأشخاص": 6789,
      "إنّها": 6790,
      "البط": 6791,
      "الطبق": 6792,
      "الفج": 6793,
      "الصّ": 6794,
      "الآباء": 6795,
      "وبسبب": 6796,
      "الإجمالي": 6797,
      "جاع": 6798,
      "الدب": 6799,
      "أسود": 6800,
      "هنة": 6801,
      "الزا": 6802,
      "ونيو": 6803,
      "سياسية": 6804,
      "البيضاء": 6805,
      "اقتص": 6806,
      "الولادة": 6807,
      "بإمكانه": 6808,
      "أصبحنا": 6809,
      "تزيد": 6810,
      "المشترك": 6811,
      "عقلك": 6812,
      "روسيا": 6813,
      "الصوتية": 6814,
      "مراحل": 6815,
      "المركبات": 6816,
      "أطفالنا": 6817,
      "كوريا": 6818,
      "النهائي": 6819,
      "وأخيرا": 6820,
      "العظمى": 6821,
      "درة": 6822,
      "صالح": 6823,
      "كُ": 6824,
      "لسنوات": 6825,
      "والسؤال": 6826,
      "يير": 6827,
      "وائل": 6828,
      "ليم": 6829,
      "العاص": 6830,
      "النحو": 6831,
      "الذرة": 6832,
      "القضاء": 6833,
      "لمساعد": 6834,
      "مرئية": 6835,
      "برد": 6836,
      "الشاب": 6837,
      "وتكرا": 6838,
      "ويبدو": 6839,
      "الخبرة": 6840,
      "الخبراء": 6841,
      "الآلية": 6842,
      "شركت": 6843,
      "ختبار": 6844,
      "كتة": 6845,
      "يقف": 6846,
      "واحداً": 6847,
      "ميكر": 6848,
      "جميعهم": 6849,
      "تابع": 6850,
      "قتين": 6851,
      "سأكون": 6852,
      "ذاتي": 6853,
      "السابعة": 6854,
      "شاهدت": 6855,
      "لإيجاد": 6856,
      "صدار": 6857,
      "تأكل": 6858,
      "اشهر": 6859,
      "نبلة": 6860,
      "دينامي": 6861,
      "كلاهما": 6862,
      "باستعمال": 6863,
      "الوظيفة": 6864,
      "بيديا": 6865,
      "قريباً": 6866,
      "ناجحة": 6867,
      "65": 6868,
      "بوت": 6869,
      "تشي": 6870,
      "توجيه": 6871,
      "جذا": 6872,
      "حه": 6873,
      "صاب": 6874,
      "ضات": 6875,
      "طعم": 6876,
      "غال": 6877,
      "فسي": 6878,
      "فريد": 6879,
      "مقطع": 6880,
      "مناسبة": 6881,
      "نجم": 6882,
      "وأت": 6883,
      "البع": 6884,
      "المراقبة": 6885,
      "ولمة": 6886,
      "قدير": 6887,
      "داي": 6888,
      "يتذكر": 6889,
      "السفلي": 6890,
      "وجهات": 6891,
      "القهوة": 6892,
      "لمساعدة": 6893,
      "بدال": 6894,
      "بتهم": 6895,
      "الدفاع": 6896,
      "ستخدمة": 6897,
      "ائر": 6898,
      "رقص": 6899,
      "الوث": 6900,
      "خطيرة": 6901,
      "فرانك": 6902,
      "أحداث": 6903,
      "نظن": 6904,
      "حقائ": 6905,
      "أحضر": 6906,
      "تاء": 6907,
      "وجهه": 6908,
      "2007": 6909,
      "الجنون": 6910,
      "بعينات": 6911,
      "طويلا": 6912,
      "الاختبار": 6913,
      "الثقافات": 6914,
      "بالغة": 6915,
      "وأخيراً": 6916,
      "أحا": 6917,
      "بإن": 6918,
      "جولة": 6919,
      "صحت": 6920,
      "صممت": 6921,
      "صلاح": 6922,
      "طمو": 6923,
      "غذا": 6924,
      "مبكر": 6925,
      "هري": 6926,
      "وانه": 6927,
      "ّز": 6928,
      "المقط": 6929,
      "التوقف": 6930,
      "يرسل": 6931,
      "ساط": 6932,
      "السباحة": 6933,
      "الجسر": 6934,
      "الجينية": 6935,
      "بدراسة": 6936,
      "جمد": 6937,
      "درست": 6938,
      "أخلاقي": 6939,
      "ابن": 6940,
      "فته": 6941,
      "أصابع": 6942,
      "مستمرة": 6943,
      "تشتري": 6944,
      "وزن": 6945,
      "حرفياً": 6946,
      "إيقاف": 6947,
      "الأحوال": 6948,
      "تريدون": 6949,
      "الملائ": 6950,
      "محاكاة": 6951,
      "فصلة": 6952,
      "تفكرون": 6953,
      "محدودة": 6954,
      "أسبوعين": 6955,
      "الإرهاب": 6956,
      "اللغات": 6957,
      "المساعدات": 6958,
      "بالإن": 6959,
      "بجمع": 6960,
      "تث": 6961,
      "حار": 6962,
      "ذراع": 6963,
      "فانه": 6964,
      "كائن": 6965,
      "مغة": 6966,
      "الدرس": 6967,
      "مارة": 6968,
      "المشر": 6969,
      "ستون": 6970,
      "الأسلحة": 6971,
      "للإست": 6972,
      "البق": 6973,
      "الافكار": 6974,
      "باريس": 6975,
      "الجمع": 6976,
      "الجلوس": 6977,
      "حتّى": 6978,
      "اليك": 6979,
      "بيان": 6980,
      "الخنا": 6981,
      "جاة": 6982,
      "جاهل": 6983,
      "ربح": 6984,
      "مجالات": 6985,
      "وقتاً": 6986,
      "طفلة": 6987,
      "عيون": 6988,
      "فإنني": 6989,
      "المستشفيات": 6990,
      "باتجاه": 6991,
      "مصنوع": 6992,
      "ولوجي": 6993,
      "اقتر": 6994,
      "التحليل": 6995,
      "دراست": 6996,
      "الأخلاقي": 6997,
      "رجع": 6998,
      "المسافة": 6999,
      "التدخل": 7000,
      "النسوة": 7001,
      "اجتماع": 7002,
      "أمو": 7003,
      "إشارات": 7004,
      "امات": 7005,
      "امام": 7006,
      "تو": 7007,
      "دعني": 7008,
      "رو": 7009,
      "عك": 7010,
      "مهتما": 7011,
      "نؤمن": 7012,
      "ّما": 7013,
      "فيزيا": 7014,
      "منهما": 7015,
      "التطبي": 7016,
      "الحماية": 7017,
      "الاستخدام": 7018,
      "وقفت": 7019,
      "وجهي": 7020,
      "القنا": 7021,
      "ويش": 7022,
      "سمحت": 7023,
      "الدليل": 7024,
      "موها": 7025,
      "طفول": 7026,
      "اللات": 7027,
      "خطير": 7028,
      "الضرائب": 7029,
      "حصاء": 7030,
      "البروتين": 7031,
      "للحديث": 7032,
      "الكلب": 7033,
      "الأصلي": 7034,
      "العقلية": 7035,
      "العناية": 7036,
      "الكاملة": 7037,
      "البرمجة": 7038,
      "الديناصورات": 7039,
      "المذهلة": 7040,
      "المغناطيسي": 7041,
      "الخدمة": 7042,
      "ترتيب": 7043,
      "سيداتي": 7044,
      "بوسطن": 7045,
      "al": 7046,
      "اسبوع": 7047,
      "بمن": 7048,
      "تدر": 7049,
      "تشا": 7050,
      "تأكيد": 7051,
      "جوز": 7052,
      "زواج": 7053,
      "شلل": 7054,
      "شيف": 7055,
      "صم": 7056,
      "فعلى": 7057,
      "فعت": 7058,
      "قوس": 7059,
      "لسبب": 7060,
      "لإنتاج": 7061,
      "مناسب": 7062,
      "نكتشف": 7063,
      "وأي": 7064,
      "انكم": 7065,
      "المبد": 7066,
      "ينطبق": 7067,
      "كلب": 7068,
      "للر": 7069,
      "الكوم": 7070,
      "الاقل": 7071,
      "وعمل": 7072,
      "بدرجة": 7073,
      "بلوما": 7074,
      "اليونا": 7075,
      "لتم": 7076,
      "بيئ": 7077,
      "جاجة": 7078,
      "مثيرا": 7079,
      "سنوياً": 7080,
      "صلات": 7081,
      "الدقة": 7082,
      "وأشياء": 7083,
      "تصدر": 7084,
      "يقرب": 7085,
      "ائل": 7086,
      "واقب": 7087,
      "أسماء": 7088,
      "يصال": 7089,
      "بنشر": 7090,
      "حرير": 7091,
      "جرس": 7092,
      "حولك": 7093,
      "المعمارية": 7094,
      "الشخصيات": 7095,
      "شفرة": 7096,
      "أدوية": 7097,
      "الأدلة": 7098,
      "استطاعت": 7099,
      "قناة": 7100,
      "الإسلام": 7101,
      "التكنولوجيات": 7102,
      "النفايات": 7103,
      "es": 7104,
      "إجابة": 7105,
      "اولا": 7106,
      "بالعالم": 7107,
      "جبال": 7108,
      "زز": 7109,
      "طوا": 7110,
      "لإنشاء": 7111,
      "مساء": 7112,
      "مقابلة": 7113,
      "الالت": 7114,
      "المبدأ": 7115,
      "يروا": 7116,
      "الحكمة": 7117,
      "يتوقع": 7118,
      "الجدران": 7119,
      "الفوضى": 7120,
      "قيات": 7121,
      "بيح": 7122,
      "الخفا": 7123,
      "الإتجاه": 7124,
      "شرت": 7125,
      "جاهات": 7126,
      "يقتل": 7127,
      "لوحات": 7128,
      "المتقدمة": 7129,
      "اللحم": 7130,
      "ذهبوا": 7131,
      "يومي": 7132,
      "مقعد": 7133,
      "يستطيعوا": 7134,
      "أجساد": 7135,
      "العنكبوت": 7136,
      "بخير": 7137,
      "يناير": 7138,
      "سادتي": 7139,
      "نموذ": 7140,
      "الجماعي": 7141,
      "جديدا": 7142,
      "تشاهدون": 7143,
      "ننتقل": 7144,
      "الإصابة": 7145,
      "تخبرنا": 7146,
      "المشكلات": 7147,
      "اهم": 7148,
      "بديل": 7149,
      "تسلسل": 7150,
      "خز": 7151,
      "زح": 7152,
      "سأت": 7153,
      "شوة": 7154,
      "ضمام": 7155,
      "طون": 7156,
      "قفز": 7157,
      "لإن": 7158,
      "لشركة": 7159,
      "وداً": 7160,
      "يقة": 7161,
      "فيك": 7162,
      "فيزياء": 7163,
      "المضي": 7164,
      "التوحد": 7165,
      "ولها": 7166,
      "الأبد": 7167,
      "كانية": 7168,
      "معدات": 7169,
      "العشاء": 7170,
      "للبيئة": 7171,
      "الحضر": 7172,
      "البذ": 7173,
      "البل": 7174,
      "النخ": 7175,
      "الايام": 7176,
      "السلا": 7177,
      "عادت": 7178,
      "وبهذا": 7179,
      "الإشارة": 7180,
      "فانا": 7181,
      "المادية": 7182,
      "ادم": 7183,
      "اللّ": 7184,
      "الوباء": 7185,
      "قصتي": 7186,
      "الأمهات": 7187,
      "الامريكي": 7188,
      "الاستثمار": 7189,
      "التحقيق": 7190,
      "أمامنا": 7191,
      "دراجة": 7192,
      "أثبت": 7193,
      "الأربع": 7194,
      "تحديدا": 7195,
      "التربة": 7196,
      "باكستان": 7197,
      "\"♫": 7198,
      "إضافية": 7199,
      "حرا": 7200,
      "حباط": 7201,
      "طبية": 7202,
      "عطائ": 7203,
      "لأخذ": 7204,
      "مبدأ": 7205,
      "نعتبر": 7206,
      "هولي": 7207,
      "يختلف": 7208,
      "٢٠": 7209,
      "الدائرة": 7210,
      "نائية": 7211,
      "انخفض": 7212,
      "واريخ": 7213,
      "كليا": 7214,
      "البصري": 7215,
      "الذكية": 7216,
      "برين": 7217,
      "الشائ": 7218,
      "الشتاء": 7219,
      "متنوعة": 7220,
      "الفلس": 7221,
      "أوسع": 7222,
      "ويك": 7223,
      "بيك": 7224,
      "كرسي": 7225,
      "سنويا": 7226,
      "كتشافات": 7227,
      "تعقيد": 7228,
      "ميلاد": 7229,
      "تنتقل": 7230,
      "لكيفية": 7231,
      "الساحل": 7232,
      "السائل": 7233,
      "زلج": 7234,
      "الهوائية": 7235,
      "الآخرون": 7236,
      "المساحات": 7237,
      "الرياضي": 7238,
      "واجهنا": 7239,
      "تطورت": 7240,
      "لطالما": 7241,
      "تركيب": 7242,
      "عوامل": 7243,
      "استخدمنا": 7244,
      "أستراليا": 7245,
      "الزاوية": 7246,
      "أبعاد": 7247,
      "تهي": 7248,
      "توصلت": 7249,
      "جيا": 7250,
      "خرا": 7251,
      "رز": 7252,
      "روبر": 7253,
      "سكا": 7254,
      "صغار": 7255,
      "طين": 7256,
      "طيف": 7257,
      "لعلاج": 7258,
      "مسم": 7259,
      "نعت": 7260,
      "وبدأ": 7261,
      "الين": 7262,
      "البعد": 7263,
      "البعيد": 7264,
      "وله": 7265,
      "سترى": 7266,
      "القشرة": 7267,
      "الشديد": 7268,
      "الفهم": 7269,
      "سنكون": 7270,
      "وأرد": 7271,
      "نتكلم": 7272,
      "تعيد": 7273,
      "طلقت": 7274,
      "الزمان": 7275,
      "ثلاثي": 7276,
      "تدمير": 7277,
      "ذنب": 7278,
      "المحمولة": 7279,
      "جارب": 7280,
      "انتظار": 7281,
      "وارئ": 7282,
      "جزيئات": 7283,
      "الياب": 7284,
      "رياضية": 7285,
      "اسمها": 7286,
      "الظاهرة": 7287,
      "ترتفع": 7288,
      "المحليين": 7289,
      "الاخرين": 7290,
      "الأوراق": 7291,
      "الفنانين": 7292,
      "\":": 7293,
      "أخرج": 7294,
      "اية": 7295,
      "جرد": 7296,
      "خسر": 7297,
      "دواء": 7298,
      "زو": 7299,
      "سأخبركم": 7300,
      "صين": 7301,
      "طابق": 7302,
      "نونة": 7303,
      "وديو": 7304,
      "يولد": 7305,
      "الوقوف": 7306,
      "المحر": 7307,
      "المكاف": 7308,
      "ونرى": 7309,
      "رينا": 7310,
      "معتم": 7311,
      "للفن": 7312,
      "خلط": 7313,
      "مثالا": 7314,
      "تقرأ": 7315,
      "الدينية": 7316,
      "بحرية": 7317,
      "عملوا": 7318,
      "أسرة": 7319,
      "تتطور": 7320,
      "بأنفسهم": 7321,
      "عندنا": 7322,
      "السياسات": 7323,
      "صحيحاً": 7324,
      "المزارعين": 7325,
      "إيجابية": 7326,
      "مجتمعات": 7327,
      "الصيني": 7328,
      "بنفسك": 7329,
      "أحببت": 7330,
      "دخال": 7331,
      "غرافية": 7332,
      "شهرين": 7333,
      "منزلك": 7334,
      "تعلمته": 7335,
      "نوبل": 7336,
      "بمقدار": 7337,
      "أواخر": 7338,
      "توقفت": 7339,
      "تكاليف": 7340,
      "اقتصادي": 7341,
      "26": 7342,
      "أذه": 7343,
      "أجر": 7344,
      "ئيات": 7345,
      "تسب": 7346,
      "تفقد": 7347,
      "حالي": 7348,
      "حقل": 7349,
      "خبرة": 7350,
      "ذوات": 7351,
      "سكري": 7352,
      "شون": 7353,
      "شمس": 7354,
      "شبيه": 7355,
      "صُ": 7356,
      "ككل": 7357,
      "كأنها": 7358,
      "لآخر": 7359,
      "والغ": 7360,
      "ناريو": 7361,
      "الأخطاء": 7362,
      "ارف": 7363,
      "العاب": 7364,
      "الحلم": 7365,
      "النسيج": 7366,
      "الكه": 7367,
      "السفينة": 7368,
      "القتل": 7369,
      "الشاي": 7370,
      "وتون": 7371,
      "الفلم": 7372,
      "قطات": 7373,
      "تحسن": 7374,
      "تتفاعل": 7375,
      "مسرح": 7376,
      "الوفيات": 7377,
      "سرية": 7378,
      "استعداد": 7379,
      "نظم": 7380,
      "المربع": 7381,
      "الناف": 7382,
      "المحرك": 7383,
      "مشغ": 7384,
      "بشري": 7385,
      "تركز": 7386,
      "2009": 7387,
      "التسجيل": 7388,
      "جانبي": 7389,
      "الجامعات": 7390,
      "النّاس": 7391,
      "اكتشفنا": 7392,
      "المهندسين": 7393,
      "250": 7394,
      "احتاج": 7395,
      "تكنولوج": 7396,
      "تختفي": 7397,
      "توماس": 7398,
      "جولي": 7399,
      "زيت": 7400,
      "فئة": 7401,
      "لنفس": 7402,
      "ويع": 7403,
      "يكي": 7404,
      "انفسنا": 7405,
      "المة": 7406,
      "المكونات": 7407,
      "لاي": 7408,
      "يرها": 7409,
      "قاية": 7410,
      "قايا": 7411,
      "النهار": 7412,
      "النروي": 7413,
      "الذراع": 7414,
      "وجبة": 7415,
      "الجر": 7416,
      "الجودة": 7417,
      "وتار": 7418,
      "متصل": 7419,
      "تميل": 7420,
      "جمال": 7421,
      "بتات": 7422,
      "شيل": 7423,
      "الدورة": 7424,
      "وأخبر": 7425,
      "عامًا": 7426,
      "مسؤ": 7427,
      "الوطن": 7428,
      "أمراً": 7429,
      "أنهار": 7430,
      "بنيت": 7431,
      "فقون": 7432,
      "بصوت": 7433,
      "المرء": 7434,
      "تدوير": 7435,
      "قادمة": 7436,
      "خاوف": 7437,
      "جزءاً": 7438,
      "لانهم": 7439,
      "وأنتم": 7440,
      "السلع": 7441,
      "وركسترا": 7442,
      "اللازمة": 7443,
      "ازد": 7444,
      "مخيف": 7445,
      "بوش": 7446,
      "التغييرات": 7447,
      "يعطينا": 7448,
      "المفتاح": 7449,
      "ثابتة": 7450,
      "كاديمية": 7451,
      "الضروري": 7452,
      "ويكيبيديا": 7453,
      "أدرس": 7454,
      "بلي": 7455,
      "بالط": 7456,
      "تولد": 7457,
      "تتعامل": 7458,
      "رجاء": 7459,
      "سس": 7460,
      "فكل": 7461,
      "قراء": 7462,
      "ممل": 7463,
      "وُ": 7464,
      "وسا": 7465,
      "والعمل": 7466,
      "والفكرة": 7467,
      "يطرح": 7468,
      "الوجود": 7469,
      "فيش": 7470,
      "لايمكن": 7471,
      "يرغب": 7472,
      "الأثر": 7473,
      "الأجسام": 7474,
      "ريقي": 7475,
      "البصرية": 7476,
      "ملف": 7477,
      "الكبار": 7478,
      "الكلاب": 7479,
      "بائل": 7480,
      "السلم": 7481,
      "الجراحة": 7482,
      "وعين": 7483,
      "عاطف": 7484,
      "تمّ": 7485,
      "الإدراك": 7486,
      "لديّ": 7487,
      "الدجاج": 7488,
      "لنبدأ": 7489,
      "المنصة": 7490,
      "المدني": 7491,
      "يومين": 7492,
      "ضحية": 7493,
      "النامي": 7494,
      "للتكنولوجيا": 7495,
      "طريقنا": 7496,
      "طريقها": 7497,
      "للمساعدة": 7498,
      "هاتين": 7499,
      "الأخلاقية": 7500,
      "المواضيع": 7501,
      "بإمكانها": 7502,
      "الراديو": 7503,
      "صوتي": 7504,
      "مرتفعة": 7505,
      "الموسيقي": 7506,
      "بعملية": 7507,
      "تجعلنا": 7508,
      "قليلًا": 7509,
      "خاطرة": 7510,
      "الجنسين": 7511,
      "تراها": 7512,
      "موجة": 7513,
      "لصالح": 7514,
      "أساساً": 7515,
      "طبعا": 7516,
      "المصممين": 7517,
      "NA": 7518,
      "أعت": 7519,
      "أكتب": 7520,
      "أطلب": 7521,
      "أبحاث": 7522,
      "ؤية": 7523,
      "ؤون": 7524,
      "جالس": 7525,
      "حري": 7526,
      "زى": 7527,
      "زيز": 7528,
      "غوط": 7529,
      "لعدم": 7530,
      "مبه": 7531,
      "مبني": 7532,
      "مبنية": 7533,
      "يكتب": 7534,
      "َر": 7535,
      "التوقع": 7536,
      "يرغبون": 7537,
      "الأطراف": 7538,
      "ارى": 7539,
      "ارير": 7540,
      "حدر": 7541,
      "للحظة": 7542,
      "بابة": 7543,
      "برج": 7544,
      "الصحف": 7545,
      "لتطوير": 7546,
      "الرك": 7547,
      "خلفية": 7548,
      "عته": 7549,
      "الإرت": 7550,
      "وسبة": 7551,
      "الدراجات": 7552,
      "بهة": 7553,
      "فعلناه": 7554,
      "رائد": 7555,
      "غانا": 7556,
      "سياسات": 7557,
      "دائمة": 7558,
      "مؤشر": 7559,
      "المحكمة": 7560,
      "للحفاظ": 7561,
      "وثيق": 7562,
      "القطار": 7563,
      "رياضيات": 7564,
      "المركزية": 7565,
      "عزف": 7566,
      "للعيش": 7567,
      "جيمس": 7568,
      "ويقولون": 7569,
      "زدهار": 7570,
      "انتقلت": 7571,
      "الأصلية": 7572,
      "المطلوب": 7573,
      "الثمانينات": 7574,
      "روبرت": 7575,
      "et": 7576,
      "إب": 7577,
      "اكن": 7578,
      "توصل": 7579,
      "توجب": 7580,
      "ثا": 7581,
      "جوانب": 7582,
      "حكا": 7583,
      "دقي": 7584,
      "ذرة": 7585,
      "زنة": 7586,
      "شوا": 7587,
      "صيف": 7588,
      "محلية": 7589,
      "نود": 7590,
      "ّين": 7591,
      "الارت": 7592,
      "المقبل": 7593,
      "أنتج": 7594,
      "التجاري": 7595,
      "راكم": 7596,
      "يمي": 7597,
      "بعدة": 7598,
      "الكامل": 7599,
      "الكفاءة": 7600,
      "يتعامل": 7601,
      "السويد": 7602,
      "بحوالي": 7603,
      "بطل": 7604,
      "تجارة": 7605,
      "تجارية": 7606,
      "المتوسطة": 7607,
      "شخصي": 7608,
      "خاصتي": 7609,
      "أحلام": 7610,
      "أشجار": 7611,
      "البيانو": 7612,
      "الاستمرار": 7613,
      "صحيحا": 7614,
      "المنافسة": 7615,
      "بيتر": 7616,
      "الغذائي": 7617,
      "وإنما": 7618,
      "رئيسية": 7619,
      "خليج": 7620,
      "قدرتنا": 7621,
      "عوضاً": 7622,
      "مخلوقات": 7623,
      "وأحيانا": 7624,
      "أبدًا": 7625,
      "المتاحة": 7626,
      "الهيدروجين": 7627,
      "بالحياة": 7628,
      "تكت": 7629,
      "تحاد": 7630,
      "ذف": 7631,
      "شفا": 7632,
      "عالما": 7633,
      "فنان": 7634,
      "قه": 7635,
      "لر": 7636,
      "لشراء": 7637,
      "مقاطعة": 7638,
      "ُر": 7639,
      "الذهب": 7640,
      "الكنيسة": 7641,
      "التأكيد": 7642,
      "\"\"؟": 7643,
      "هواتف": 7644,
      "النبات": 7645,
      "السعي": 7646,
      "القسم": 7647,
      "القرى": 7648,
      "ترسل": 7649,
      "حاج": 7650,
      "غيرات": 7651,
      "الدكتور": 7652,
      "بينهما": 7653,
      "أخي": 7654,
      "ميس": 7655,
      "كاس": 7656,
      "جميعكم": 7657,
      "خطى": 7658,
      "عروض": 7659,
      "جدار": 7660,
      "حلها": 7661,
      "غاض": 7662,
      "العلامة": 7663,
      "قادم": 7664,
      "المحار": 7665,
      "معظمهم": 7666,
      "ندفع": 7667,
      "أقف": 7668,
      "2005": 7669,
      "الرياضة": 7670,
      "كبشر": 7671,
      "نجوم": 7672,
      "التعليمية": 7673,
      "نزير": 7674,
      "سوداء": 7675,
      "الحبوب": 7676,
      "الأعراض": 7677,
      "التنفيذ": 7678,
      "تفاصيل": 7679,
      "ستينات": 7680,
      "بامكاننا": 7681,
      "مركبة": 7682,
      "وكسجين": 7683,
      "زادت": 7684,
      "le": 7685,
      "أون": 7686,
      "ألي": 7687,
      "أطباء": 7688,
      "أسميه": 7689,
      "إش": 7690,
      "تخلق": 7691,
      "تواجد": 7692,
      "ثمان": 7693,
      "حرة": 7694,
      "سجن": 7695,
      "صاحب": 7696,
      "غريبا": 7697,
      "فني": 7698,
      "نسميها": 7699,
      "هلة": 7700,
      "وسم": 7701,
      "انخفاض": 7702,
      "يرفع": 7703,
      "عنك": 7704,
      "العمارة": 7705,
      "الحوار": 7706,
      "ساؤل": 7707,
      "إنّه": 7708,
      "سيق": 7709,
      "سينات": 7710,
      "يديا": 7711,
      "يدرك": 7712,
      "ترجم": 7713,
      "بيضاء": 7714,
      "وبما": 7715,
      "عملك": 7716,
      "كافي": 7717,
      "المتحدث": 7718,
      "الوسائل": 7719,
      "بيعات": 7720,
      "الاستفادة": 7721,
      "التحديد": 7722,
      "تلقي": 7723,
      "بواب": 7724,
      "أصبحوا": 7725,
      "لاحظوا": 7726,
      "اشتري": 7727,
      "الأرواح": 7728,
      "داروين": 7729,
      "رغبة": 7730,
      "يصنعون": 7731,
      "العضلات": 7732,
      "النظرة": 7733,
      "يلعبون": 7734,
      "المفاهيم": 7735,
      "الأيمن": 7736,
      "الثامن": 7737,
      "يؤمنون": 7738,
      "المهنية": 7739,
      "الحضرية": 7740,
      "إغ": 7741,
      "توجه": 7742,
      "حفل": 7743,
      "خان": 7744,
      "ذبة": 7745,
      "زب": 7746,
      "سباق": 7747,
      "عارة": 7748,
      "عطاء": 7749,
      "فو": 7750,
      "فعلي": 7751,
      "لقاء": 7752,
      "مشر": 7753,
      "نقدم": 7754,
      "وبدأنا": 7755,
      "يوفر": 7756,
      "اتخذ": 7757,
      "يرك": 7758,
      "يره": 7759,
      "معظ": 7760,
      "معتقد": 7761,
      "للط": 7762,
      "قابة": 7763,
      "الكيمياء": 7764,
      "السعر": 7765,
      "السقف": 7766,
      "القت": 7767,
      "الفضول": 7768,
      "الصمت": 7769,
      "ويكون": 7770,
      "حابة": 7771,
      "كثرة": 7772,
      "الرمل": 7773,
      "قطاب": 7774,
      "مثالاً": 7775,
      "تحل": 7776,
      "وأر": 7777,
      "بطريق": 7778,
      "جلست": 7779,
      "وفين": 7780,
      "تهديد": 7781,
      "يزداد": 7782,
      "سأقول": 7783,
      "المحور": 7784,
      "تمكنوا": 7785,
      "الفرن": 7786,
      "وإعادة": 7787,
      "المركبة": 7788,
      "عشت": 7789,
      "جئت": 7790,
      "مهتمين": 7791,
      "حسابات": 7792,
      "مازلت": 7793,
      "الهوية": 7794,
      "بائن": 7795,
      "ستيفن": 7796,
      "الدروس": 7797,
      "المعروفة": 7798,
      "الصدفة": 7799,
      "تمييز": 7800,
      "البالغين": 7801,
      "يبحثون": 7802,
      "مصممة": 7803,
      "آينشتاين": 7804,
      "أري": 7805,
      "بحد": 7806,
      "ثيل": 7807,
      "ثوان": 7808,
      "جيف": 7809,
      "حيم": 7810,
      "روب": 7811,
      "شبي": 7812,
      "غف": 7813,
      "فذلك": 7814,
      "فوري": 7815,
      "قضاء": 7816,
      "معلم": 7817,
      "مستخدم": 7818,
      "نجمع": 7819,
      "والأمر": 7820,
      "انحاء": 7821,
      "علبة": 7822,
      "التام": 7823,
      "التطبيق": 7824,
      "التكاليف": 7825,
      "العالي": 7826,
      "العرق": 7827,
      "بعمق": 7828,
      "الكشف": 7829,
      "وجبات": 7830,
      "متوفرة": 7831,
      "وفقا": 7832,
      "نحة": 7833,
      "أتوقع": 7834,
      "بعدم": 7835,
      "ائص": 7836,
      "مييز": 7837,
      "تتكون": 7838,
      "الوز": 7839,
      "جزر": 7840,
      "الضخم": 7841,
      "قرير": 7842,
      "فإنّ": 7843,
      "بنك": 7844,
      "بداعية": 7845,
      "فلس": 7846,
      "المزارع": 7847,
      "تزداد": 7848,
      "أجريت": 7849,
      "ممتعة": 7850,
      "عشوائية": 7851,
      "الخلفي": 7852,
      "الإقتصادية": 7853,
      "مطلقاً": 7854,
      "بيوترات": 7855,
      "السينما": 7856,
      "خوخة": 7857,
      "ئنا": 7858,
      "ايام": 7859,
      "اظن": 7860,
      "بالخ": 7861,
      "ثرة": 7862,
      "حالب": 7863,
      "طفاء": 7864,
      "عهد": 7865,
      "فول": 7866,
      "قوت": 7867,
      "المتع": 7868,
      "المحادثات": 7869,
      "التط": 7870,
      "يعج": 7871,
      "النقد": 7872,
      "سيحصل": 7873,
      "الكار": 7874,
      "السحب": 7875,
      "الجوع": 7876,
      "الجملة": 7877,
      "حته": 7878,
      "الدوائر": 7879,
      "عموما": 7880,
      "تجنب": 7881,
      "الغداء": 7882,
      "فضلك": 7883,
      "المادي": 7884,
      "هدد": 7885,
      "نوعًا": 7886,
      "الانجليزية": 7887,
      "تنظ": 7888,
      "إنهاء": 7889,
      "محمول": 7890,
      "حياتكم": 7891,
      "والمزيد": 7892,
      "فهمنا": 7893,
      "تدعم": 7894,
      "العلامات": 7895,
      "ذاتية": 7896,
      "تكرار": 7897,
      "195": 7898,
      "نعرفها": 7899,
      "الراحة": 7900,
      "مطعم": 7901,
      "الهائلة": 7902,
      "وسوفت": 7903,
      "قادرون": 7904,
      "الكهربائي": 7905,
      "الاعتقاد": 7906,
      "الحضارة": 7907,
      "سائر": 7908,
      "الخصائص": 7909,
      "المعدل": 7910,
      "أرادوا": 7911,
      "الهرم": 7912,
      "الباحثين": 7913,
      "المشاركين": 7914,
      "الشاطئ": 7915,
      "800": 7916,
      "إضا": 7917,
      "بِ": 7918,
      "فماذا": 7919,
      "وبدون": 7920,
      "وذهبت": 7921,
      "يكلف": 7922,
      "الأوب": 7923,
      "ورغم": 7924,
      "العقول": 7925,
      "للشخص": 7926,
      "سيدة": 7927,
      "برنا": 7928,
      "لتها": 7929,
      "الرأي": 7930,
      "يفقد": 7931,
      "جاوب": 7932,
      "تقليد": 7933,
      "تحميل": 7934,
      "ربات": 7935,
      "سبير": 7936,
      "تعال": 7937,
      "موه": 7938,
      "طفلاً": 7939,
      "وجدته": 7940,
      "قصى": 7941,
      "المنش": 7942,
      "مستحي": 7943,
      "انيين": 7944,
      "أرجاء": 7945,
      "مختلفا": 7946,
      "شيئين": 7947,
      "تخاب": 7948,
      "تخزين": 7949,
      "وحسب": 7950,
      "شاهدوا": 7951,
      "لحماية": 7952,
      "تشارك": 7953,
      "طائرات": 7954,
      "وائم": 7955,
      "الاختلاف": 7956,
      "أدركنا": 7957,
      "تنتظر": 7958,
      "تجددة": 7959,
      "لتحسين": 7960,
      "ثانياً": 7961,
      "مايكر": 7962,
      "الروابط": 7963,
      "السادسة": 7964,
      "الفجوة": 7965,
      "معظمنا": 7966,
      "آسف": 7967,
      "ئاً": 7968,
      "اسمي": 7969,
      "بفكرة": 7970,
      "تكتشف": 7971,
      "دِ": 7972,
      "روما": 7973,
      "صير": 7974,
      "فجر": 7975,
      "لمان": 7976,
      "مغل": 7977,
      "مفيد": 7978,
      "مخاطر": 7979,
      "يمارس": 7980,
      "فينا": 7981,
      "الممثل": 7982,
      "هامة": 7983,
      "يادية": 7984,
      "رادة": 7985,
      "ديمقراطية": 7986,
      "كلين": 7987,
      "معًا": 7988,
      "ومر": 7989,
      "البدي": 7990,
      "الاقت": 7991,
      "هيز": 7992,
      "بدت": 7993,
      "الفشل": 7994,
      "أوباما": 7995,
      "وبالمناسبة": 7996,
      "مثالية": 7997,
      "ستطعنا": 7998,
      "يقل": 7999,
      "لوح": 8000,
      "أعماق": 8001,
      "أمير": 8002,
      "جهز": 8003,
      "بالمقارنة": 8004,
      "اعط": 8005,
      "تلقيت": 8006,
      "القردة": 8007,
      "اختار": 8008,
      "أينما": 8009,
      "مرتفع": 8010,
      "صغيرا": 8011,
      "الدراسية": 8012,
      "الشرقي": 8013,
      "غالبًا": 8014,
      "امتداد": 8015,
      "الأغنية": 8016,
      "الأقمار": 8017,
      "أشارككم": 8018,
      "الرأسمالية": 8019,
      "95": 8020,
      "ic": 8021,
      "أحت": 8022,
      "إجا": 8023,
      "إياه": 8024,
      "بنات": 8025,
      "بنفسه": 8026,
      "توف": 8027,
      "تخصص": 8028,
      "توليد": 8029,
      "جهد": 8030,
      "حجر": 8031,
      "مالي": 8032,
      "مشي": 8033,
      "نقد": 8034,
      "نترك": 8035,
      "والمت": 8036,
      "يستطع": 8037,
      "المساء": 8038,
      "هائ": 8039,
      "التسلسل": 8040,
      "التغذية": 8041,
      "ليلا": 8042,
      "ورم": 8043,
      "العبارة": 8044,
      "إنّ": 8045,
      "البو": 8046,
      "الكرا": 8047,
      "الكلي": 8048,
      "الكوك": 8049,
      "وجي": 8050,
      "القمامة": 8051,
      "كونك": 8052,
      "الطوارئ": 8053,
      "قطر": 8054,
      "وسألت": 8055,
      "أتساءل": 8056,
      "اصط": 8057,
      "اصبع": 8058,
      "بطاقات": 8059,
      "شخصيا": 8060,
      "واقعية": 8061,
      "جدّا": 8062,
      "أرسم": 8063,
      "المجهر": 8064,
      "مصطلح": 8065,
      "وضعه": 8066,
      "بصراحة": 8067,
      "احيانا": 8068,
      "طريقه": 8069,
      "الأنسجة": 8070,
      "تستغرق": 8071,
      "السيدة": 8072,
      "حبوب": 8073,
      "بلايين": 8074,
      "وحدات": 8075,
      "لتحديد": 8076,
      "باستثناء": 8077,
      "للكثير": 8078,
      "خصوصا": 8079,
      "ينتظر": 8080,
      "تطبيقات": 8081,
      "طبقات": 8082,
      "بعينيات": 8083,
      "مفاجئ": 8084,
      "إسرائيل": 8085,
      "المفتوح": 8086,
      "راتيجيات": 8087,
      "الانتظار": 8088,
      "البريطانية": 8089,
      "ونظرت": 8090,
      "المسلمين": 8091,
      "البذور": 8092,
      "32": 8093,
      "re": 8094,
      "آخرى": 8095,
      "إكتشاف": 8096,
      "إزالة": 8097,
      "افكر": 8098,
      "تلا": 8099,
      "جبت": 8100,
      "حون": 8101,
      "خري": 8102,
      "صات": 8103,
      "طانية": 8104,
      "طيار": 8105,
      "كيميائية": 8106,
      "مكونات": 8107,
      "هورة": 8108,
      "ييس": 8109,
      "المتجددة": 8110,
      "ونية": 8111,
      "ونقوم": 8112,
      "ينتقل": 8113,
      "كنّا": 8114,
      "اربعة": 8115,
      "للج": 8116,
      "البلو": 8117,
      "يتحكم": 8118,
      "الاز": 8119,
      "برز": 8120,
      "متعلقة": 8121,
      "الطحالب": 8122,
      "الفأر": 8123,
      "الفنان": 8124,
      "دروس": 8125,
      "اصد": 8126,
      "لنأخذ": 8127,
      "تتضمن": 8128,
      "الوسي": 8129,
      "مستقل": 8130,
      "مستقلة": 8131,
      "محف": 8132,
      "العامل": 8133,
      "الأنماط": 8134,
      "رأيته": 8135,
      "زوجي": 8136,
      "الاسئلة": 8137,
      "التسعينات": 8138,
      "رأيي": 8139,
      "العمود": 8140,
      "فريدمان": 8141,
      "تبعاً": 8142,
      "اضطر": 8143,
      "جسمك": 8144,
      "مسبقا": 8145,
      "جسدك": 8146,
      "الأيسر": 8147,
      "إجتماعية": 8148,
      "التقطت": 8149,
      "بجدية": 8150,
      "تقليدية": 8151,
      "الموظفين": 8152,
      "آدم": 8153,
      "إف": 8154,
      "تختار": 8155,
      "جارة": 8156,
      "حمام": 8157,
      "زحل": 8158,
      "شريك": 8159,
      "عبين": 8160,
      "قارب": 8161,
      "كـ": 8162,
      "نبات": 8163,
      "نلاحظ": 8164,
      "وأنهم": 8165,
      "وهنالك": 8166,
      "يبدوا": 8167,
      "الويب": 8168,
      "أنجز": 8169,
      "لاسي": 8170,
      "ينيا": 8171,
      "التجري": 8172,
      "التوزيع": 8173,
      "راي": 8174,
      "معاي": 8175,
      "النق": 8176,
      "النقي": 8177,
      "ملموس": 8178,
      "سيست": 8179,
      "سيبدو": 8180,
      "الافضل": 8181,
      "بادة": 8182,
      "القارب": 8183,
      "هيب": 8184,
      "هيه": 8185,
      "متصلة": 8186,
      "الطباعة": 8187,
      "بلوغ": 8188,
      "الخرائط": 8189,
      "نفط": 8190,
      "سنرى": 8191,
      "خصة": 8192,
      "تحرير": 8193,
      "الثقب": 8194,
      "يقرأ": 8195,
      "بطول": 8196,
      "لنظام": 8197,
      "يشارك": 8198,
      "بأنفسنا": 8199,
      "وانها": 8200,
      "ضعيف": 8201,
      "حركت": 8202,
      "فهمه": 8203,
      "العلوي": 8204,
      "جنبا": 8205,
      "داخلها": 8206,
      "تسع": 8207,
      "الفيسبوك": 8208,
      "دماغك": 8209,
      "المسائل": 8210,
      "ظننت": 8211,
      "التقيت": 8212,
      "الراهن": 8213,
      "اللاجئين": 8214,
      "احدهم": 8215,
      "قرروا": 8216,
      "رأسه": 8217,
      "أهداف": 8218,
      "إثبات": 8219,
      "يأخذون": 8220,
      "اللوحات": 8221,
      "عميقة": 8222,
      "معتاد": 8223,
      "صياغة": 8224,
      "النافذة": 8225,
      "700": 8226,
      "is": 8227,
      "أذا": 8228,
      "أؤلئك": 8229,
      "بلة": 8230,
      "تيم": 8231,
      "تطلق": 8232,
      "تخطيط": 8233,
      "جمات": 8234,
      "جملة": 8235,
      "حصول": 8236,
      "خضراء": 8237,
      "رفي": 8238,
      "غد": 8239,
      "فأكثر": 8240,
      "نختار": 8241,
      "نركز": 8242,
      "ووجدت": 8243,
      "انز": 8244,
      "ستن": 8245,
      "معركة": 8246,
      "بعمر": 8247,
      "للخروج": 8248,
      "الحادي": 8249,
      "الكيفية": 8250,
      "يتعلمون": 8251,
      "وعا": 8252,
      "الشريط": 8253,
      "الفصول": 8254,
      "لتنا": 8255,
      "الرّ": 8256,
      "الرموز": 8257,
      "وبالرغم": 8258,
      "بتصوير": 8259,
      "تقتل": 8260,
      "تعط": 8261,
      "فعلًا": 8262,
      "أخذه": 8263,
      "موث": 8264,
      "المايكر": 8265,
      "والإن": 8266,
      "خطورة": 8267,
      "مستقب": 8268,
      "قرون": 8269,
      "غاء": 8270,
      "فقراء": 8271,
      "محلي": 8272,
      "فهمها": 8273,
      "الناشئة": 8274,
      "ترونيات": 8275,
      "التصويت": 8276,
      "البروتينات": 8277,
      "المثالي": 8278,
      "أعرفه": 8279,
      "الجزيرة": 8280,
      "الكونغرس": 8281,
      "تغيرات": 8282,
      "هدفنا": 8283,
      "الاسفل": 8284,
      "التعريف": 8285,
      "سهولة": 8286,
      "نشرها": 8287,
      "بالعودة": 8288,
      "مكتبة": 8289,
      "تبادل": 8290,
      "النسخة": 8291,
      "كتابي": 8292,
      "يفهمون": 8293,
      "الخصوصية": 8294,
      "الثامنة": 8295,
      "المعتاد": 8296,
      "مهندس": 8297,
      "قوقل": 8298,
      "حدّث": 8299,
      "ملحوظ": 8300,
      "التطبيقات": 8301,
      "آكل": 8302,
      "أبسط": 8303,
      "بؤ": 8304,
      "تعم": 8305,
      "جأ": 8306,
      "سكن": 8307,
      "شأنه": 8308,
      "شرائح": 8309,
      "كواكب": 8310,
      "لوقت": 8311,
      "موض": 8312,
      "نط": 8313,
      "وذة": 8314,
      "يحدد": 8315,
      "يختار": 8316,
      "المقام": 8317,
      "المصنع": 8318,
      "المقطع": 8319,
      "وارت": 8320,
      "ولون": 8321,
      "الأك": 8322,
      "للنا": 8323,
      "داخ": 8324,
      "النظم": 8325,
      "الكمية": 8326,
      "يترك": 8327,
      "الاعمال": 8328,
      "الجهد": 8329,
      "الجوية": 8330,
      "القوات": 8331,
      "بروت": 8332,
      "وعدم": 8333,
      "يدرس": 8334,
      "ترجمة": 8335,
      "لتقديم": 8336,
      "الرصاص": 8337,
      "الإدارة": 8338,
      "بتع": 8339,
      "بتقديم": 8340,
      "ختيار": 8341,
      "لأنفسنا": 8342,
      "مسل": 8343,
      "رتيب": 8344,
      "جدل": 8345,
      "الضحك": 8346,
      "فعّ": 8347,
      "المدونات": 8348,
      "المدهشة": 8349,
      "فهمت": 8350,
      "لدراسة": 8351,
      "بمساعدة": 8352,
      "الشيخوخة": 8353,
      "تنام": 8354,
      "التصنيع": 8355,
      "صنعنا": 8356,
      "مزارع": 8357,
      "القطط": 8358,
      "بالإمكان": 8359,
      "فصيل": 8360,
      "وستس": 8361,
      "تؤمن": 8362,
      "مقدمة": 8363,
      "ثمارات": 8364,
      "سريعا": 8365,
      "فريدة": 8366,
      "ترتبط": 8367,
      "المطبخ": 8368,
      "فارقة": 8369,
      "الخامس": 8370,
      "يضعون": 8371,
      "الفردية": 8372,
      "النهائية": 8373,
      "الحسابات": 8374,
      "الأوروبي": 8375,
      "المراهقين": 8376,
      "فشلت": 8377,
      "الطفولة": 8378,
      "أشرح": 8379,
      "بمكان": 8380,
      "بالطاقة": 8381,
      "تكتب": 8382,
      "دري": 8383,
      "شباب": 8384,
      "غور": 8385,
      "غدا": 8386,
      "غرة": 8387,
      "غلاف": 8388,
      "نعة": 8389,
      "وول": 8390,
      "يحة": 8391,
      "يونيو": 8392,
      "َن": 8393,
      "ًّا": 8394,
      "الدما": 8395,
      "القدرات": 8396,
      "فيس": 8397,
      "أنهي": 8398,
      "واس": 8399,
      "التطوير": 8400,
      "التشغيل": 8401,
      "يرجع": 8402,
      "الأولاد": 8403,
      "ديك": 8404,
      "الحمام": 8405,
      "يعة": 8406,
      "الاحيان": 8407,
      "القريب": 8408,
      "الربيع": 8409,
      "وبكل": 8410,
      "وبإمكان": 8411,
      "بتشغيل": 8412,
      "اجر": 8413,
      "وكأن": 8414,
      "هلية": 8415,
      "فضول": 8416,
      "الضع": 8417,
      "محر": 8418,
      "الاتحاد": 8419,
      "المعيشة": 8420,
      "ساعدنا": 8421,
      "مارسة": 8422,
      "اختلاف": 8423,
      "يُمكن": 8424,
      "يفعلوا": 8425,
      "نشهد": 8426,
      "لحم": 8427,
      "جامين": 8428,
      "الدماغية": 8429,
      "اهية": 8430,
      "سميث": 8431,
      "الأفارقة": 8432,
      "فائقة": 8433,
      "العميق": 8434,
      "خارجا": 8435,
      "محتمل": 8436,
      "نرغب": 8437,
      "أوائل": 8438,
      "اقتصادية": 8439,
      "الفائدة": 8440,
      "مسؤولية": 8441,
      "لاميذ": 8442,
      "ضطرابات": 8443,
      "هارفارد": 8444,
      "أجعل": 8445,
      "ؤكد": 8446,
      "افعل": 8447,
      "بالأشياء": 8448,
      "تمل": 8449,
      "توصلنا": 8450,
      "خام": 8451,
      "دود": 8452,
      "شوستس": 8453,
      "ضحايا": 8454,
      "عظام": 8455,
      "لحوالي": 8456,
      "مشاركت": 8457,
      "ناعة": 8458,
      "فيذي": 8459,
      "الممرض": 8460,
      "ونهم": 8461,
      "لايوجد": 8462,
      "الأست": 8463,
      "الأوكسجين": 8464,
      "ديه": 8465,
      "بعا": 8466,
      "يتعين": 8467,
      "لمسا": 8468,
      "تربط": 8469,
      "الصخور": 8470,
      "بلدي": 8471,
      "الإهتمام": 8472,
      "مجانية": 8473,
      "وأول": 8474,
      "نتذكر": 8475,
      "الثمان": 8476,
      "وقتي": 8477,
      "فضلكم": 8478,
      "وجدناه": 8479,
      "تشمل": 8480,
      "تطير": 8481,
      "يفعلونه": 8482,
      "السلبية": 8483,
      "الكونغو": 8484,
      "صناعي": 8485,
      "اللاس": 8486,
      "طويلاً": 8487,
      "للأبد": 8488,
      "دمير": 8489,
      "الرسومات": 8490,
      "زرقاء": 8491,
      "مفاهيم": 8492,
      "سعيدا": 8493,
      "مسبقاً": 8494,
      "المدرسين": 8495,
      "البسيط": 8496,
      "الحادث": 8497,
      "آرثر": 8498,
      "الإتصال": 8499,
      "كيلومتر": 8500,
      "الدلافين": 8501,
      "اللاتينية": 8502,
      "29": 8503,
      "أذكياء": 8504,
      "إمت": 8505,
      "إحداث": 8506,
      "اريكم": 8507,
      "تتع": 8508,
      "ثقب": 8509,
      "حوم": 8510,
      "حامل": 8511,
      "شُ": 8512,
      "صنف": 8513,
      "صائ": 8514,
      "ضرات": 8515,
      "قنية": 8516,
      "نخرج": 8517,
      "نلقي": 8518,
      "يها": 8519,
      "ّس": 8520,
      "التيار": 8521,
      "ستور": 8522,
      "ليقوم": 8523,
      "العقاقير": 8524,
      "للعب": 8525,
      "ساعتين": 8526,
      "البك": 8527,
      "الكيميائي": 8528,
      "الكهوف": 8529,
      "السماح": 8530,
      "السبعينات": 8531,
      "وجها": 8532,
      "القوية": 8533,
      "دماج": 8534,
      "سبول": 8535,
      "وأقول": 8536,
      "تصنيف": 8537,
      "الغر": 8538,
      "عملهم": 8539,
      "فتيات": 8540,
      "طلبات": 8541,
      "خطا": 8542,
      "جدتي": 8543,
      "غابة": 8544,
      "الزراعية": 8545,
      "قاليد": 8546,
      "تكساس": 8547,
      "وسيقى": 8548,
      "دراج": 8549,
      "معظمكم": 8550,
      "2006": 8551,
      "عرفنا": 8552,
      "اللاعبين": 8553,
      "القصير": 8554,
      "تريليون": 8555,
      "الاختراع": 8556,
      "جونز": 8557,
      "حكومية": 8558,
      "تجاري": 8559,
      "العائلات": 8560,
      "تساعدنا": 8561,
      "المقدمة": 8562,
      "يهتمون": 8563,
      "الالكتروني": 8564,
      "أبناء": 8565,
      "أتمكن": 8566,
      "ؤثر": 8567,
      "بالي": 8568,
      "توسيع": 8569,
      "جيج": 8570,
      "حوض": 8571,
      "حوار": 8572,
      "سمات": 8573,
      "سأعرض": 8574,
      "ضت": 8575,
      "ضرت": 8576,
      "فخور": 8577,
      "لمعالجة": 8578,
      "مبك": 8579,
      "هُ": 8580,
      "وحينما": 8581,
      "يطلب": 8582,
      "َا": 8583,
      "الستينات": 8584,
      "المقص": 8585,
      "المواقف": 8586,
      "علن": 8587,
      "التأكد": 8588,
      "ولأن": 8589,
      "ستلاحظ": 8590,
      "بعضاً": 8591,
      "للولايات": 8592,
      "إنك": 8593,
      "النور": 8594,
      "الاكتئاب": 8595,
      "الشك": 8596,
      "لتقط": 8597,
      "الإشارات": 8598,
      "بتعد": 8599,
      "جادل": 8600,
      "تقلق": 8601,
      "مجر": 8602,
      "عمدة": 8603,
      "تعكس": 8604,
      "وكالات": 8605,
      "يقال": 8606,
      "أخط": 8607,
      "كاب": 8608,
      "مسئول": 8609,
      "أرس": 8610,
      "بارك": 8611,
      "محطات": 8612,
      "وزير": 8613,
      "لدعم": 8614,
      "بمفرد": 8615,
      "اعطي": 8616,
      "يستعمل": 8617,
      "عرضت": 8618,
      "مزد": 8619,
      "2004": 8620,
      "راجعة": 8621,
      "الاجتماع": 8622,
      "تحولت": 8623,
      "للعديد": 8624,
      "المعدات": 8625,
      "كهرباء": 8626,
      "روبوتات": 8627,
      "تساوي": 8628,
      "الكرسي": 8629,
      "يساوي": 8630,
      "بدوره": 8631,
      "راثية": 8632,
      "التهديد": 8633,
      "قانوني": 8634,
      "وأصبحت": 8635,
      "المبادئ": 8636,
      "أيت": 8637,
      "أشاهد": 8638,
      "أبيض": 8639,
      "إكت": 8640,
      "إظهار": 8641,
      "احاول": 8642,
      "ابدأ": 8643,
      "بالحديث": 8644,
      "خلت": 8645,
      "خفيف": 8646,
      "دوم": 8647,
      "سئ": 8648,
      "صراع": 8649,
      "صراحة": 8650,
      "ملاء": 8651,
      "نوم": 8652,
      "نقاش": 8653,
      "هيرة": 8654,
      "يبن": 8655,
      "١٠": 8656,
      "فيت": 8657,
      "المعلم": 8658,
      "المعلومة": 8659,
      "علّم": 8660,
      "أنجلوس": 8661,
      "اتك": 8662,
      "التلوث": 8663,
      "العربي": 8664,
      "للأمام": 8665,
      "الحقيق": 8666,
      "إنما": 8667,
      "سيما": 8668,
      "الابداع": 8669,
      "الاخير": 8670,
      "وتو": 8671,
      "متعدد": 8672,
      "ويج": 8673,
      "لتن": 8674,
      "الإطار": 8675,
      "شيط": 8676,
      "بعضهما": 8677,
      "مجرة": 8678,
      "الدوام": 8679,
      "يجدون": 8680,
      "ركيز": 8681,
      "أختم": 8682,
      "ميص": 8683,
      "تتاح": 8684,
      "كيث": 8685,
      "خلاله": 8686,
      "مدف": 8687,
      "أرجل": 8688,
      "ثلاثين": 8689,
      "بكين": 8690,
      "للتحدث": 8691,
      "يقوله": 8692,
      "الولاية": 8693,
      "الخطوات": 8694,
      "تشارلز": 8695,
      "تحتاجه": 8696,
      "يستخدمها": 8697,
      "يصبحون": 8698,
      "ستانفورد": 8699,
      "الصفحات": 8700,
      "الثقافي": 8701,
      "صحفي": 8702,
      "مهتمة": 8703,
      "زمنية": 8704,
      "العضوية": 8705,
      "الملكة": 8706,
      "شعبية": 8707,
      "المكتبة": 8708,
      "الباردة": 8709,
      "المذهل": 8710,
      "الفكرية": 8711,
      "الاساسية": 8712,
      "%.": 8713,
      "33": 8714,
      "85": 8715,
      "ac": 8716,
      "آلي": 8717,
      "أجن": 8718,
      "إعلام": 8719,
      "تشك": 8720,
      "تسل": 8721,
      "تدع": 8722,
      "توصيل": 8723,
      "جئة": 8724,
      "خال": 8725,
      "خنة": 8726,
      "طورة": 8727,
      "طاليا": 8728,
      "مضحك": 8729,
      "وحيث": 8730,
      "الميت": 8731,
      "المخت": 8732,
      "التخلي": 8733,
      "الأداة": 8734,
      "الأفريقية": 8735,
      "معماري": 8736,
      "النقود": 8737,
      "الاسبوع": 8738,
      "القفز": 8739,
      "القبض": 8740,
      "لمجموعة": 8741,
      "حتها": 8742,
      "الشفافية": 8743,
      "وتست": 8744,
      "الصغر": 8745,
      "قيلة": 8746,
      "الخلا": 8747,
      "خلى": 8748,
      "وبناء": 8749,
      "الإناث": 8750,
      "بطا": 8751,
      "ابقة": 8752,
      "شخصين": 8753,
      "يشار": 8754,
      "ئيلة": 8755,
      "أكس": 8756,
      "استكشاف": 8757,
      "الإنفجار": 8758,
      "عيين": 8759,
      "الأمطار": 8760,
      "الزيت": 8761,
      "السابع": 8762,
      "2011": 8763,
      "صنعه": 8764,
      "دولاراً": 8765,
      "تستعمل": 8766,
      "2001": 8767,
      "أردتم": 8768,
      "تتحكم": 8769,
      "موسيقي": 8770,
      "ينتشر": 8771,
      "تباع": 8772,
      "إثنين": 8773,
      "نووية": 8774,
      "النسخ": 8775,
      "المنظور": 8776,
      "التشخيص": 8777,
      "مدننا": 8778,
      "المكتسبة": 8779,
      "أيديكم": 8780,
      "إلكتروني": 8781,
      "الميكروبات": 8782,
      "صباحا": 8783,
      "المعادلة": 8784,
      "ضائع": 8785,
      "شهادة": 8786,
      "ئون": 8787,
      "اهمية": 8788,
      "بالذ": 8789,
      "خسارة": 8790,
      "ذيب": 8791,
      "صرة": 8792,
      "عالج": 8793,
      "فوائد": 8794,
      "لحد": 8795,
      "محادثات": 8796,
      "والط": 8797,
      "وراه": 8798,
      "المستخدمة": 8799,
      "لكة": 8800,
      "ذاهب": 8801,
      "معقولة": 8802,
      "العيون": 8803,
      "للتن": 8804,
      "ومثل": 8805,
      "سيدي": 8806,
      "الابت": 8807,
      "الاجابة": 8808,
      "السوفي": 8809,
      "السلاح": 8810,
      "الجدل": 8811,
      "القرد": 8812,
      "لمد": 8813,
      "متاع": 8814,
      "متأخر": 8815,
      "بيّن": 8816,
      "يفض": 8817,
      "وبالفعل": 8818,
      "أتوا": 8819,
      "تصديق": 8820,
      "قلبية": 8821,
      "لننظر": 8822,
      "عملة": 8823,
      "والبعض": 8824,
      "مستدامة": 8825,
      "قائلا": 8826,
      "حوالى": 8827,
      "للمعلومات": 8828,
      "قمتم": 8829,
      "الجزر": 8830,
      "القصيرة": 8831,
      "احتياجات": 8832,
      "ذكى": 8833,
      "الطائر": 8834,
      "الورم": 8835,
      "التدريس": 8836,
      "تحديات": 8837,
      "نسيج": 8838,
      "ثانيا": 8839,
      "إختبار": 8840,
      "السياسيين": 8841,
      "طلابي": 8842,
      "الاخيرة": 8843,
      "تتخيلوا": 8844,
      "أمكننا": 8845,
      "نافذة": 8846,
      "ضطراب": 8847,
      "الجليدي": 8848,
      "الخاطئة": 8849,
      "معايير": 8850,
      "أقرأ": 8851,
      "إعتقد": 8852,
      "إقناع": 8853,
      "تة": 8854,
      "حيا": 8855,
      "فراغ": 8856,
      "كلكم": 8857,
      "لعدد": 8858,
      "مكانا": 8859,
      "ومعظم": 8860,
      "يبيع": 8861,
      "منظر": 8862,
      "المعلمين": 8863,
      "ونفس": 8864,
      "الترد": 8865,
      "التنقل": 8866,
      "يادات": 8867,
      "الأط": 8868,
      "العار": 8869,
      "العقار": 8870,
      "للبشر": 8871,
      "الحساب": 8872,
      "الحرارية": 8873,
      "قائية": 8874,
      "إنتشار": 8875,
      "السمنة": 8876,
      "مرضا": 8877,
      "الشاح": 8878,
      "وتت": 8879,
      "وتحدث": 8880,
      "متما": 8881,
      "الطابق": 8882,
      "يدعم": 8883,
      "عاج": 8884,
      "وبالتأكيد": 8885,
      "جادة": 8886,
      "شاً": 8887,
      "بحل": 8888,
      "نعي": 8889,
      "الوراثية": 8890,
      "مناقشة": 8891,
      "جدول": 8892,
      "أخذوا": 8893,
      "تشرة": 8894,
      "يصدر": 8895,
      "المجر": 8896,
      "المجرة": 8897,
      "وضعية": 8898,
      "محار": 8899,
      "محمية": 8900,
      "بصفة": 8901,
      "صفحات": 8902,
      "الأسهم": 8903,
      "البيوت": 8904,
      "زاوج": 8905,
      "194": 8906,
      "1960": 8907,
      "ملاحظ": 8908,
      "مساحات": 8909,
      "المؤكد": 8910,
      "نقود": 8911,
      "بلغت": 8912,
      "ضاعفة": 8913,
      "اماكن": 8914,
      "الشرقية": 8915,
      "المقدس": 8916,
      "معرفته": 8917,
      "البلاستيكية": 8918,
      "الخفافيش": 8919,
      "أجدا": 8920,
      "إيف": 8921,
      "بقصة": 8922,
      "ثمن": 8923,
      "جناء": 8924,
      "حرق": 8925,
      "رُ": 8926,
      "رال": 8927,
      "سوي": 8928,
      "شأنها": 8929,
      "فهل": 8930,
      "لأسباب": 8931,
      "مهد": 8932,
      "مأسا": 8933,
      "مباني": 8934,
      "ندرس": 8935,
      "هذان": 8936,
      "ويمكنني": 8937,
      "يقا": 8938,
      "الميل": 8939,
      "المحاولة": 8940,
      "المميز": 8941,
      "المفاتيح": 8942,
      "اتصالات": 8943,
      "ديس": 8944,
      "العصور": 8945,
      "للخطر": 8946,
      "الحجر": 8947,
      "إنسانية": 8948,
      "البث": 8949,
      "البنفس": 8950,
      "البشرة": 8951,
      "الاثنين": 8952,
      "السمع": 8953,
      "متزايد": 8954,
      "ترد": 8955,
      "بيس": 8956,
      "جاذ": 8957,
      "وفقط": 8958,
      "شابة": 8959,
      "نحقق": 8960,
      "وأدر": 8961,
      "وكولات": 8962,
      "أنابيب": 8963,
      "الغام": 8964,
      "لوى": 8965,
      "مسيرة": 8966,
      "استيقظ": 8967,
      "الضحايا": 8968,
      "بداعي": 8969,
      "لأكون": 8970,
      "ئلين": 8971,
      "الأسلاك": 8972,
      "تسقط": 8973,
      "أولى": 8974,
      "المعركة": 8975,
      "اقترح": 8976,
      "نسى": 8977,
      "ضروري": 8978,
      "عينيك": 8979,
      "تقولون": 8980,
      "المحاصيل": 8981,
      "جذري": 8982,
      "مكتبي": 8983,
      "خصوصاً": 8984,
      "لطيفة": 8985,
      "تعنيه": 8986,
      "لأولئك": 8987,
      "جماعة": 8988,
      "المراحل": 8989,
      "بجوار": 8990,
      "أنشأنا": 8991,
      "اللقاحات": 8992,
      "تعليق": 8993,
      "ملائمة": 8994,
      "فلوري": 8995,
      "الأضواء": 8996,
      "البعوض": 8997,
      "إكس": 8998,
      "إياها": 8999,
      "ئهم": 9000,
      "اقصد": 9001,
      "بقول": 9002,
      "تمنع": 9003,
      "توازن": 9004,
      "روك": 9005,
      "غابات": 9006,
      "فوضى": 9007,
      "قيام": 9008,
      "قبيل": 9009,
      "قسام": 9010,
      "لويس": 9011,
      "مفاتيح": 9012,
      "نقي": 9013,
      "هزة": 9014,
      "والحصول": 9015,
      "يمنع": 9016,
      "المبكرة": 9017,
      "أنقذ": 9018,
      "هايمر": 9019,
      "اتب": 9020,
      "التجمع": 9021,
      "ديسم": 9022,
      "ليك": 9023,
      "النسب": 9024,
      "الذكي": 9025,
      "إلهام": 9026,
      "القياس": 9027,
      "لمجتمع": 9028,
      "وعرض": 9029,
      "وتُ": 9030,
      "الفعلي": 9031,
      "ترعر": 9032,
      "ويوجد": 9033,
      "اليون": 9034,
      "حاسب": 9035,
      "وبطبيعة": 9036,
      "وفى": 9037,
      "كتلك": 9038,
      "أتيت": 9039,
      "شيءٌ": 9040,
      "موغرا": 9041,
      "فتي": 9042,
      "هدوء": 9043,
      "اللذين": 9044,
      "أعيد": 9045,
      "مدد": 9046,
      "المنظر": 9047,
      "جدية": 9048,
      "وضعوا": 9049,
      "مليء": 9050,
      "الاستدامة": 9051,
      "للتواصل": 9052,
      "ثروة": 9053,
      "خاء": 9054,
      "تلقائ": 9055,
      "ندخل": 9056,
      "أقترح": 9057,
      "تقدر": 9058,
      "الأحذية": 9059,
      "والأهم": 9060,
      "كبرى": 9061,
      "نريده": 9062,
      "حفلة": 9063,
      "صعود": 9064,
      "غضب": 9065,
      "واضحا": 9066,
      "ولديهم": 9067,
      "مقاعد": 9068,
      "إستخدامها": 9069,
      "٠٠٠": 9070,
      "بدلًا": 9071,
      "المسؤولية": 9072,
      "أدمغتنا": 9073,
      "!!": 9074,
      "com": 9075,
      "أطراف": 9076,
      "إحدا": 9077,
      "ئيل": 9078,
      "اود": 9079,
      "بأكثر": 9080,
      "بأمر": 9081,
      "بالسرطان": 9082,
      "تحيط": 9083,
      "ثبات": 9084,
      "ثواني": 9085,
      "حالما": 9086,
      "خدا": 9087,
      "خلاف": 9088,
      "داني": 9089,
      "شحن": 9090,
      "غذاء": 9091,
      "فست": 9092,
      "فانها": 9093,
      "كسي": 9094,
      "مقص": 9095,
      "نمر": 9096,
      "الكن": 9097,
      "الوجوه": 9098,
      "ماسات": 9099,
      "مايقارب": 9100,
      "المقدرة": 9101,
      "التأ": 9102,
      "التوق": 9103,
      "التمثيل": 9104,
      "يرِ": 9105,
      "ياح": 9106,
      "ياري": 9107,
      "ياكل": 9108,
      "الأكسجين": 9109,
      "ريضة": 9110,
      "رايت": 9111,
      "ديات": 9112,
      "ليه": 9113,
      "ارن": 9114,
      "يمث": 9115,
      "العسل": 9116,
      "للوراء": 9117,
      "للفرد": 9118,
      "الكوارث": 9119,
      "يتا": 9120,
      "وجاء": 9121,
      "وتع": 9122,
      "الطالب": 9123,
      "نيل": 9124,
      "لتين": 9125,
      "خلفي": 9126,
      "وبطريقة": 9127,
      "تحار": 9128,
      "الدعا": 9129,
      "نتها": 9130,
      "نتوقف": 9131,
      "اجتمع": 9132,
      "لأنكم": 9133,
      "الغنية": 9134,
      "لوبة": 9135,
      "ياتي": 9136,
      "سلبية": 9137,
      "أمضيت": 9138,
      "مختلفاً": 9139,
      "فقالت": 9140,
      "ضعيفة": 9141,
      "قدموا": 9142,
      "المرئي": 9143,
      "والتكنولوجيا": 9144,
      "الهجوم": 9145,
      "الهبوط": 9146,
      "المناظر": 9147,
      "المثالية": 9148,
      "مواطن": 9149,
      "الهندية": 9150,
      "الفرنسي": 9151,
      "للأرض": 9152,
      "ممتا": 9153,
      "سابقة": 9154,
      "مثيراً": 9155,
      "بذل": 9156,
      "اساسي": 9157,
      "خلاص": 9158,
      "الضوئي": 9159,
      "التاسعة": 9160,
      "إرتفاع": 9161,
      "أختي": 9162,
      "حقيبة": 9163,
      "وتكرارا": 9164,
      "28": 9165,
      "3000": 9166,
      "أتم": 9167,
      "أبنائ": 9168,
      "إتص": 9169,
      "اعمال": 9170,
      "بنوع": 9171,
      "بنظام": 9172,
      "تأمين": 9173,
      "حُ": 9174,
      "زداد": 9175,
      "قمر": 9176,
      "كّر": 9177,
      "كفاية": 9178,
      "لوجود": 9179,
      "ممثل": 9180,
      "نوف": 9181,
      "نياء": 9182,
      "ّدة": 9183,
      "المليون": 9184,
      "هاته": 9185,
      "واستخدام": 9186,
      "التمييز": 9187,
      "يركز": 9188,
      "معز": 9189,
      "للخارج": 9190,
      "قاسية": 9191,
      "البتر": 9192,
      "النجم": 9193,
      "الكرت": 9194,
      "يتضمن": 9195,
      "الاعلى": 9196,
      "مرونة": 9197,
      "الشّ": 9198,
      "وتبدأ": 9199,
      "وتصبح": 9200,
      "متحركة": 9201,
      "الفني": 9202,
      "ترس": 9203,
      "بيث": 9204,
      "الرمز": 9205,
      "تمشي": 9206,
      "وبان": 9207,
      "الإعلان": 9208,
      "نفذ": 9209,
      "سنحصل": 9210,
      "يجمع": 9211,
      "تصب": 9212,
      "أسعار": 9213,
      "حولهم": 9214,
      "تتوفر": 9215,
      "المنطقي": 9216,
      "فرع": 9217,
      "تايل": 9218,
      "وزع": 9219,
      "والتراحم": 9220,
      "مقراطي": 9221,
      "الفيدر": 9222,
      "الاستع": 9223,
      "أدلة": 9224,
      "السرير": 9225,
      "تجربتي": 9226,
      "الدراسي": 9227,
      "أعنيه": 9228,
      "التسويق": 9229,
      "جانبا": 9230,
      "ميزانية": 9231,
      "سكوت": 9232,
      "مغناطي": 9233,
      "ولندا": 9234,
      "ثقافتنا": 9235,
      "تعادل": 9236,
      "اجتماعي": 9237,
      "غادرت": 9238,
      "يرتدي": 9239,
      "كاديمي": 9240,
      "العروض": 9241,
      "وقاموا": 9242,
      "المعادن": 9243,
      "هابيين": 9244,
      "ويقومون": 9245,
      "تعقيدا": 9246,
      "مارتن": 9247,
      "الخنازير": 9248,
      "التوقعات": 9249,
      "MI": 9250,
      "ol": 9251,
      "أجمع": 9252,
      "إد": 9253,
      "خلل": 9254,
      "زائ": 9255,
      "شاملة": 9256,
      "صيب": 9257,
      "ضمان": 9258,
      "طبا": 9259,
      "فوت": 9260,
      "قوط": 9261,
      "كلام": 9262,
      "مواقف": 9263,
      "هه": 9264,
      "هواء": 9265,
      "ّرت": 9266,
      "الميدان": 9267,
      "الموسم": 9268,
      "ينج": 9269,
      "التخصص": 9270,
      "يربط": 9271,
      "الأسر": 9272,
      "ديلا": 9273,
      "وريا": 9274,
      "العولمة": 9275,
      "للمنزل": 9276,
      "سيح": 9277,
      "يتعرض": 9278,
      "يتصرف": 9279,
      "الافتراضية": 9280,
      "لمنا": 9281,
      "الشكر": 9282,
      "الشجاعة": 9283,
      "بدع": 9284,
      "يدون": 9285,
      "ترفع": 9286,
      "الصفات": 9287,
      "قينا": 9288,
      "ويين": 9289,
      "يفسر": 9290,
      "الإم": 9291,
      "الإتحاد": 9292,
      "شاة": 9293,
      "كتابت": 9294,
      "تحر": 9295,
      "وأظن": 9296,
      "كنتيجة": 9297,
      "تصفيق": 9298,
      "ستطعت": 9299,
      "الثّ": 9300,
      "كاد": 9301,
      "أسر": 9302,
      "الانتخابات": 9303,
      "جدد": 9304,
      "بإرسال": 9305,
      "دعوة": 9306,
      "محركات": 9307,
      "تعلموا": 9308,
      "عالمياً": 9309,
      "رسومات": 9310,
      "شاهدنا": 9311,
      "عرضه": 9312,
      "مزرعة": 9313,
      "أخبرتكم": 9314,
      "أنّنا": 9315,
      "المختر": 9316,
      "اللاعب": 9317,
      "صغيراً": 9318,
      "مخي": 9319,
      "الدراجة": 9320,
      "ذكور": 9321,
      "دخين": 9322,
      "الظهور": 9323,
      "خارطة": 9324,
      "فريقي": 9325,
      "المعاناة": 9326,
      "تعرضت": 9327,
      "امتلاك": 9328,
      "كهربائي": 9329,
      "الغازات": 9330,
      "هولزمان": 9331,
      "الذهبية": 9332,
      "وكيفية": 9333,
      "نسبيا": 9334,
      "المراهقة": 9335,
      "مكافحة": 9336,
      "بتسجيل": 9337,
      "رخيصة": 9338,
      "فلوريدا": 9339,
      "ديسمبر": 9340,
      "يرِيك": 9341,
      "أذ": 9342,
      "أرا": 9343,
      "أمت": 9344,
      "أقر": 9345,
      "اعلى": 9346,
      "اطلاق": 9347,
      "بمثل": 9348,
      "بكتابة": 9349,
      "تظل": 9350,
      "توضيح": 9351,
      "ذها": 9352,
      "صدا": 9353,
      "فانت": 9354,
      "موضع": 9355,
      "نض": 9356,
      "ندا": 9357,
      "ماه": 9358,
      "المحل": 9359,
      "المبلغ": 9360,
      "ستها": 9361,
      "الأفق": 9362,
      "ريكان": 9363,
      "يمشي": 9364,
      "العقود": 9365,
      "الحكا": 9366,
      "الحقول": 9367,
      "يتكون": 9368,
      "الاغ": 9369,
      "السجون": 9370,
      "السباق": 9371,
      "وجز": 9372,
      "الجل": 9373,
      "وتات": 9374,
      "وتستطيع": 9375,
      "متخصص": 9376,
      "الخنزير": 9377,
      "الرد": 9378,
      "يفتح": 9379,
      "شرك": 9380,
      "تقر": 9381,
      "تقسيم": 9382,
      "بحسب": 9383,
      "تعديل": 9384,
      "نعتمد": 9385,
      "الغرض": 9386,
      "أسواق": 9387,
      "رقمية": 9388,
      "شخصياً": 9389,
      "الوقاية": 9390,
      "مكانها": 9391,
      "أموت": 9392,
      "الإنساني": 9393,
      "الأمواج": 9394,
      "يحوي": 9395,
      "يحضر": 9396,
      "جنود": 9397,
      "سيارتك": 9398,
      "الساعات": 9399,
      "مؤقت": 9400,
      "الاستهلاك": 9401,
      "اعرض": 9402,
      "صنعها": 9403,
      "بحثت": 9404,
      "مشهور": 9405,
      "عرضها": 9406,
      "إيمان": 9407,
      "يعرفوا": 9408,
      "ممتل": 9409,
      "زوجته": 9410,
      "دهشة": 9411,
      "وحده": 9412,
      "الميكان": 9413,
      "للكون": 9414,
      "جذور": 9415,
      "رواد": 9416,
      "فارغة": 9417,
      "أميال": 9418,
      "الصدمة": 9419,
      "يرتفع": 9420,
      "نسبياً": 9421,
      "المضادات": 9422,
      "الأخرين": 9423,
      "منازلهم": 9424,
      "اضطراب": 9425,
      "الطبقات": 9426,
      "as": 9427,
      "il": 9428,
      "دعي": 9429,
      "دريب": 9430,
      "شوارع": 9431,
      "ضباط": 9432,
      "فليس": 9433,
      "كشخص": 9434,
      "معل": 9435,
      "ميد": 9436,
      "مزي": 9437,
      "وحول": 9438,
      "يكتشف": 9439,
      "ّون": 9440,
      "القائ": 9441,
      "منفصل": 9442,
      "منفصلة": 9443,
      "انوني": 9444,
      "انفسهم": 9445,
      "المفق": 9446,
      "الملاحظ": 9447,
      "المتجر": 9448,
      "هاري": 9449,
      "واضع": 9450,
      "التذ": 9451,
      "التين": 9452,
      "التوجه": 9453,
      "يادين": 9454,
      "ستفعل": 9455,
      "ديز": 9456,
      "ديين": 9457,
      "معقول": 9458,
      "العظ": 9459,
      "للدماغ": 9460,
      "للأشياء": 9461,
      "للمستقبل": 9462,
      "داول": 9463,
      "إنجلترا": 9464,
      "مله": 9465,
      "إلخ": 9466,
      "الاماكن": 9467,
      "السما": 9468,
      "الجحيم": 9469,
      "متوقعة": 9470,
      "الطّ": 9471,
      "---": 9472,
      "شافه": 9473,
      "نته": 9474,
      "نتخيل": 9475,
      "عمود": 9476,
      "بحار": 9477,
      "ركوب": 9478,
      "مثلنا": 9479,
      "تتواجد": 9480,
      "والأن": 9481,
      "خاصية": 9482,
      "سرقة": 9483,
      "استثنائية": 9484,
      "عربة": 9485,
      "بيعها": 9486,
      "الإنت": 9487,
      "بدايات": 9488,
      "فقيرة": 9489,
      "يزة": 9490,
      "الأسوأ": 9491,
      "الأولي": 9492,
      "وجهها": 9493,
      "بحثي": 9494,
      "البرلمان": 9495,
      "جيدين": 9496,
      "معظمها": 9497,
      "2003": 9498,
      "السلطات": 9499,
      "أثار": 9500,
      "وصلوا": 9501,
      "للأعلى": 9502,
      "بلاست": 9503,
      "رياضي": 9504,
      "حيانًا": 9505,
      "جراحة": 9506,
      "تمتد": 9507,
      "صعبا": 9508,
      "الاحتمالات": 9509,
      "سائق": 9510,
      "رغماً": 9511,
      "دفعت": 9512,
      "الخيوط": 9513,
      "سخيف": 9514,
      "العواطف": 9515,
      "يحملون": 9516,
      "خصائي": 9517,
      "متأكدة": 9518,
      "صباحاً": 9519,
      "مألوف": 9520,
      "الفيزيائي": 9521,
      "السمكة": 9522,
      "الأميركي": 9523,
      "حقائق": 9524,
      "أمس": 9525,
      "أسمي": 9526,
      "إض": 9527,
      "ئها": 9528,
      "تقابل": 9529,
      "تكلف": 9530,
      "ثرت": 9531,
      "جالسا": 9532,
      "رطل": 9533,
      "زاي": 9534,
      "سلك": 9535,
      "شدة": 9536,
      "صبي": 9537,
      "طني": 9538,
      "ظرة": 9539,
      "غز": 9540,
      "مكلفة": 9541,
      "نعد": 9542,
      "نقدر": 9543,
      "نميل": 9544,
      "ننتج": 9545,
      "هجوم": 9546,
      "ومعرفة": 9547,
      "ووضعت": 9548,
      "ِد": 9549,
      "ِر": 9550,
      "ِن": 9551,
      "انما": 9552,
      "وند": 9553,
      "ليح": 9554,
      "ليونا": 9555,
      "للآخرين": 9556,
      "إني": 9557,
      "الابعاد": 9558,
      "لمشاهدة": 9559,
      "برسم": 9560,
      "وعات": 9561,
      "يدع": 9562,
      "الصل": 9563,
      "لتك": 9564,
      "لتصميم": 9565,
      "الخش": 9566,
      "الخطة": 9567,
      "عاقة": 9568,
      "الإضاءة": 9569,
      "سنجد": 9570,
      "تقرر": 9571,
      "بحيرة": 9572,
      "بحوث": 9573,
      "تصر": 9574,
      "أسوء": 9575,
      "تتنا": 9576,
      "تتيح": 9577,
      "يشمل": 9578,
      "الكثيرون": 9579,
      "والامر": 9580,
      "أحدا": 9581,
      "أحدها": 9582,
      "طاة": 9583,
      "نظيفة": 9584,
      "أخذها": 9585,
      "مصباح": 9586,
      "فقوا": 9587,
      "الأسعار": 9588,
      "يسمع": 9589,
      "سأحاول": 9590,
      "بكية": 9591,
      "ضرر": 9592,
      "اسفل": 9593,
      "جيدًا": 9594,
      "تستهلك": 9595,
      "صدمة": 9596,
      "نفعلها": 9597,
      "فاعلية": 9598,
      "الهادئ": 9599,
      "ابتكر": 9600,
      "وائح": 9601,
      "العنصر": 9602,
      "اخترت": 9603,
      "مراراً": 9604,
      "افترض": 9605,
      "حكوم": 9606,
      "أطفالهم": 9607,
      "الحوادث": 9608,
      "جريمة": 9609,
      "رحلتي": 9610,
      "وحيدة": 9611,
      "مايو": 9612,
      "صنيع": 9613,
      "جديداً": 9614,
      "تفكيرنا": 9615,
      "التكنولوجية": 9616,
      "الإتصالات": 9617,
      "إلتقاط": 9618,
      "انتهت": 9619,
      "الخليج": 9620,
      "وأدركت": 9621,
      "120": 9622,
      "5000": 9623,
      "أياً": 9624,
      "ابحث": 9625,
      "اوروبا": 9626,
      "ببعضها": 9627,
      "براءة": 9628,
      "بالقول": 9629,
      "تمن": 9630,
      "تول": 9631,
      "تنوع": 9632,
      "توظيف": 9633,
      "جوه": 9634,
      "جواب": 9635,
      "حذ": 9636,
      "حور": 9637,
      "حقة": 9638,
      "خض": 9639,
      "عظم": 9640,
      "عودة": 9641,
      "فندق": 9642,
      "قرة": 9643,
      "قنبلة": 9644,
      "كير": 9645,
      "لنفسك": 9646,
      "مكث": 9647,
      "مناس": 9648,
      "مضح": 9649,
      "مبلغ": 9650,
      "موعد": 9651,
      "نقط": 9652,
      "نأتي": 9653,
      "هبط": 9654,
      "والحقيقة": 9655,
      "يطل": 9656,
      "ِي": 9657,
      "ّاً": 9658,
      "الأنهار": 9659,
      "ماش": 9660,
      "أنفسكم": 9661,
      "التها": 9662,
      "ستير": 9663,
      "الأيدي": 9664,
      "ريه": 9665,
      "راوح": 9666,
      "الحملة": 9667,
      "الاث": 9668,
      "السوي": 9669,
      "الجدول": 9670,
      "الجوانب": 9671,
      "القات": 9672,
      "القانوني": 9673,
      "هيد": 9674,
      "الشرائح": 9675,
      "وتس": 9676,
      "وترك": 9677,
      "تردد": 9678,
      "قطار": 9679,
      "جاك": 9680,
      "وفق": 9681,
      "وفهم": 9682,
      "سنى": 9683,
      "مجنون": 9684,
      "شكلها": 9685,
      "تصاميم": 9686,
      "تتجاوز": 9687,
      "ديدان": 9688,
      "مكانه": 9689,
      "منافسة": 9690,
      "المنهج": 9691,
      "استخراج": 9692,
      "طابع": 9693,
      "بإجراء": 9694,
      "يحرك": 9695,
      "قتك": 9696,
      "لأعلى": 9697,
      "لأمر": 9698,
      "المرجح": 9699,
      "داخله": 9700,
      "النانو": 9701,
      "ساعدت": 9702,
      "أمامي": 9703,
      "مزيج": 9704,
      "جاهز": 9705,
      "كريست": 9706,
      "المسح": 9707,
      "اعتما": 9708,
      "اعتاد": 9709,
      "أنّها": 9710,
      "نشأ": 9711,
      "صناعية": 9712,
      "خارجية": 9713,
      "المستقبلية": 9714,
      "اخبار": 9715,
      "التدفق": 9716,
      "سهلا": 9717,
      "نشرت": 9718,
      "أهتم": 9719,
      "تغطي": 9720,
      "طالبة": 9721,
      "المعايير": 9722,
      "موجودا": 9723,
      "مهتمون": 9724,
      "يضرب": 9725,
      "ـــ": 9726,
      "القانونية": 9727,
      "العدوى": 9728,
      "متناول": 9729,
      "الباحثون": 9730,
      "ونتيجة": 9731,
      "باعتبار": 9732,
      "مألوفة": 9733,
      "معادلة": 9734,
      "أكتوبر": 9735,
      "لقاح": 9736,
      "العاصمة": 9737,
      "ديناميكية": 9738,
      "ممتازة": 9739,
      "بكثرة": 9740,
      "تبعد": 9741,
      "تفضل": 9742,
      "تامة": 9743,
      "دب": 9744,
      "دورا": 9745,
      "صمة": 9746,
      "صانع": 9747,
      "فالأمر": 9748,
      "كف": 9749,
      "لعالم": 9750,
      "مالا": 9751,
      "نمضي": 9752,
      "هيار": 9753,
      "وراق": 9754,
      "يحد": 9755,
      "يبين": 9756,
      "يولي": 9757,
      "َت": 9758,
      "الارتفاع": 9759,
      "ناجح": 9760,
      "انتقل": 9761,
      "المصر": 9762,
      "التأمين": 9763,
      "يرد": 9764,
      "يرتد": 9765,
      "ستار": 9766,
      "الأسلوب": 9767,
      "ريدة": 9768,
      "ديف": 9769,
      "حدات": 9770,
      "ورأيت": 9771,
      "ومؤ": 9772,
      "سافر": 9773,
      "سيأتي": 9774,
      "الكلاسي": 9775,
      "السفل": 9776,
      "السنتين": 9777,
      "الجس": 9778,
      "وعاً": 9779,
      "وعائ": 9780,
      "وعاء": 9781,
      "بلغة": 9782,
      "لتعلم": 9783,
      "بتعليم": 9784,
      "كررة": 9785,
      "وسيا": 9786,
      "تماثل": 9787,
      "أسس": 9788,
      "أسل": 9789,
      "طلبنا": 9790,
      "وفيسور": 9791,
      "مدمن": 9792,
      "الانتباه": 9793,
      "سلط": 9794,
      "تيك": 9795,
      "طيء": 9796,
      "حرج": 9797,
      "والمشكلة": 9798,
      "القروض": 9799,
      "لسون": 9800,
      "أخبرنا": 9801,
      "اعتقادي": 9802,
      "بنينا": 9803,
      "وينبغي": 9804,
      "قاتل": 9805,
      "التعليمي": 9806,
      "المنزلية": 9807,
      "الأصغر": 9808,
      "تذكرون": 9809,
      "الاصوات": 9810,
      "أرضية": 9811,
      "المعروف": 9812,
      "سيئاً": 9813,
      "سيتوسين": 9814,
      "الضوئية": 9815,
      "الجليدية": 9816,
      "الميزانية": 9817,
      "الكثافة": 9818,
      "ذاهبون": 9819,
      "تتجه": 9820,
      "قبيلة": 9821,
      "النبيذ": 9822,
      "DNA": 9823,
      "أبط": 9824,
      "بوم": 9825,
      "بثلاث": 9826,
[...]
